{
  "version": "1.0",
  "truncation": null,
  "padding": null,
  "added_tokens": [
    {
      "id": 0,
      "content": "[UNK]",
      "single_word": false,
      "lstrip": false,
      "rstrip": false,
      "normalized": false,
      "special": true
    },
    {
      "id": 1,
      "content": "[CLS]",
      "single_word": false,
      "lstrip": false,
      "rstrip": false,
      "normalized": false,
      "special": true
    },
    {
      "id": 2,
      "content": "[SEP]",
      "single_word": false,
      "lstrip": false,
      "rstrip": false,
      "normalized": false,
      "special": true
    },
    {
      "id": 3,
      "content": "[PAD]",
      "single_word": false,
      "lstrip": false,
      "rstrip": false,
      "normalized": false,
      "special": true
    },
    {
      "id": 4,
      "content": "[MASK]",
      "single_word": false,
      "lstrip": false,
      "rstrip": false,
      "normalized": false,
      "special": true
    },
    {
      "id": 5,
      "content": "[PAR]",
      "single_word": false,
      "lstrip": false,
      "rstrip": false,
      "normalized": false,
      "special": true
    },
    {
      "id": 6,
      "content": "[TAB]",
      "single_word": false,
      "lstrip": false,
      "rstrip": false,
      "normalized": false,
      "special": true
    }
  ],
  "normalizer": null,
  "pre_tokenizer": {
    "type": "Sequence",
    "pretokenizers": [
      {
        "type": "ByteLevel",
        "add_prefix_space": true,
        "trim_offsets": true,
        "use_regex": true
      },
      {
        "type": "Digits",
        "individual_digits": true
      }
    ]
  },
  "post_processor": {
    "type": "ByteLevel",
    "add_prefix_space": true,
    "trim_offsets": true,
    "use_regex": true
  },
  "decoder": {
    "type": "ByteLevel",
    "add_prefix_space": true,
    "trim_offsets": true,
    "use_regex": true
  },
  "model": {
    "type": "WordPiece",
    "unk_token": "[UNK]",
    "continuing_subword_prefix": "",
    "max_input_chars_per_word": 100,
    "vocab": {
      "[UNK]": 0,
      "[CLS]": 1,
      "[SEP]": 2,
      "[PAD]": 3,
      "[MASK]": 4,
      "[PAR]": 5,
      "[TAB]": 6,
      "!": 7,
      "\"": 8,
      "#": 9,
      "$": 10,
      "%": 11,
      "&": 12,
      "'": 13,
      "(": 14,
      ")": 15,
      "*": 16,
      "+": 17,
      ",": 18,
      "-": 19,
      ".": 20,
      "/": 21,
      "0": 22,
      "1": 23,
      "2": 24,
      "3": 25,
      "4": 26,
      "5": 27,
      "6": 28,
      "7": 29,
      "8": 30,
      "9": 31,
      ":": 32,
      ";": 33,
      "<": 34,
      "=": 35,
      ">": 36,
      "?": 37,
      "@": 38,
      "A": 39,
      "B": 40,
      "C": 41,
      "D": 42,
      "E": 43,
      "F": 44,
      "G": 45,
      "H": 46,
      "I": 47,
      "J": 48,
      "K": 49,
      "L": 50,
      "M": 51,
      "N": 52,
      "O": 53,
      "P": 54,
      "Q": 55,
      "R": 56,
      "S": 57,
      "T": 58,
      "U": 59,
      "V": 60,
      "W": 61,
      "X": 62,
      "Y": 63,
      "Z": 64,
      "[": 65,
      "\\": 66,
      "]": 67,
      "^": 68,
      "_": 69,
      "`": 70,
      "a": 71,
      "b": 72,
      "c": 73,
      "d": 74,
      "e": 75,
      "f": 76,
      "g": 77,
      "h": 78,
      "i": 79,
      "j": 80,
      "k": 81,
      "l": 82,
      "m": 83,
      "n": 84,
      "o": 85,
      "p": 86,
      "q": 87,
      "r": 88,
      "s": 89,
      "t": 90,
      "u": 91,
      "v": 92,
      "w": 93,
      "x": 94,
      "y": 95,
      "z": 96,
      "{": 97,
      "|": 98,
      "}": 99,
      "~": 100,
      "¡": 101,
      "¢": 102,
      "£": 103,
      "¤": 104,
      "¥": 105,
      "¦": 106,
      "§": 107,
      "¨": 108,
      "©": 109,
      "ª": 110,
      "«": 111,
      "¬": 112,
      "®": 113,
      "¯": 114,
      "°": 115,
      "±": 116,
      "²": 117,
      "³": 118,
      "´": 119,
      "µ": 120,
      "¶": 121,
      "·": 122,
      "¸": 123,
      "¹": 124,
      "º": 125,
      "»": 126,
      "¼": 127,
      "½": 128,
      "¾": 129,
      "¿": 130,
      "Â": 131,
      "Ã": 132,
      "Ä": 133,
      "Å": 134,
      "Æ": 135,
      "Ç": 136,
      "È": 137,
      "É": 138,
      "Ê": 139,
      "Ë": 140,
      "Ì": 141,
      "Î": 142,
      "Ï": 143,
      "Ð": 144,
      "Ñ": 145,
      "×": 146,
      "Ø": 147,
      "Ù": 148,
      "Ú": 149,
      "Û": 150,
      "à": 151,
      "á": 152,
      "â": 153,
      "ã": 154,
      "ä": 155,
      "å": 156,
      "æ": 157,
      "ç": 158,
      "è": 159,
      "é": 160,
      "ê": 161,
      "ë": 162,
      "ì": 163,
      "í": 164,
      "ï": 165,
      "ð": 166,
      "Ġ": 167,
      "Ģ": 168,
      "ģ": 169,
      "Ĥ": 170,
      "ĥ": 171,
      "Ħ": 172,
      "ħ": 173,
      "Ĩ": 174,
      "ĩ": 175,
      "Ī": 176,
      "ī": 177,
      "Ĭ": 178,
      "ĭ": 179,
      "Į": 180,
      "į": 181,
      "İ": 182,
      "ı": 183,
      "Ĳ": 184,
      "ĳ": 185,
      "Ĵ": 186,
      "ĵ": 187,
      "Ķ": 188,
      "ķ": 189,
      "ĸ": 190,
      "Ĺ": 191,
      "ĺ": 192,
      "Ļ": 193,
      "ļ": 194,
      "Ľ": 195,
      "ľ": 196,
      "Ŀ": 197,
      "ŀ": 198,
      "Ł": 199,
      "ł": 200,
      "Ń": 201,
      "ku": 202,
      "ĠU": 203,
      "an": 204,
      "in": 205,
      "el": 206,
      "Ġn": 207,
      "en": 208,
      "Ġu": 209,
      "is": 210,
      "ĠUY": 211,
      "ba": 212,
      "la": 213,
      "Ġi": 214,
      "ĠI": 215,
      "th": 216,
      "wa": 217,
      "on": 218,
      "Ġk": 219,
      "ye": 220,
      "zi": 221,
      "yo": 222,
      "Ġe": 223,
      "Ġku": 224,
      "ha": 225,
      "ga": 226,
      "ma": 227,
      "le": 228,
      "ts": 229,
      "lo": 230,
      "li": 231,
      "Ġa": 232,
      "kh": 233,
      "ya": 234,
      "we": 235,
      "lu": 236,
      "Ġuku": 237,
      "UY": 238,
      "ph": 239,
      "ka": 240,
      "oku": 241,
      "Ġng": 242,
      "ze": 243,
      "si": 244,
      "ela": 245,
      "za": 246,
      "se": 247,
      "tsh": 248,
      "Ġo": 249,
      "Ġkw": 250,
      "mb": 251,
      "Ġkun": 252,
      "Ġ(": 253,
      "zin": 254,
      "ĠUA": 255,
      "un": 256,
      "iso": 257,
      "and": 258,
      "thi": 259,
      "ko": 260,
      "ele": 261,
      "ĠUku": 262,
      "ĠB": 263,
      "bo": 264,
      "ĠS": 265,
      "Ġkunye": 266,
      "er": 267,
      "ĠIT": 268,
      "isa": 269,
      "ĠC": 270,
      "Ġyo": 271,
      "Ġin": 272,
      "Ġkwi": 273,
      "or": 274,
      "di": 275,
      "es": 276,
      "da": 277,
      "hla": 278,
      "Ġz": 279,
      "yi": 280,
      "isi": 281,
      "um": 282,
      "ana": 283,
      "ho": 284,
      "Ġum": 285,
      "bu": 286,
      "ini": 287,
      "Ġna": 288,
      "ing": 289,
      "ke": 290,
      "eni": 291,
      "ti": 292,
      "om": 293,
      "be": 294,
      "elo": 295,
      "ang": 296,
      "ĠUkuze": 297,
      "ĠF": 298,
      "mi": 299,
      "Ġkwa": 300,
      "ĠN": 301,
      "eng": 302,
      "kho": 303,
      "pha": 304,
      "eli": 305,
      "Ġwa": 306,
      "ulu": 307,
      "Ġba": 308,
      "ĠK": 309,
      "tsha": 310,
      "Ġs": 311,
      "mba": 312,
      "Ġne": 313,
      "ben": 314,
      "tshin": 315,
      "ile": 316,
      "Ġyoku": 317,
      "Ġlo": 318,
      "to": 319,
      "al": 320,
      "ĠA": 321,
      "Ġya": 322,
      "tha": 323,
      "anga": 324,
      "ina": 325,
      "ani": 326,
      "ise": 327,
      "ĠP": 328,
      "Ġukuba": 329,
      "Ġye": 330,
      "ĠE": 331,
      "ĠL": 332,
      "va": 333,
      "hu": 334,
      "do": 335,
      "Ġezi": 336,
      "Ġnga": 337,
      "de": 338,
      "ĠM": 339,
      "xa": 340,
      "ane": 341,
      "the": 342,
      "mali": 343,
      "ro": 344,
      "Ġl": 345,
      "wo": 346,
      "Ġen": 347,
      "wu": 348,
      "qu": 349,
      "ĠBa": 350,
      "ra": 351,
      "Ġngoku": 352,
      "ri": 353,
      "phe": 354,
      "ch": 355,
      "te": 356,
      "ona": 357,
      "ĠIB": 358,
      "vel": 359,
      "Ġama": 360,
      "Ġ/": 361,
      "ex": 362,
      "Ġzon": 363,
      "ng": 364,
      "mbi": 365,
      "re": 366,
      "ta": 367,
      "zo": 368,
      "tu": 369,
      "wan": 370,
      "Ġm": 371,
      "ĠY": 372,
      "ban": 373,
      "fun": 374,
      "sa": 375,
      "ty": 376,
      "kwa": 377,
      "thu": 378,
      "ca": 379,
      "ileyo": 380,
      "ĠD": 381,
      "khe": 382,
      "hi": 383,
      "wen": 384,
      "kan": 385,
      "ĠT": 386,
      "seben": 387,
      "hlala": 388,
      "Ġka": 389,
      "Ġze": 390,
      "Ġy": 391,
      "Ġii": 392,
      "mp": 393,
      "mbali": 394,
      "Ġaba": 395,
      "isel": 396,
      "ĠFor": 397,
      "Ġkwaye": 398,
      "zinga": 399,
      "tshintsha": 400,
      "Ġzi": 401,
      "aniso": 402,
      "wano": 403,
      "Ġkwe": 404,
      "Ġ,": 405,
      "qa": 406,
      "ĠImali": 407,
      "ce": 408,
      "ĠW": 409,
      "Ġyokutshintsha": 410,
      "ĠForex": 411,
      "hl": 412,
      "fa": 413,
      "gu": 414,
      "Ġnj": 415,
      "Ġisi": 416,
      "Ġngo": 417,
      "ong": 418,
      "Ġzonaniso": 419,
      "us": 420,
      "phez": 421,
      "tshintsh": 422,
      "ĠBahlala": 423,
      "Ġnge": 424,
      "he": 425,
      "khulu": 426,
      "Ġezin": 427,
      "Ġno": 428,
      "veliso": 429,
      "ĠUYI": 430,
      "tho": 431,
      "ine": 432,
      "ĠUYN": 433,
      "onke": 434,
      "kha": 435,
      "fi": 436,
      "ĠG": 437,
      "ĠUYT": 438,
      "iselwano": 439,
      "ĠH": 440,
      "kanye": 441,
      "tshintshiselwano": 442,
      "Ġimbali": 443,
      "xo": 444,
      "iswa": 445,
      "Ġle": 446,
      "Ġza": 447,
      "Ġnoku": 448,
      "Ġiin": 449,
      "bi": 450,
      "tsi": 451,
      "ĠZ": 452,
      "lar": 453,
      "Ġokanye": 454,
      "ĠUYH": 455,
      "phu": 456,
      "gq": 457,
      "Ġeli": 458,
      "Ġb": 459,
      "ki": 460,
      "ol": 461,
      "ĠO": 462,
      "Ġun": 463,
      "lela": 464,
      "Ġsi": 465,
      "hina": 466,
      "kileyo": 467,
      "et": 468,
      "Ġc": 469,
      "ĠIY": 470,
      "ĠUYX": 471,
      "ĠUYU": 472,
      "Ġizi": 473,
      "ĠIn": 474,
      "Ġ-": 475,
      "su": 476,
      "man": 477,
      "ci": 478,
      "ĠUYA": 479,
      "Ġla": 480,
      "ĠUYO": 481,
      "âĢ": 482,
      "okuba": 483,
      "weni": 484,
      "mo": 485,
      "ĠUYS": 486,
      "ĠUYY": 487,
      "ish": 488,
      "ĠUYR": 489,
      "lung": 490,
      "ĠUYF": 491,
      "ĠUYJ": 492,
      "ĠUYQ": 493,
      "ene": 494,
      "ĠR": 495,
      "Ġem": 496,
      "ĠUYB": 497,
      "ar": 498,
      "Ġlwe": 499,
      "ĠUAY": 500,
      "bha": 501,
      "phezulu": 502,
      "ĠUYD": 503,
      "andla": 504,
      "wi": 505,
      "ĠUYW": 506,
      "ĠITQ": 507,
      "bon": 508,
      "Ġbe": 509,
      "Ġwe": 510,
      "kela": 511,
      "Ġizinga": 512,
      "lwa": 513,
      "ur": 514,
      "theng": 515,
      "vi": 516,
      "Ġko": 517,
      "ĠUAQ": 518,
      "shu": 519,
      "Ġlotshintshiselwano": 520,
      "ĠUM": 521,
      "Ġel": 522,
      "ĠIYO": 523,
      "gc": 524,
      "Ġw": 525,
      "xho": 526,
      "hlu": 527,
      "esha": 528,
      "sh": 529,
      "Ġli": 530,
      "Ġke": 531,
      "Ġndi": 532,
      "mveliso": 533,
      "qo": 534,
      "phaka": 535,
      "ĠNg": 536,
      "Ġloku": 537,
      "hlo": 538,
      "ĠUYK": 539,
      "me": 540,
      "ct": 541,
      "ib": 542,
      "gama": 543,
      "ĠChina": 544,
      "pho": 545,
      "dlela": 546,
      "ena": 547,
      "enz": 548,
      "fum": 549,
      "dawo": 550,
      "eho": 551,
      "ĠUYL": 552,
      "..": 553,
      "Ġma": 554,
      "XUY": 555,
      "Ġ|": 556,
      "ĠUYG": 557,
      "anda": 558,
      "Ġoku": 559,
      "dwa": 560,
      "àª": 561,
      "Ġdo": 562,
      "ji": 563,
      "tya": 564,
      "ĠUYZ": 565,
      "ehova": 566,
      "kwen": 567,
      "ni": 568,
      "Ġp": 569,
      "antsi": 570,
      "du": 571,
      "ĠMa": 572,
      "ent": 573,
      "Ġimi": 574,
      "zinto": 575,
      "inga": 576,
      "fu": 577,
      "weyo": 578,
      "bun": 579,
      "ange": 580,
      "Ġkuba": 581,
      "ĠITY": 582,
      "Ġubu": 583,
      "ĠITZ": 584,
      "phi": 585,
      "Ġnjeng": 586,
      "Ġngen": 587,
      "llar": 588,
      "Ġolu": 589,
      "oni": 590,
      "Ġdollar": 591,
      "Yehova": 592,
      "bho": 593,
      "dla": 594,
      "Ġon": 595,
      "ter": 596,
      "ĠUMQ": 597,
      "zisa": 598,
      "phambi": 599,
      "ĠIsi": 600,
      "Ġesi": 601,
      "kel": 602,
      "Ġse": 603,
      "Ġeku": 604,
      "vu": 605,
      "co": 606,
      "yana": 607,
      "yu": 608,
      "so": 609,
      "xesha": 610,
      "khu": 611,
      "eleyo": 612,
      "mandla": 613,
      "ĠIBY": 614,
      "Ġsa": 615,
      "inzi": 616,
      "Ġf": 617,
      "st": 618,
      "hixo": 619,
      "UO": 620,
      "cu": 621,
      "mn": 622,
      "Ġlu": 623,
      "tyenz": 624,
      "Ġzo": 625,
      "go": 626,
      "andle": 627,
      "ĠUAV": 628,
      "kqu": 629,
      "guqu": 630,
      "mbo": 631,
      "Ġzoku": 632,
      "Thixo": 633,
      "ĠUAX": 634,
      "ĠKu": 635,
      "kwe": 636,
      "bona": 637,
      "sin": 638,
      "bantu": 639,
      "bh": 640,
      "int": 641,
      "xhobo": 642,
      "ĠIW": 643,
      "IB": 644,
      "nga": 645,
      "Ġis": 646,
      "ĠX": 647,
      "kqubo": 648,
      "UUY": 649,
      "ĠIR": 650,
      "pa": 651,
      "ĠITN": 652,
      "hle": 653,
      "qala": 654,
      "Si": 655,
      "KUY": 656,
      "eka": 657,
      "Ġukusu": 658,
      "khi": 659,
      "ZX": 660,
      "zwe": 661,
      "ve": 662,
      "leyo": 663,
      "oko": 664,
      "las": 665,
      "phakathi": 666,
      "ge": 667,
      "tshini": 668,
      "gh": 669,
      "ran": 670,
      "ĠUAO": 671,
      "pp": 672,
      "Ġnaba": 673,
      "ĠUYC": 674,
      "ĠâĢ": 675,
      "sebenza": 676,
      "ĠCo": 677,
      "gi": 678,
      "IT": 679,
      "ja": 680,
      "bhu": 681,
      "cha": 682,
      "wana": 683,
      "lawu": 684,
      "ZUY": 685,
      "mk": 686,
      "ĠCa": 687,
      "tion": 688,
      "ĠWa": 689,
      "sebenzi": 690,
      "Ġkakhulu": 691,
      "Ġwen": 692,
      "phantsi": 693,
      "phandle": 694,
      "Ġyakho": 695,
      "elekileyo": 696,
      "Ġim": 697,
      "ir": 698,
      "Ġex": 699,
      "ango": 700,
      "YY": 701,
      "UA": 702,
      "elwa": 703,
      "ganga": 704,
      "Ġes": 705,
      "ĠUm": 706,
      "ente": 707,
      "wele": 708,
      "ntu": 709,
      "benzi": 710,
      "qon": 711,
      "enza": 712,
      "ĠSu": 713,
      "kile": 714,
      "Ġez": 715,
      "khus": 716,
      "Ġukuze": 717,
      "hlaba": 718,
      "Ġxa": 719,
      "ren": 720,
      "line": 721,
      "ĠIp": 722,
      "tan": 723,
      "mpa": 724,
      "Ġzonke": 725,
      "ĠLe": 726,
      "qin": 727,
      "ĠITF": 728,
      "kon": 729,
      "elwe": 730,
      "ĠUYV": 731,
      "matshini": 732,
      "bhe": 733,
      "ĠLi": 734,
      "change": 735,
      "cy": 736,
      "Ġkude": 737,
      "phel": 738,
      "tyenziswa": 739,
      "dlu": 740,
      "ron": 741,
      "Ġwase": 742,
      "zu": 743,
      "Ġyi": 744,
      "land": 745,
      "fe": 746,
      "Ġngu": 747,
      "Ġaku": 748,
      "na": 749,
      "Ġizinto": 750,
      "biso": 751,
      "yaka": 752,
      "Ġnen": 753,
      "elela": 754,
      "manzi": 755,
      "ling": 756,
      "elana": 757,
      "ĠBo": 758,
      "Ġexchange": 759,
      "Ġuya": 760,
      "cin": 761,
      "Ġonline": 762,
      "YS": 763,
      "phum": 764,
      "pe": 765,
      "gangatho": 766,
      "ĠIi": 767,
      "ĠZUO": 768,
      "Ġkodwa": 769,
      "fan": 770,
      "ĠV": 771,
      "enzi": 772,
      "Ġni": 773,
      "tshathi": 774,
      "phezu": 775,
      "bini": 776,
      "khan": 777,
      "funeka": 778,
      "ctor": 779,
      "shushu": 780,
      "Ġkum": 781,
      "mkani": 782,
      "wun": 783,
      "tic": 784,
      "ĠJ": 785,
      "phela": 786,
      "ĠUUY": 787,
      "tye": 788,
      "Ġuguqu": 789,
      "je": 790,
      "ĠIBQ": 791,
      "enze": 792,
      "Ġlwemali": 793,
      "Ġnom": 794,
      "ĠEn": 795,
      "ers": 796,
      "elelo": 797,
      "Ġlwa": 798,
      "ono": 799,
      "ĠIzi": 800,
      "Ġukusukela": 801,
      "LW": 802,
      "eso": 803,
      "fana": 804,
      "Pro": 805,
      "phambili": 806,
      "urren": 807,
      "...": 808,
      "urrency": 809,
      "Ġitshathi": 810,
      "okubala": 811,
      "mbe": 812,
      "Ġuguqulo": 813,
      "Ġkwimbali": 814,
      "hlobo": 815,
      "qh": 816,
      "Ġcurrency": 817,
      "WUY": 818,
      "ĠCal": 819,
      "il": 820,
      "qhu": 821,
      "xabiso": 822,
      "Ġkuku": 823,
      "Profi": 824,
      "ĠCalc": 825,
      "ĠCalcProfi": 826,
      "ĠSokubala": 827,
      "omo": 828,
      "Ġeng": 829,
      "Ġngenxa": 830,
      "yeli": 831,
      "sebenzisa": 832,
      "ĠLa": 833,
      "kwenza": 834,
      "ongo": 835,
      "QS": 836,
      "qinise": 837,
      "dala": 838,
      "kwazi": 839,
      "fo": 840,
      "ĠFa": 841,
      "OS": 842,
      "po": 843,
      "mbu": 844,
      "QUY": 845,
      "ĠUYE": 846,
      "ĠuYehova": 847,
      "ĠAma": 848,
      "ranc": 849,
      "ck": 850,
      "Ġnto": 851,
      "hamba": 852,
      "thengisi": 853,
      "lw": 854,
      "bala": 855,
      "Ġamazinga": 856,
      "Ġmveliso": 857,
      "ĠSupp": 858,
      "Ġ\"": 859,
      "Ġing": 860,
      "eloo": 861,
      "Ġeza": 862,
      "Ġotshintshiselwano": 863,
      "ĠYeloo": 864,
      "Ġand": 865,
      "zela": 866,
      "tor": 867,
      "Ġ&": 868,
      "Ġwo": 869,
      "OI": 870,
      "Ġkwin": 871,
      "UM": 872,
      "Ġyase": 873,
      "Ġ...": 874,
      "lelo": 875,
      "eneyo": 876,
      "setyenziswa": 877,
      "fumana": 878,
      "kis": 879,
      "konzo": 880,
      "ver": 881,
      "inar": 882,
      "vela": 883,
      "ĠPa": 884,
      "ru": 885,
      "IR": 886,
      "funa": 887,
      "tshi": 888,
      "anu": 889,
      "ĠSuppli": 890,
      "Ġnd": 891,
      "doda": 892,
      "Ġinto": 893,
      "ĠUkuba": 894,
      "onga": 895,
      "ĠDinar": 896,
      "kele": 897,
      "ĠAba": 898,
      "IZ": 899,
      "ĠIWF": 900,
      "kun": 901,
      "Ġbu": 902,
      "yan": 903,
      "enye": 904,
      "jalo": 905,
      "Ġnama": 906,
      "Ġaban": 907,
      "lisa": 908,
      "Ġngokuba": 909,
      "thetha": 910,
      "khon": 911,
      "iseben": 912,
      "thanda": 913,
      "kayo": 914,
      "Ġyonke": 915,
      "thwa": 916,
      "kelo": 917,
      "gqi": 918,
      "LI": 919,
      "em": 920,
      "ea": 921,
      "one": 922,
      "velisi": 923,
      "hluk": 924,
      "Ġngoko": 925,
      "vum": 926,
      "Ġiing": 927,
      "TI": 928,
      "ĠKe": 929,
      "ĠIBZ": 930,
      "shi": 931,
      "wule": 932,
      "kisa": 933,
      "kulu": 934,
      "Ġkufuneka": 935,
      "ĠSa": 936,
      "âĢĿ": 937,
      "yile": 938,
      "iswe": 939,
      "tri": 940,
      "rayeli": 941,
      "onyana": 942,
      "dle": 943,
      "Ġwoku": 944,
      "ble": 945,
      "oo": 946,
      "yithi": 947,
      "KU": 948,
      "Sirayeli": 949,
      "Ġab": 950,
      "bonaka": 951,
      "rh": 952,
      "Ġukuya": 953,
      "Ġnda": 954,
      "ctory": 955,
      "Ġint": 956,
      "uku": 957,
      "pheleleyo": 958,
      "beni": 959,
      "iya": 960,
      "Ġili": 961,
      "pu": 962,
      "Ġabantu": 963,
      "hlukeneyo": 964,
      "Ġixesha": 965,
      "eleli": 966,
      "ĠPro": 967,
      "etes": 968,
      "Zetes": 969,
      "min": 970,
      "umi": 971,
      "kamp": 972,
      "hamb": 973,
      "isela": 974,
      "gqomo": 975,
      "zinye": 976,
      "lawulo": 977,
      "Ġbonke": 978,
      "ul": 979,
      "Ġkoku": 980,
      "Ġngaphandle": 981,
      "Ġwam": 982,
      "Ġphakathi": 983,
      "Ġubun": 984,
      "Ġumgqomo": 985,
      "ĠSo": 986,
      "khanya": 987,
      "ĠFactory": 988,
      "ry": 989,
      "ĠuThixo": 990,
      "Ġyen": 991,
      "Ġàª": 992,
      "Ġisa": 993,
      "lasi": 994,
      "àª¿": 995,
      "àª¨": 996,
      "Ġàª¬": 997,
      "tsimbi": 998,
      "ĠITJ": 999,
      "ishini": 1000,
      "JS": 1001,
      "ĠKwa": 1002,
      "bomi": 1003,
      "thile": 1004,
      "kampani": 1005,
      "UK": 1006,
      "zwi": 1007,
      "ed": 1008,
      "ĠUAH": 1009,
      "mini": 1010,
      "anian": 1011,
      "thengi": 1012,
      "wang": 1013,
      "iselo": 1014,
      "ser": 1015,
      "xha": 1016,
      "Ġngum": 1017,
      "mnye": 1018,
      "ĠNa": 1019,
      "ess": 1020,
      "mbane": 1021,
      "lide": 1022,
      "NG": 1023,
      "Ġapho": 1024,
      "Ġom": 1025,
      "anti": 1026,
      "ED": 1027,
      "Ġâ": 1028,
      "hlang": 1029,
      "Ġnezi": 1030,
      "elel": 1031,
      "Ġamandla": 1032,
      "beka": 1033,
      "leni": 1034,
      "ĠIBK": 1035,
      "qha": 1036,
      "pro": 1037,
      "inye": 1038,
      "Ġbo": 1039,
      "IW": 1040,
      "qi": 1041,
      "ĠUAJ": 1042,
      "loko": 1043,
      "KR": 1044,
      "ino": 1045,
      "Ġoko": 1046,
      "ĠIpeso": 1047,
      "yin": 1048,
      "van": 1049,
      "Ġyakhe": 1050,
      "Ġkuma": 1051,
      "bhi": 1052,
      "gcina": 1053,
      "ĠQ": 1054,
      "Ġsoku": 1055,
      "Ġiya": 1056,
      "khona": 1057,
      "GY": 1058,
      "ght": 1059,
      "sebenz": 1060,
      "Ġemva": 1061,
      "MD": 1062,
      "mbini": 1063,
      "mm": 1064,
      "Ġkom": 1065,
      "Ġben": 1066,
      "eri": 1067,
      "UYO": 1068,
      "Ġnje": 1069,
      "Mo": 1070,
      "banzi": 1071,
      "ĠNga": 1072,
      "Ġkuye": 1073,
      "Ġnjengoko": 1074,
      "tile": 1075,
      "TD": 1076,
      "Ġindlela": 1077,
      "eleko": 1078,
      "Ġentsha": 1079,
      "UR": 1080,
      "onge": 1081,
      "ĠIRF": 1082,
      "Ġt": 1083,
      "enga": 1084,
      "lunga": 1085,
      "gqib": 1086,
      "IK": 1087,
      "ĠUAW": 1088,
      "Ġngom": 1089,
      "ĠCh": 1090,
      "Ġiimveliso": 1091,
      "vian": 1092,
      "golide": 1093,
      "Ġwakho": 1094,
      "era": 1095,
      "UD": 1096,
      "Ġyaye": 1097,
      "hlan": 1098,
      "Ġeya": 1099,
      "zal": 1100,
      "Ġnam": 1101,
      "ĠuY": 1102,
      "Ġzin": 1103,
      "zima": 1104,
      "xi": 1105,
      "tsho": 1106,
      "zimba": 1107,
      "OL": 1108,
      "cwa": 1109,
      "vo": 1110,
      "Ġimveliso": 1111,
      "ĠNe": 1112,
      "zulu": 1113,
      "it": 1114,
      "ung": 1115,
      "CU": 1116,
      "layo": 1117,
      "anye": 1118,
      "IY": 1119,
      "Ġngayo": 1120,
      "Ġ>": 1121,
      "fumane": 1122,
      "Ġizixhobo": 1123,
      "xu": 1124,
      "yama": 1125,
      "Ġngama": 1126,
      "MZ": 1127,
      "China": 1128,
      "UQ": 1129,
      "kumbi": 1130,
      "UV": 1131,
      "kisi": 1132,
      "andi": 1133,
      "Ġenga": 1134,
      "meko": 1135,
      "les": 1136,
      "ceda": 1137,
      "mva": 1138,
      "mente": 1139,
      "Ġphambi": 1140,
      "Ġneen": 1141,
      "Ġunga": 1142,
      "khawule": 1143,
      "Ġnabathengisi": 1144,
      "UZ": 1145,
      "enxa": 1146,
      "WI": 1147,
      "ĠNdi": 1148,
      "Ġaman": 1149,
      "webhu": 1150,
      "lule": 1151,
      "sha": 1152,
      "tt": 1153,
      "zantsi": 1154,
      "QY": 1155,
      "VC": 1156,
      "ĠIin": 1157,
      "Ġca": 1158,
      "fanelekileyo": 1159,
      "Ġiint": 1160,
      "MR": 1161,
      "ER": 1162,
      "Ġumntu": 1163,
      "ĠIYY": 1164,
      "Ġyesi": 1165,
      "ĠTa": 1166,
      "kw": 1167,
      "nye": 1168,
      "Ġyin": 1169,
      "phepha": 1170,
      "xal": 1171,
      "xalenye": 1172,
      "Ġyam": 1173,
      "kr": 1174,
      "Ġukun": 1175,
      "Ġleyo": 1176,
      "kelela": 1177,
      "Ġr": 1178,
      "lingan": 1179,
      "QR": 1180,
      "ĠâĢľ": 1181,
      "celo": 1182,
      "Ġezahlukeneyo": 1183,
      "Ġezininzi": 1184,
      "Ġbaka": 1185,
      "UI": 1186,
      "onti": 1187,
      "XZ": 1188,
      "olo": 1189,
      "phawu": 1190,
      "esu": 1191,
      "ĠSi": 1192,
      "Ġkuphela": 1193,
      "Ġinkqubo": 1194,
      "bushushu": 1195,
      "Ġwathi": 1196,
      "UL": 1197,
      "Ġnee": 1198,
      "zwa": 1199,
      "Ġanga": 1200,
      "Ġumsebenzi": 1201,
      "XR": 1202,
      "lula": 1203,
      "langa": 1204,
      "WD": 1205,
      "lizi": 1206,
      "Ġumb": 1207,
      "Ġyethu": 1208,
      "anethi": 1209,
      "zini": 1210,
      "ĠUAL": 1211,
      "Ġfranc": 1212,
      "am": 1213,
      "ĠIron": 1214,
      "Ġeliphezulu": 1215,
      "MY": 1216,
      "Ġphezu": 1217,
      "yise": 1218,
      "kosi": 1219,
      "ond": 1220,
      "ĠIs": 1221,
      "Ġbakhe": 1222,
      "Ġwakhe": 1223,
      "kiso": 1224,
      "cinci": 1225,
      "Ġindawo": 1226,
      "bonisa": 1227,
      "ZD": 1228,
      "thetho": 1229,
      "tur": 1230,
      "qela": 1231,
      "Ġof": 1232,
      "XY": 1233,
      "gcwele": 1234,
      "khiwo": 1235,
      "ĠMach": 1236,
      "ĠDol": 1237,
      "ĠXa": 1238,
      "Ġnjenge": 1239,
      "Ġip": 1240,
      "HR": 1241,
      "ĠDollar": 1242,
      "hen": 1243,
      "BD": 1244,
      "zayo": 1245,
      "Ġnjl": 1246,
      "kelayo": 1247,
      "Ġyom": 1248,
      "vavan": 1249,
      "JI": 1250,
      "mpawu": 1251,
      "ĠNgoku": 1252,
      "UE": 1253,
      "Ġso": 1254,
      "mpahla": 1255,
      "der": 1256,
      "wangc": 1257,
      "XN": 1258,
      "funo": 1259,
      "UG": 1260,
      "riyo": 1261,
      "XA": 1262,
      "Ġkwen": 1263,
      "TN": 1264,
      "ding": 1265,
      "ĠYa": 1266,
      "hlabathi": 1267,
      "Ġlokuqala": 1268,
      "ĠKuba": 1269,
      "thela": 1270,
      "qhelekileyo": 1271,
      "ĠLo": 1272,
      "CD": 1273,
      "twana": 1274,
      "cala": 1275,
      "Ġmalunga": 1276,
      "XO": 1277,
      "BR": 1278,
      "loo": 1279,
      "Ġngqo": 1280,
      "Yu": 1281,
      "ft": 1282,
      "Ġkubo": 1283,
      "glasi": 1284,
      "qondo": 1285,
      "sino": 1286,
      "ula": 1287,
      "lin": 1288,
      "Ġibho": 1289,
      "jeng": 1290,
      "DR": 1291,
      "SR": 1292,
      "ĠIponti": 1293,
      "XF": 1294,
      "cinane": 1295,
      "yilo": 1296,
      "lwini": 1297,
      "UYK": 1298,
      "CR": 1299,
      "ic": 1300,
      "yango": 1301,
      "dena": 1302,
      "UYZ": 1303,
      "Ġele": 1304,
      "phuma": 1305,
      "wundi": 1306,
      "MW": 1307,
      "Ġnemi": 1308,
      "Ġzakho": 1309,
      "LY": 1310,
      "denariyo": 1311,
      "ĠSupplier": 1312,
      "IN": 1313,
      "esh": 1314,
      "xe": 1315,
      "SD": 1316,
      "ĠGu": 1317,
      "alo": 1318,
      "phucu": 1319,
      "UF": 1320,
      "sika": 1321,
      "andelo": 1322,
      "cing": 1323,
      "dum": 1324,
      "Ġunyana": 1325,
      "),": 1326,
      "thaba": 1327,
      "ondo": 1328,
      "kcu": 1329,
      "Ġumgangatho": 1330,
      "ne": 1331,
      "DY": 1332,
      "ham": 1333,
      "endu": 1334,
      "khuseleko": 1335,
      "QZ": 1336,
      "lomo": 1337,
      "tiki": 1338,
      "Ġnang": 1339,
      "ml": 1340,
      "Ġakukho": 1341,
      "Ġey": 1342,
      "Ġabe": 1343,
      "XG": 1344,
      "UW": 1345,
      "UYY": 1346,
      "cwangc": 1347,
      "oya": 1348,
      "Ġkaku": 1349,
      "ĠYi": 1350,
      "onic": 1351,
      "XJ": 1352,
      "usa": 1353,
      "LR": 1354,
      "Ġzen": 1355,
      "banda": 1356,
      "qana": 1357,
      "bane": 1358,
      "Ġigama": 1359,
      "UYG": 1360,
      "TR": 1361,
      ").": 1362,
      "XH": 1363,
      "Ġayi": 1364,
      "Ġnokuba": 1365,
      "ziwa": 1366,
      "Ġase": 1367,
      "misa": 1368,
      "zelo": 1369,
      "SA": 1370,
      ".,": 1371,
      "MK": 1372,
      "zenze": 1373,
      "QD": 1374,
      "ĠPo": 1375,
      "Ġenye": 1376,
      "Ġinga": 1377,
      "ĠPre": 1378,
      "Ġbakho": 1379,
      "est": 1380,
      "Ġde": 1381,
      "WG": 1382,
      "Ġung": 1383,
      "ishino": 1384,
      "ĠProdu": 1385,
      "ible": 1386,
      "thuba": 1387,
      "thun": 1388,
      "UYN": 1389,
      "ard": 1390,
      "ous": 1391,
      "Ġd": 1392,
      "Ġkuyo": 1393,
      "exesha": 1394,
      "fane": 1395,
      "IM": 1396,
      "bani": 1397,
      "Ġphantsi": 1398,
      "WY": 1399,
      "Ġkh": 1400,
      "yanga": 1401,
      "khaya": 1402,
      "ome": 1403,
      "OY": 1404,
      "ĠSe": 1405,
      "okwa": 1406,
      "wimi": 1407,
      "Ġmi": 1408,
      "rin": 1409,
      "TY": 1410,
      "Ġezifana": 1411,
      "ĠIRY": 1412,
      "angela": 1413,
      "Ġkwii": 1414,
      "UYP": 1415,
      "Ġkukho": 1416,
      "hlawu": 1417,
      "ĠXUY": 1418,
      "thum": 1419,
      "Ma": 1420,
      "Ġise": 1421,
      "cinga": 1422,
      "end": 1423,
      "lise": 1424,
      "EL": 1425,
      "ZY": 1426,
      "IX": 1427,
      "Ġibe": 1428,
      "ywa": 1429,
      "EM": 1430,
      "ris": 1431,
      "lwazi": 1432,
      "Ġukwenza": 1433,
      "una": 1434,
      "KY": 1435,
      "SY": 1436,
      "OR": 1437,
      "Ġ.": 1438,
      "chi": 1439,
      "etal": 1440,
      "Ġize": 1441,
      "bing": 1442,
      "UYR": 1443,
      "ĠEzin": 1444,
      "IC": 1445,
      "gca": 1446,
      "cal": 1447,
      "UYJ": 1448,
      "Ġnase": 1449,
      "Ġwaba": 1450,
      "thengisa": 1451,
      "lobo": 1452,
      "faka": 1453,
      "Ġnabenzi": 1454,
      "fazi": 1455,
      "isebenzi": 1456,
      "VR": 1457,
      "UN": 1458,
      "bhalo": 1459,
      "qinisekisa": 1460,
      "Ġpha": 1461,
      "Ġbaya": 1462,
      "QC": 1463,
      "ON": 1464,
      "Yi": 1465,
      "hosa": 1466,
      "Ġabo": 1467,
      "khawuleza": 1468,
      "UYW": 1469,
      "elele": 1470,
      "ando": 1471,
      "Ġamanzi": 1472,
      "Ġyokuba": 1473,
      "ĠAn": 1474,
      "iseko": 1475,
      "mbulu": 1476,
      "ĠSom": 1477,
      "TL": 1478,
      "sebenzisi": 1479,
      "Ġkakuhle": 1480,
      "enziwe": 1481,
      "QI": 1482,
      "phin": 1483,
      "Ġkwiin": 1484,
      "zenzekelayo": 1485,
      "diban": 1486,
      "UB": 1487,
      "TZ": 1488,
      "velisa": 1489,
      "Ġkuya": 1490,
      "phuhl": 1491,
      "candelo": 1492,
      "QL": 1493,
      "ĠHo": 1494,
      "UYF": 1495,
      "Ġemi": 1496,
      "ĠyoM": 1497,
      "jikele": 1498,
      "OD": 1499,
      "MB": 1500,
      "wane": 1501,
      "TH": 1502,
      "MA": 1503,
      "mpu": 1504,
      "Ġam": 1505,
      "zana": 1506,
      "suku": 1507,
      "elayo": 1508,
      "XL": 1509,
      "teel": 1510,
      "lwe": 1511,
      "OC": 1512,
      "Ġzabo": 1513,
      "Ġukusuka": 1514,
      "ĠCon": 1515,
      "EW": 1516,
      "IJ": 1517,
      "XV": 1518,
      "Ġngakumbi": 1519,
      "ĠBu": 1520,
      "UYH": 1521,
      "Ġukusebenza": 1522,
      "ĠOku": 1523,
      "gam": 1524,
      "Ġumn": 1525,
      "dlalo": 1526,
      "lastiki": 1527,
      "QJ": 1528,
      "ll": 1529,
      "Ġulu": 1530,
      "yili": 1531,
      "fune": 1532,
      "cac": 1533,
      "Ġnesi": 1534,
      "In": 1535,
      "Ġoo": 1536,
      "thathu": 1537,
      "So": 1538,
      "Da": 1539,
      "Ġophezulu": 1540,
      "mon": 1541,
      "phefum": 1542,
      "ĠHi": 1543,
      "QH": 1544,
      "Ġbam": 1545,
      "lungisa": 1546,
      "ZZ": 1547,
      "ore": 1548,
      "lungu": 1549,
      "ram": 1550,
      "QA": 1551,
      "ĠFranc": 1552,
      "Ġkuni": 1553,
      "Ġngokwe": 1554,
      "xin": 1555,
      "umba": 1556,
      "QG": 1557,
      "Ġnamhlan": 1558,
      "MN": 1559,
      "Ġan": 1560,
      "ord": 1561,
      "ĠSt": 1562,
      "ĠUYP": 1563,
      "shumi": 1564,
      "Ġnjalo": 1565,
      "XK": 1566,
      "UJ": 1567,
      "Ġkwisi": 1568,
      "vious": 1569,
      "EY": 1570,
      "iselwa": 1571,
      "Ġobu": 1572,
      "CL": 1573,
      "ĠPrevious": 1574,
      "ĠMachine": 1575,
      "ĠITU": 1576,
      "ĠUAB": 1577,
      "ĠIJS": 1578,
      "OB": 1579,
      "ĠTo": 1580,
      "esi": 1581,
      "dini": 1582,
      "omp": 1583,
      "QF": 1584,
      "Ġwom": 1585,
      "ĠCookwa": 1586,
      "ĠCookware": 1587,
      "lay": 1588,
      "hlwa": 1589,
      "Ġiza": 1590,
      "ĠIWZ": 1591,
      "Ġfor": 1592,
      "US": 1593,
      "ĠUS": 1594,
      "Ġmo": 1595,
      "ctur": 1596,
      "Ġubomi": 1597,
      "Ġzethu": 1598,
      "WF": 1599,
      "Ġezinga": 1600,
      "Ġema": 1601,
      "CZ": 1602,
      "Ġukumkani": 1603,
      "Ġg": 1604,
      "ĠImi": 1605,
      "tch": 1606,
      "buy": 1607,
      "ĠEle": 1608,
      "QN": 1609,
      "UH": 1610,
      "thamb": 1611,
      "QV": 1612,
      "OK": 1613,
      "SL": 1614,
      "lungileyo": 1615,
      "Ġkuthi": 1616,
      "fanele": 1617,
      "QK": 1618,
      "ced": 1619,
      "yam": 1620,
      "ext": 1621,
      "Ġent": 1622,
      "Ġumatshini": 1623,
      "Ġnges": 1624,
      "ction": 1625,
      "Ġngexesha": 1626,
      "EU": 1627,
      "eleni": 1628,
      "ĠWathi": 1629,
      "chwe": 1630,
      "Ġelide": 1631,
      "ĠManu": 1632,
      "ump": 1633,
      "Ġukukhanya": 1634,
      "ĠKo": 1635,
      "CB": 1636,
      "ZH": 1637,
      "Ġkuwe": 1638,
      "kxa": 1639,
      "ly": 1640,
      "kacha": 1641,
      "Bha": 1642,
      "Ġphawundi": 1643,
      "Ġkokuba": 1644,
      "isebenzisa": 1645,
      "kcukacha": 1646,
      "Ġkhona": 1647,
      "Ġngokwa": 1648,
      "UYB": 1649,
      "ciph": 1650,
      "ĠyoMvelisi": 1651,
      "tamente": 1652,
      "ĠXhosa": 1653,
      "Yuda": 1654,
      "lala": 1655,
      "ĠBible": 1656,
      "Ġkwama": 1657,
      "ĠEzingcwele": 1658,
      "puta": 1659,
      "Yiputa": 1660,
      "GB": 1661,
      "ronic": 1662,
      "ĠEndala": 1663,
      "ĠNext": 1664,
      "ĠIzibhalo": 1665,
      "ĠneZetes": 1666,
      "sayithi": 1667,
      "tanente": 1668,
      "Zetestanente": 1669,
      "ĠizeZetestanente": 1670,
      "ĠneZetestamente": 1671,
      "UT": 1672,
      "ire": 1673,
      "CUY": 1674,
      "thatha": 1675,
      "ET": 1676,
      "ys": 1677,
      "Ġlaser": 1678,
      "vavanyo": 1679,
      "oniso": 1680,
      "Ġenkulu": 1681,
      "lan": 1682,
      "minyaka": 1683,
      "KK": 1684,
      "MF": 1685,
      "ĠHigh": 1686,
      "Ġaka": 1687,
      "Ġnezinye": 1688,
      "Ġonke": 1689,
      "OA": 1690,
      "WZ": 1691,
      "Ġuphawu": 1692,
      "ĠEzi": 1693,
      "ĠSuppliers": 1694,
      "Ġlula": 1695,
      "Ġend": 1696,
      "MG": 1697,
      "kanani": 1698,
      "ĠÂ": 1699,
      "ĠRi": 1700,
      "ging": 1701,
      "Ġezine": 1702,
      "fanekiso": 1703,
      "ĠNew": 1704,
      "lumini": 1705,
      "Ġyabo": 1706,
      "leka": 1707,
      "WR": 1708,
      "hambelana": 1709,
      "Ġese": 1710,
      "qe": 1711,
      "ĠUMZ": 1712,
      "OP": 1713,
      "rea": 1714,
      "uni": 1715,
      "tyi": 1716,
      "Ġwena": 1717,
      "Ġebu": 1718,
      "ĠFlo": 1719,
      "funda": 1720,
      "Ġelin": 1721,
      "MT": 1722,
      "gy": 1723,
      "Ġkwakhe": 1724,
      "OZ": 1725,
      "Ġubushushu": 1726,
      "ĠUmatshini": 1727,
      "gwe": 1728,
      "lian": 1729,
      "ama": 1730,
      "ĠIBO": 1731,
      "QT": 1732,
      "Ġziya": 1733,
      "WH": 1734,
      "SI": 1735,
      "balule": 1736,
      "Ġpro": 1737,
      "ĠMo": 1738,
      "shishini": 1739,
      "isiweyo": 1740,
      "kwakha": 1741,
      "MI": 1742,
      "rhwe": 1743,
      "fund": 1744,
      "EN": 1745,
      "Ġndiya": 1746,
      "ĠSc": 1747,
      "bili": 1748,
      "omen": 1749,
      "ML": 1750,
      "inyaka": 1751,
      "qal": 1752,
      "kwi": 1753,
      "elanga": 1754,
      "ungu": 1755,
      "KZ": 1756,
      "ĠHa": 1757,
      "Ġlakho": 1758,
      "OV": 1759,
      "SH": 1760,
      "mileyo": 1761,
      "ber": 1762,
      "Ġnobu": 1763,
      "Ġngokukhawuleza": 1764,
      "phula": 1765,
      "XI": 1766,
      "lwimi": 1767,
      "Ġban": 1768,
      "yiphi": 1769,
      "engiso": 1770,
      "zele": 1771,
      "ristu": 1772,
      "khosi": 1773,
      "Ġlom": 1774,
      "GR": 1775,
      "OJ": 1776,
      "Ġloo": 1777,
      "XD": 1778,
      "ĠAf": 1779,
      "ment": 1780,
      "UYA": 1781,
      "tra": 1782,
      "Ġuzi": 1783,
      "id": 1784,
      "men": 1785,
      "han": 1786,
      "Ġphambili": 1787,
      "Pa": 1788,
      "ctronic": 1789,
      "liziyo": 1790,
      "wer": 1791,
      "nika": 1792,
      "lilo": 1793,
      "antya": 1794,
      "Ġkwakho": 1795,
      "ther": 1796,
      "NC": 1797,
      "plastiki": 1798,
      "onaka": 1799,
      "Ġkulo": 1800,
      "cingo": 1801,
      "EG": 1802,
      "qho": 1803,
      "ZI": 1804,
      "Ġkube": 1805,
      "qwen": 1806,
      "UYD": 1807,
      "XC": 1808,
      "KUUY": 1809,
      "qanaba": 1810,
      "LIB": 1811,
      "suka": 1812,
      "XB": 1813,
      "QB": 1814,
      "Ġube": 1815,
      "isele": 1816,
      "kxaso": 1817,
      "ZXX": 1818,
      "Ġuhlobo": 1819,
      "chu": 1820,
      "nolo": 1821,
      "ande": 1822,
      "TG": 1823,
      "OH": 1824,
      "XS": 1825,
      "lileyo": 1826,
      "riya": 1827,
      "Ġiindawo": 1828,
      "OF": 1829,
      "Ġkoko": 1830,
      "Ġabanga": 1831,
      "NY": 1832,
      "Ġlonke": 1833,
      "ciphisa": 1834,
      "phumo": 1835,
      "YYZ": 1836,
      "shishino": 1837,
      "qua": 1838,
      "factur": 1839,
      "XE": 1840,
      "khethe": 1841,
      "Ġbabe": 1842,
      "XW": 1843,
      "lungisel": 1844,
      "Ġumoya": 1845,
      "shici": 1846,
      "phendu": 1847,
      "Ġomnye": 1848,
      "phucula": 1849,
      "ZR": 1850,
      "dleko": 1851,
      "theth": 1852,
      "NI": 1853,
      "Ġkwabo": 1854,
      "MV": 1855,
      "Ġh": 1856,
      "Ġngokupheleleyo": 1857,
      "Ġwaye": 1858,
      "lic": 1859,
      "lastic": 1860,
      "ZL": 1861,
      "thethi": 1862,
      "ĠKanga": 1863,
      "Nkosi": 1864,
      "Ġimali": 1865,
      "ĠInxalenye": 1866,
      "ses": 1867,
      "dalo": 1868,
      "KG": 1869,
      "Ġkwaba": 1870,
      "Ġkalo": 1871,
      "ĠOf": 1872,
      "MH": 1873,
      "ĠBoli": 1874,
      "ako": 1875,
      "UYU": 1876,
      "BH": 1877,
      "KI": 1878,
      "ĠManufactur": 1879,
      "lass": 1880,
      "ĠITH": 1881,
      "zekelo": 1882,
      "TF": 1883,
      "xib": 1884,
      "thini": 1885,
      "gakanani": 1886,
      "ĠITB": 1887,
      "QE": 1888,
      "CY": 1889,
      "tshane": 1890,
      "gcisa": 1891,
      "Ġzom": 1892,
      "Ġ'": 1893,
      "Ġkwakhona": 1894,
      "eshe": 1895,
      "Ġyena": 1896,
      "cts": 1897,
      "bra": 1898,
      "MJ": 1899,
      "Ġ+": 1900,
      "Ġelu": 1901,
      "lle": 1902,
      "TV": 1903,
      "ted": 1904,
      "futshane": 1905,
      "AS": 1906,
      "quka": 1907,
      "sus": 1908,
      "Ġezimbini": 1909,
      "ĠNgo": 1910,
      "QO": 1911,
      "QW": 1912,
      "tsa": 1913,
      "ime": 1914,
      "thelo": 1915,
      "Ġmna": 1916,
      "hambo": 1917,
      "KD": 1918,
      "kanga": 1919,
      "Ġiz": 1920,
      "gamsh": 1921,
      "tyala": 1922,
      "bonakala": 1923,
      "phefumlo": 1924,
      "GH": 1925,
      "lue": 1926,
      "moto": 1927,
      "cwangciso": 1928,
      "EF": 1929,
      "Ġzase": 1930,
      "yeni": 1931,
      "Ġingq": 1932,
      "UYS": 1933,
      "UYI": 1934,
      "Ġyama": 1935,
      "LWU": 1936,
      "ĠUni": 1937,
      "BY": 1938,
      "fundi": 1939,
      "ĠSta": 1940,
      "lands": 1941,
      "enge": 1942,
      "fikelela": 1943,
      "vide": 1944,
      "XT": 1945,
      "ĠZi": 1946,
      "GI": 1947,
      "angaphandle": 1948,
      "kelele": 1949,
      "zeka": 1950,
      "vumela": 1951,
      "ĠLight": 1952,
      "NF": 1953,
      "VY": 1954,
      "WL": 1955,
      "Ġimp": 1956,
      "pi": 1957,
      "ĠTur": 1958,
      "funeko": 1959,
      "WS": 1960,
      "ND": 1961,
      "andleni": 1962,
      "VI": 1963,
      "Ġnes": 1964,
      "CH": 1965,
      "NL": 1966,
      "Ġezinye": 1967,
      "waka": 1968,
      "ere": 1969,
      "ĠUAZ": 1970,
      "Ġra": 1971,
      "lele": 1972,
      "Ġukusika": 1973,
      "ĠuYesu": 1974,
      "Ġngaba": 1975,
      "Ġngaphezulu": 1976,
      "cwadi": 1977,
      "rt": 1978,
      "jongo": 1979,
      "Ġiglasi": 1980,
      "tywa": 1981,
      "yim": 1982,
      "hlangan": 1983,
      "ĠPi": 1984,
      "boneleli": 1985,
      "ĠNge": 1986,
      "phumelela": 1987,
      "ut": 1988,
      "ĠRo": 1989,
      "xaki": 1990,
      "Ġnaku": 1991,
      "WJ": 1992,
      "ĠNgoko": 1993,
      "NA": 1994,
      "ike": 1995,
      "Le": 1996,
      "Ġixabiso": 1997,
      "Ġngaphezu": 1998,
      "tro": 1999,
      "Ġ*": 2000,
      "khetha": 2001,
      "Ġyaba": 2002,
      "ĠDe": 2003,
      "bonelela": 2004,
      "kistan": 2005,
      "Ġlowo": 2006,
      "cedo": 2007,
      "Ġasi": 2008,
      "Ġsiya": 2009,
      "Ġbase": 2010,
      "tr": 2011,
      "Ġapha": 2012,
      "gian": 2013,
      "KS": 2014,
      "kazi": 2015,
      "LL": 2016,
      "elwano": 2017,
      "dge": 2018,
      "tse": 2019,
      "Ġngaphakathi": 2020,
      "KH": 2021,
      "ĠManufacturers": 2022,
      "FR": 2023,
      "bisi": 2024,
      "phakamileyo": 2025,
      "anel": 2026,
      "Ġowa": 2027,
      "ĠBea": 2028,
      "ompo": 2029,
      "ĠAku": 2030,
      "ĠNgokuba": 2031,
      "sta": 2032,
      "Ġuma": 2033,
      "Ġawa": 2034,
      "Ġoonyana": 2035,
      "gqibela": 2036,
      "GD": 2037,
      "qonda": 2038,
      "Ne": 2039,
      "lawula": 2040,
      "KA": 2041,
      "diyo": 2042,
      "bandakan": 2043,
      "lang": 2044,
      "enziwa": 2045,
      "krele": 2046,
      "Ġukutya": 2047,
      "ĠBra": 2048,
      "Ġkwezi": 2049,
      "ANG": 2050,
      "CQ": 2051,
      "ĠKa": 2052,
      "ĠMe": 2053,
      "bela": 2054,
      "mu": 2055,
      "ĠUmb": 2056,
      "webhusayithi": 2057,
      "Ġiintlobo": 2058,
      "JY": 2059,
      "vaka": 2060,
      "und": 2061,
      "Davide": 2062,
      "KE": 2063,
      "mntu": 2064,
      "MQ": 2065,
      "Ġukusetyenziswa": 2066,
      "ĠTurk": 2067,
      "fika": 2068,
      "thint": 2069,
      "eleleyo": 2070,
      "Ġib": 2071,
      "NR": 2072,
      "Ġukuthi": 2073,
      "Ġpa": 2074,
      "dlala": 2075,
      "ĠKodwa": 2076,
      "gcin": 2077,
      "gn": 2078,
      "hlabeni": 2079,
      "khadi": 2080,
      "xolo": 2081,
      "com": 2082,
      "Ġuze": 2083,
      "LB": 2084,
      "ric": 2085,
      "rone": 2086,
      "Ġkwizi": 2087,
      "entla": 2088,
      "tem": 2089,
      "ress": 2090,
      "sen": 2091,
      "ĠkaYehova": 2092,
      "uri": 2093,
      "hleli": 2094,
      "ĠDir": 2095,
      "less": 2096,
      "Ġyayo": 2097,
      "Ġkaloku": 2098,
      "ĠIng": 2099,
      "ZF": 2100,
      "Ġnamhlanje": 2101,
      "KF": 2102,
      "zer": 2103,
      "khasino": 2104,
      "tical": 2105,
      "ĠDirham": 2106,
      "ĠMala": 2107,
      "thumela": 2108,
      "HY": 2109,
      "Ġphezulu": 2110,
      "Ġkuzo": 2111,
      "UYT": 2112,
      "ID": 2113,
      "ĠSolar": 2114,
      "VL": 2115,
      "Ġco": 2116,
      "qhagamsh": 2117,
      "she": 2118,
      "ĠIdenariyo": 2119,
      "ĠCast": 2120,
      "qong": 2121,
      "reen": 2122,
      "ĠProducts": 2123,
      "yini": 2124,
      "hlalo": 2125,
      "intanethi": 2126,
      "rans": 2127,
      "ZJ": 2128,
      "PC": 2129,
      "sion": 2130,
      "OG": 2131,
      "Ġulawulo": 2132,
      "wini": 2133,
      "lem": 2134,
      "ant": 2135,
      "umelelo": 2136,
      "UC": 2137,
      "Sa": 2138,
      "ĠIslands": 2139,
      "ker": 2140,
      "diya": 2141,
      "Ġnganye": 2142,
      "Ġeling": 2143,
      "xhen": 2144,
      "ĠyaseM": 2145,
      "ĠuM": 2146,
      "âĢĻ": 2147,
      "OT": 2148,
      "BW": 2149,
      "zile": 2150,
      "ĠZonke": 2151,
      "Ġilizwe": 2152,
      "BG": 2153,
      "Ġngeen": 2154,
      "xholo": 2155,
      "ishishini": 2156,
      "Ġabenzi": 2157,
      "UYE": 2158,
      "Ġkunga": 2159,
      "nia": 2160,
      "ktri": 2161,
      "ĠGa": 2162,
      "ĠNjeng": 2163,
      "kelwa": 2164,
      "Ġezo": 2165,
      "ĠCar": 2166,
      "zalwana": 2167,
      "unga": 2168,
      "ĠBal": 2169,
      "khonzi": 2170,
      "kelwe": 2171,
      "PY": 2172,
      "melana": 2173,
      "khumba": 2174,
      "anama": 2175,
      "Ġlika": 2176,
      "ĠCO": 2177,
      "sian": 2178,
      "ĠUn": 2179,
      "gaqo": 2180,
      "UYC": 2181,
      "Ġsakho": 2182,
      "fanayo": 2183,
      "FJ": 2184,
      "Ġibhe": 2185,
      "Ĥ¬": 2186,
      "tsuku": 2187,
      "Ġyobu": 2188,
      "Ġngokubanzi": 2189,
      "sing": 2190,
      "erusa": 2191,
      "qaku": 2192,
      "erusalem": 2193,
      "yisa": 2194,
      "cess": 2195,
      "Ġzakhe": 2196,
      "gesi": 2197,
      "engqondo": 2198,
      "PI": 2199,
      "thele": 2200,
      "ĠPump": 2201,
      "thand": 2202,
      "FY": 2203,
      "Ġkwimi": 2204,
      "ZN": 2205,
      "ĠkaThixo": 2206,
      "khomp": 2207,
      "Ġazi": 2208,
      "ust": 2209,
      "of": 2210,
      "Ġkonke": 2211,
      "BI": 2212,
      "KJ": 2213,
      "kanti": 2214,
      "wel": 2215,
      "Ni": 2216,
      "ĠLed": 2217,
      "xhenxe": 2218,
      "fektri": 2219,
      "tting": 2220,
      "gua": 2221,
      "OE": 2222,
      "zala": 2223,
      "Ġngendlela": 2224,
      "khompyu": 2225,
      "GA": 2226,
      "lahle": 2227,
      "ĠKwi": 2228,
      "ĠITX": 2229,
      "OW": 2230,
      "mele": 2231,
      "Ġifa": 2232,
      "gen": 2233,
      "yona": 2234,
      "nike": 2235,
      "ĠCu": 2236,
      "Ġyezi": 2237,
      "gqina": 2238,
      "Ġsen": 2239,
      "ĠEmva": 2240,
      "QM": 2241,
      "Ġkule": 2242,
      "Ġelectronic": 2243,
      "TA": 2244,
      "hlanga": 2245,
      "Ġezintsha": 2246,
      "KL": 2247,
      "Yerusalem": 2248,
      "light": 2249,
      "den": 2250,
      "ĠImveliso": 2251,
      "Ġlobushushu": 2252,
      "Ġre": 2253,
      "Ġkwindawo": 2254,
      "ĠUbu": 2255,
      "thembe": 2256,
      "kra": 2257,
      "IH": 2258,
      "daba": 2259,
      "ĠuA": 2260,
      "Ġukwa": 2261,
      "Ġisixhobo": 2262,
      "ĠNor": 2263,
      "anese": 2264,
      "wuni": 2265,
      "Ġbethu": 2266,
      "khusela": 2267,
      "ĠNgenxa": 2268,
      "rani": 2269,
      "uro": 2270,
      "ĠMauri": 2271,
      "gazi": 2272,
      "Ġiim": 2273,
      "Ġsisi": 2274,
      "ĠRe": 2275,
      "Ġwethu": 2276,
      "bian": 2277,
      "UU": 2278,
      "Ġwesi": 2279,
      "Ġkwam": 2280,
      "ĠBolivian": 2281,
      "Ġukanti": 2282,
      "Ġizin": 2283,
      "anat": 2284,
      "XX": 2285,
      "qhuba": 2286,
      "xelo": 2287,
      "Ġufuna": 2288,
      "qini": 2289,
      "kwacha": 2290,
      "tal": 2291,
      "Ġity": 2292,
      "qwa": 2293,
      "eniso": 2294,
      "manye": 2295,
      "vula": 2296,
      "Ġboku": 2297,
      "Ġte": 2298,
      "BS": 2299,
      "hoqo": 2300,
      "kisha": 2301,
      "rha": 2302,
      "ĠNo": 2303,
      "Ġngemi": 2304,
      "tambo": 2305,
      "landelayo": 2306,
      "Kristu": 2307,
      "ĠDa": 2308,
      "per": 2309,
      "banye": 2310,
      "QQ": 2311,
      "Ġkwel": 2312,
      "TS": 2313,
      "lelwa": 2314,
      "KN": 2315,
      "liver": 2316,
      "Ġzesi": 2317,
      "ss": 2318,
      "xh": 2319,
      "eza": 2320,
      "pheshe": 2321,
      "fundo": 2322,
      "BA": 2323,
      "cwele": 2324,
      "Ġelinye": 2325,
      "Ġnabo": 2326,
      "bhile": 2327,
      "KV": 2328,
      "ĠAl": 2329,
      "Ġiimpawu": 2330,
      "mbian": 2331,
      "mpi": 2332,
      "ĠPha": 2333,
      "ĠIWQ": 2334,
      "Ġabathengi": 2335,
      "MC": 2336,
      "ĠâĢĵ": 2337,
      "ori": 2338,
      "dian": 2339,
      "LS": 2340,
      "dad": 2341,
      "khoyo": 2342,
      "balulekileyo": 2343,
      "KW": 2344,
      "livere": 2345,
      "mbululo": 2346,
      "ĠSomlomo": 2347,
      "ano": 2348,
      "dong": 2349,
      "fes": 2350,
      "sy": 2351,
      "mani": 2352,
      "Ġnger": 2353,
      "ĠLib": 2354,
      "ĠSur": 2355,
      "xowa": 2356,
      "oh": 2357,
      "yina": 2358,
      "EI": 2359,
      "Ġlen": 2360,
      "Ġlakhe": 2361,
      "isayo": 2362,
      "Ġzama": 2363,
      "Ġintsimbi": 2364,
      "JF": 2365,
      "jini": 2366,
      "ying": 2367,
      "ZG": 2368,
      "Ġunoku": 2369,
      "Ġngeranti": 2370,
      "ĠTu": 2371,
      "olon": 2372,
      "Ġemhlabeni": 2373,
      "Ġezint": 2374,
      "ĠChile": 2375,
      "fumaneka": 2376,
      "ĠNang": 2377,
      "Ġkunjalo": 2378,
      "JR": 2379,
      "liweyo": 2380,
      "thengiswa": 2381,
      "Ġnayiphi": 2382,
      "WV": 2383,
      "Ġelung": 2384,
      "angen": 2385,
      "khethekileyo": 2386,
      "ĠUmboniso": 2387,
      "bum": 2388,
      "Ġeziphambili": 2389,
      "ican": 2390,
      "ZV": 2391,
      "Ġuhla": 2392,
      "qond": 2393,
      ".+": 2394,
      "ĠRu": 2395,
      "liso": 2396,
      "qeq": 2397,
      "Ġch": 2398,
      "gumbi": 2399,
      "LN": 2400,
      "kumkani": 2401,
      "ĠInd": 2402,
      "eria": 2403,
      "Ġrhoqo": 2404,
      "XM": 2405,
      "phathe": 2406,
      "vidiyo": 2407,
      "Ġnaye": 2408,
      "ĠChilean": 2409,
      "tathu": 2410,
      "lon": 2411,
      "Ġkuwo": 2412,
      "Ġndawo": 2413,
      "Ġiphepha": 2414,
      "Ġumzimba": 2415,
      "ĠLEU": 2416,
      "AR": 2417,
      "ĠQu": 2418,
      "kweni": 2419,
      "kuba": 2420,
      "yalelo": 2421,
      "isetyenziswa": 2422,
      "ĠâĤ¬": 2423,
      "mpumelelo": 2424,
      "ad": 2425,
      "bula": 2426,
      "que": 2427,
      "CV": 2428,
      "Ġkwesi": 2429,
      "oth": 2430,
      "Ġidenariyo": 2431,
      "tter": 2432,
      "daweni": 2433,
      "Ġwonke": 2434,
      "thabatha": 2435,
      "phuhliso": 2436,
      "Ġendlwini": 2437,
      "yuka": 2438,
      "Ġiminyaka": 2439,
      "gs": 2440,
      "Ġamadoda": 2441,
      "khulule": 2442,
      "EZ": 2443,
      "lweni": 2444,
      "ip": 2445,
      "phakade": 2446,
      "ystem": 2447,
      "Ġtro": 2448,
      "Moses": 2449,
      "td": 2450,
      "phos": 2451,
      "komo": 2452,
      "Ġumbala": 2453,
      "onasi": 2454,
      "BF": 2455,
      "Ġukuqinisekisa": 2456,
      "Ġisicelo": 2457,
      "isombululo": 2458,
      "Ġzeplastiki": 2459,
      "zim": 2460,
      "hai": 2461,
      "ĠEntsha": 2462,
      "KQ": 2463,
      "Ġuba": 2464,
      "ĠColo": 2465,
      "Ġtroy": 2466,
      "xuma": 2467,
      "Ġukufumana": 2468,
      "ĠâĢľâĢĿ": 2469,
      "zweni": 2470,
      "iseni": 2471,
      "Ġto": 2472,
      "ĠTe": 2473,
      "hobho": 2474,
      "iti": 2475,
      "Ġinkonzo": 2476,
      "Ġkan": 2477,
      "hlanu": 2478,
      "TC": 2479,
      "ali": 2480,
      "ĠWomen": 2481,
      "ĠZUOZ": 2482,
      "XU": 2483,
      "Ġdi": 2484,
      "susela": 2485,
      "ĠNangona": 2486,
      "leko": 2487,
      "ishumi": 2488,
      "bhala": 2489,
      "dolo": 2490,
      "Ġinkampani": 2491,
      "YZUY": 2492,
      "isana": 2493,
      "ĠPVC": 2494,
      "Ġong": 2495,
      "Ġkwee": 2496,
      "WA": 2497,
      "xibelel": 2498,
      "kunye": 2499,
      "unda": 2500,
      "ĠEN": 2501,
      "tyalo": 2502,
      "SE": 2503,
      "ou": 2504,
      "BL": 2505,
      "ĠLtd": 2506,
      "DD": 2507,
      "ĠPlastic": 2508,
      "ĠkuYehova": 2509,
      "WN": 2510,
      "coca": 2511,
      "Ġilizwi": 2512,
      "can": 2513,
      "ĠNda": 2514,
      "Ġeliphantsi": 2515,
      "MM": 2516,
      "thombo": 2517,
      "Ġimisebenzi": 2518,
      "ven": 2519,
      "ĠSer": 2520,
      "ĠUp": 2521,
      "inam": 2522,
      "lel": 2523,
      "zelelo": 2524,
      "TJ": 2525,
      "jonga": 2526,
      "ĠPol": 2527,
      "Ġngobu": 2528,
      "FC": 2529,
      "iko": 2530,
      "zithi": 2531,
      "zise": 2532,
      "Ġzibe": 2533,
      "fice": 2534,
      "Ġzinto": 2535,
      "cacileyo": 2536,
      "Ġkwayo": 2537,
      "Ġene": 2538,
      "yibhile": 2539,
      "logi": 2540,
      "mbeni": 2541,
      "Ġipeso": 2542,
      "cono": 2543,
      "Ġuye": 2544,
      "ĠEa": 2545,
      "howu": 2546,
      "khutha": 2547,
      "XQ": 2548,
      "indo": 2549,
      "IG": 2550,
      "phendula": 2551,
      "fowuni": 2552,
      "KC": 2553,
      "Ġkukuba": 2554,
      "ĠLED": 2555,
      "ĠUDY": 2556,
      "Ġth": 2557,
      "andisa": 2558,
      "ĠITO": 2559,
      "khompyutha": 2560,
      "SS": 2561,
      "gubo": 2562,
      "inless": 2563,
      "Ġulwazi": 2564,
      "phan": 2565,
      "Ġanti": 2566,
      "ĠElect": 2567,
      "keni": 2568,
      "son": 2569,
      "tyenziselwa": 2570,
      "OM": 2571,
      "ĠNdiya": 2572,
      "kca": 2573,
      "zelwa": 2574,
      "rand": 2575,
      "Ġumthetho": 2576,
      "ĠHome": 2577,
      "dibanisa": 2578,
      "Ġuyi": 2579,
      "ĠGi": 2580,
      "ĠKwaye": 2581,
      "Ġimihla": 2582,
      "En": 2583,
      "Ġiye": 2584,
      "mera": 2585,
      "Ġneeng": 2586,
      "Ġbesi": 2587,
      "ĠDi": 2588,
      "ĠOffice": 2589,
      "liya": 2590,
      "sem": 2591,
      "ceba": 2592,
      "Ġzaba": 2593,
      "istan": 2594,
      "profe": 2595,
      "NH": 2596,
      "lelwe": 2597,
      "ĠSteel": 2598,
      "ZC": 2599,
      "Ġuthe": 2600,
      "Ġamagama": 2601,
      "Ġezinkulu": 2602,
      "ircu": 2603,
      "ĠEyo": 2604,
      "Ġesithi": 2605,
      "Ġngokwen": 2606,
      "Ġnon": 2607,
      "Ġesin": 2608,
      "phando": 2609,
      "KT": 2610,
      "ĠMetal": 2611,
      "Ġelo": 2612,
      "ĠZUOQ": 2613,
      "gun": 2614,
      "Ġuthi": 2615,
      "lum": 2616,
      "Ġoluzenzekelayo": 2617,
      "tar": 2618,
      "Ġngesi": 2619,
      "Ġbabo": 2620,
      "cine": 2621,
      "qhube": 2622,
      "lwan": 2623,
      "Ġbaba": 2624,
      "saba": 2625,
      "Ca": 2626,
      "Ġuyilo": 2627,
      "mv": 2628,
      "Ġinoku": 2629,
      "ircuit": 2630,
      "theni": 2631,
      "sind": 2632,
      "XXUY": 2633,
      "Ġngeli": 2634,
      "ika": 2635,
      "for": 2636,
      "Ġufumane": 2637,
      "sasa": 2638,
      "ZS": 2639,
      "ĠIBW": 2640,
      "bel": 2641,
      "Ti": 2642,
      "ZE": 2643,
      "iyal": 2644,
      "Ġlam": 2645,
      "khula": 2646,
      ",+": 2647,
      "Ġukhuseleko": 2648,
      "ĠEuro": 2649,
      "YR": 2650,
      "ĠRiyal": 2651,
      "IV": 2652,
      "OQ": 2653,
      "WC": 2654,
      "ĠGe": 2655,
      "Ġubungakanani": 2656,
      "ĠWe": 2657,
      "ĠHot": 2658,
      "BV": 2659,
      "ĠPower": 2660,
      "liswa": 2661,
      "Ġyegama": 2662,
      "teri": 2663,
      "PS": 2664,
      "Ġezweni": 2665,
      "liseyili": 2666,
      "howuliseyili": 2667,
      "ĠIhowuliseyili": 2668,
      "let": 2669,
      "Ġkung": 2670,
      "Ġsin": 2671,
      "lungele": 2672,
      "por": 2673,
      "Ġkween": 2674,
      "banga": 2675,
      "FH": 2676,
      "Ġlwen": 2677,
      "khawun": 2678,
      "hala": 2679,
      "Ġyoko": 2680,
      "chane": 2681,
      "Ġv": 2682,
      "isu": 2683,
      "Ġefanelekileyo": 2684,
      "log": 2685,
      "LH": 2686,
      "cam": 2687,
      "ree": 2688,
      "kwenziwa": 2689,
      "liwe": 2690,
      "ĠEyoM": 2691,
      "ket": 2692,
      "ĠbakaSirayeli": 2693,
      "khawunti": 2694,
      "Ġzinga": 2695,
      "DT": 2696,
      "ĠCircuit": 2697,
      "IZZ": 2698,
      "Ã¢": 2699,
      "Ġalumini": 2700,
      "Ġezipheleleyo": 2701,
      "Ġngeenxa": 2702,
      "gx": 2703,
      "indow": 2704,
      "ZT": 2705,
      "ĠPer": 2706,
      "phathi": 2707,
      "Ġzee": 2708,
      "Ġnt": 2709,
      "khwe": 2710,
      "ost": 2711,
      "NV": 2712,
      "ĠEku": 2713,
      "Sihlalo": 2714,
      "ok": 2715,
      "ulti": 2716,
      "Ġyee": 2717,
      "FP": 2718,
      "iswano": 2719,
      "khonk": 2720,
      "Ġha": 2721,
      "zibu": 2722,
      "bhodi": 2723,
      "singa": 2724,
      "phila": 2725,
      "LC": 2726,
      "LA": 2727,
      "oli": 2728,
      "ĠSwe": 2729,
      "ork": 2730,
      "ĠAbaboneleli": 2731,
      "Ġuza": 2732,
      "hlophe": 2733,
      "bandakanya": 2734,
      "enzelwe": 2735,
      "khiwa": 2736,
      "ĠIzixhobo": 2737,
      "Ġibhokisi": 2738,
      "EJI": 2739,
      "Ġsele": 2740,
      "phinda": 2741,
      "BC": 2742,
      "FF": 2743,
      "Ġsteel": 2744,
      "isebenza": 2745,
      "ĠZUOB": 2746,
      "ral": 2747,
      "zon": 2748,
      "anisa": 2749,
      "ductor": 2750,
      "Ġkwelinye": 2751,
      "LD": 2752,
      "Ġemn": 2753,
      "datha": 2754,
      "yl": 2755,
      "Ġkwaku": 2756,
      "inese": 2757,
      "thuthu": 2758,
      "biza": 2759,
      "LJ": 2760,
      "ĠIRZ": 2761,
      "sho": 2762,
      "ĠSh": 2763,
      "emfuno": 2764,
      "thenga": 2765,
      "phathekayo": 2766,
      "bile": 2767,
      "ĠYe": 2768,
      "Ġendi": 2769,
      "Ġisakhiwo": 2770,
      "jwa": 2771,
      "pan": 2772,
      "mod": 2773,
      "LTD": 2774,
      "Ġsakhe": 2775,
      "WT": 2776,
      "ĠIm": 2777,
      "chule": 2778,
      "Ġelungileyo": 2779,
      "uba": 2780,
      "Ġbanga": 2781,
      "khangela": 2782,
      "Ġabaninzi": 2783,
      "yibha": 2784,
      "bone": 2785,
      "OO": 2786,
      "YH": 2787,
      "kro": 2788,
      "rike": 2789,
      "ĠZe": 2790,
      "Ġxesha": 2791,
      ".âĢĿ": 2792,
      "hubhu": 2793,
      "xinzelelo": 2794,
      "Ġnanga": 2795,
      "key": 2796,
      "table": 2797,
      "yaniso": 2798,
      "bonelelo": 2799,
      "Ġabanini": 2800,
      "jani": 2801,
      "tswana": 2802,
      "Ġbathi": 2803,
      "yathelo": 2804,
      "ĠNEW": 2805,
      "donga": 2806,
      "Ġho": 2807,
      "ines": 2808,
      "ME": 2809,
      "ĠâĢ¢": 2810,
      "Ġndlela": 2811,
      "mbalwa": 2812,
      "WUUY": 2813,
      "Ġawu": 2814,
      "gqiba": 2815,
      "hlangu": 2816,
      "WB": 2817,
      "jin": 2818,
      "mehlo": 2819,
      "ĠGlass": 2820,
      "ongeza": 2821,
      "Ġishishini": 2822,
      "lungelo": 2823,
      "mer": 2824,
      "ĠAbavelisi": 2825,
      "Ġzobu": 2826,
      "ĠiNkosi": 2827,
      "Ġsesi": 2828,
      "KB": 2829,
      "thwalo": 2830,
      "Ġsinga": 2831,
      "Ġyinto": 2832,
      "ĠQUY": 2833,
      "sini": 2834,
      "ĠCat": 2835,
      "FI": 2836,
      "ĠFIZZ": 2837,
      "ĠThe": 2838,
      "tes": 2839,
      "ERGY": 2840,
      "ĠENERGY": 2841,
      "EJIANG": 2842,
      "tsing": 2843,
      "thembekileyo": 2844,
      "Ġiindlela": 2845,
      "Ġiindleko": 2846,
      "xube": 2847,
      "ĠIJ": 2848,
      "UYV": 2849,
      "Ġlesi": 2850,
      "rhwebo": 2851,
      "tsingiselo": 2852,
      "Ġoomatshini": 2853,
      "gaba": 2854,
      "yani": 2855,
      "bizwa": 2856,
      "GS": 2857,
      "uth": 2858,
      "Ġwama": 2859,
      "LZ": 2860,
      "Ġro": 2861,
      "khumbu": 2862,
      "ongez": 2863,
      "Ġuluhlu": 2864,
      "Ġnina": 2865,
      "ĠCom": 2866,
      "FS": 2867,
      "yenza": 2868,
      "Ġindlu": 2869,
      "ordan": 2870,
      "dy": 2871,
      "tooth": 2872,
      "jek": 2873,
      "Ġuvavanyo": 2874,
      "ĠBah": 2875,
      "Ġabaxho": 2876,
      "Ġusebenzisa": 2877,
      "Ġakho": 2878,
      "phosa": 2879,
      "fom": 2880,
      "qula": 2881,
      "Ġngokuthe": 2882,
      "FE": 2883,
      "kum": 2884,
      "ingeleli": 2885,
      "Ġwel": 2886,
      "xulu": 2887,
      "ĠSystem": 2888,
      "cial": 2889,
      "QU": 2890,
      "bele": 2891,
      "yd": 2892,
      "Ġngase": 2893,
      "hlaza": 2894,
      "bhokisi": 2895,
      "bonakalayo": 2896,
      "kholo": 2897,
      "bantwana": 2898,
      "FD": 2899,
      "mahla": 2900,
      "GT": 2901,
      "ingu": 2902,
      "yure": 2903,
      "ĠIS": 2904,
      "sebenzayo": 2905,
      "wanga": 2906,
      "Ġngokun": 2907,
      "Ġubukhulu": 2908,
      "PA": 2909,
      "luetooth": 2910,
      "LV": 2911,
      "Ġlase": 2912,
      "hloko": 2913,
      "oma": 2914,
      "Ġnayo": 2915,
      "qhosha": 2916,
      "hlazi": 2917,
      "Ġomkhulu": 2918,
      "cka": 2919,
      "linganisa": 2920,
      "kana": 2921,
      "Ġnjengom": 2922,
      "jong": 2923,
      "kiswa": 2924,
      "ei": 2925,
      "qhubeka": 2926,
      "didi": 2927,
      "gra": 2928,
      "Ba": 2929,
      "fudum": 2930,
      "onakalo": 2931,
      "Ġabaxhobisi": 2932,
      "Ġwabo": 2933,
      "khiqi": 2934,
      "yisi": 2935,
      "ĠLaphumelela": 2936,
      "Ġzam": 2937,
      "Ġngezi": 2938,
      "ĠHer": 2939,
      "xhome": 2940,
      "Ġyokusebenza": 2941,
      "ĠAnti": 2942,
      "Ġzezi": 2943,
      "thintela": 2944,
      "UQUY": 2945,
      "YI": 2946,
      "qungu": 2947,
      "ĠOEM": 2948,
      "bana": 2949,
      "ishi": 2950,
      "UYIT": 2951,
      "ĠEyoMqungu": 2952,
      "YJ": 2953,
      "ue": 2954,
      "lex": 2955,
      "kethe": 2956,
      "tive": 2957,
      "Ġonga": 2958,
      "intoni": 2959,
      "Fa": 2960,
      "Ġfi": 2961,
      "Ġeyi": 2962,
      "luntu": 2963,
      "phatha": 2964,
      "Ġimpahla": 2965,
      "Ġana": 2966,
      "Ġiqela": 2967,
      "IWUY": 2968,
      "qayi": 2969,
      "ĠWu": 2970,
      "ĠPar": 2971,
      "Ġneneniso": 2972,
      "ĠCutting": 2973,
      "ĠUya": 2974,
      "Ġoyi": 2975,
      "Ġobun": 2976,
      "gcinwa": 2977,
      "ware": 2978,
      "Ġngamnye": 2979,
      "ĠAfgh": 2980,
      "BJ": 2981,
      "FV": 2982,
      "Ġela": 2983,
      "che": 2984,
      "Ġaya": 2985,
      "themba": 2986,
      "lwanyana": 2987,
      "YD": 2988,
      "res": 2989,
      "zeli": 2990,
      "Ġibh": 2991,
      "yela": 2992,
      "ngena": 2993,
      "NT": 2994,
      "mvu": 2995,
      "GZ": 2996,
      "oc": 2997,
      "Ġukugcina": 2998,
      "Ġmini": 2999,
      "UX": 3000,
      "Ġyokuqala": 3001,
      "linganiselo": 3002,
      "ĠLaser": 3003,
      "nikela": 3004,
      "thiweyo": 3005,
      "Ġsom": 3006,
      "bisa": 3007,
      "fer": 3008,
      "rian": 3009,
      "pakisha": 3010,
      "ĠSiya": 3011,
      "ĠEye": 3012,
      "ratch": 3013,
      "kwaYuda": 3014,
      "Ġiingu": 3015,
      "WW": 3016,
      "YA": 3017,
      "MO": 3018,
      "NZ": 3019,
      "hana": 3020,
      "themb": 3021,
      "Ġkabini": 3022,
      "QX": 3023,
      "ulumente": 3024,
      "thuny": 3025,
      "Ġkanye": 3026,
      "ĠSal": 3027,
      "Ġmetal": 3028,
      "khupha": 3029,
      "Ġga": 3030,
      "gcine": 3031,
      "ence": 3032,
      "ĠBar": 3033,
      "EJ": 3034,
      "mal": 3035,
      "chnolo": 3036,
      "Ġunako": 3037,
      "bhedu": 3038,
      "Ġukuyi": 3039,
      "Ġnjani": 3040,
      "chel": 3041,
      "kwenzeka": 3042,
      "Ġamaninzi": 3043,
      "CA": 3044,
      "uch": 3045,
      "IZUY": 3046,
      "Ġibha": 3047,
      "ĠYZUY": 3048,
      "gov": 3049,
      "Zi": 3050,
      "ratcher": 3051,
      "BZ": 3052,
      "omoya": 3053,
      "uto": 3054,
      "ĠUkwa": 3055,
      "obu": 3056,
      "Ġzegolide": 3057,
      "ĠFib": 3058,
      "ĠScratcher": 3059,
      "ingxuma": 3060,
      "Ġsika": 3061,
      "kwan": 3062,
      "Ġzifektri": 3063,
      "zileyo": 3064,
      "velaphi": 3065,
      "angoku": 3066,
      "ĠAr": 3067,
      "HD": 3068,
      "ting": 3069,
      "Ġinductor": 3070,
      "rho": 3071,
      "udi": 3072,
      "Ġukuphucula": 3073,
      "xhomeke": 3074,
      "ES": 3075,
      "gri": 3076,
      "ĠFi": 3077,
      "meni": 3078,
      "HI": 3079,
      "ĠLira": 3080,
      "ĠBos": 3081,
      "enzo": 3082,
      "zathu": 3083,
      "Ġziji": 3084,
      "ĠKUUY": 3085,
      "ĠAkukho": 3086,
      "VD": 3087,
      "GJ": 3088,
      "by": 3089,
      "Ġ:": 3090,
      "ĠPrin": 3091,
      "jekthi": 3092,
      "zegov": 3093,
      "Ġezivela": 3094,
      "Ġbona": 3095,
      "zegovina": 3096,
      "lind": 3097,
      "Ġkulula": 3098,
      "cebo": 3099,
      "ĠHerzegovina": 3100,
      "KO": 3101,
      "lini": 3102,
      "Ġsol": 3103,
      "ĠBosnia": 3104,
      "ziko": 3105,
      "UYIB": 3106,
      "vator": 3107,
      "leyi": 3108,
      "Ġinani": 3109,
      "Ġabangama": 3110,
      "Se": 3111,
      "Ġendaweni": 3112,
      "bangela": 3113,
      "mise": 3114,
      "ĠWire": 3115,
      "hlweni": 3116,
      "Ġzijikwe": 3117,
      "ĠSurinam": 3118,
      "uan": 3119,
      "thuthi": 3120,
      "akhawunti": 3121,
      "Ġninga": 3122,
      "Ġukuzi": 3123,
      "pla": 3124,
      "kwaSirayeli": 3125,
      "Ġandi": 3126,
      "Int": 3127,
      "bang": 3128,
      "lisi": 3129,
      "Ġ#": 3130,
      "Ġwaya": 3131,
      "fakwa": 3132,
      "hlawula": 3133,
      "FN": 3134,
      "thamo": 3135,
      "Ġukuvelisa": 3136,
      "¬âĢ": 3137,
      "ĠCha": 3138,
      "Ġisixa": 3139,
      "¬âĢł": 3140,
      "Ġeziphathekayo": 3141,
      "ĠXXUY": 3142,
      "MX": 3143,
      "TT": 3144,
      "ĠCor": 3145,
      "buya": 3146,
      "GL": 3147,
      "chnology": 3148,
      "Mveliso": 3149,
      "Ġkwemi": 3150,
      "ĠRiel": 3151,
      "La": 3152,
      "Â¬âĢł": 3153,
      "Ġbazi": 3154,
      "ruba": 3155,
      "Ġomhle": 3156,
      "onyaka": 3157,
      "Ġevela": 3158,
      "chwear": 3159,
      "ĠBeachwear": 3160,
      "thweni": 3161,
      "ĠLoku": 3162,
      "Ġika": 3163,
      "olisa": 3164,
      "GV": 3165,
      "ĠIRW": 3166,
      "jikeleza": 3167,
      "ĠEng": 3168,
      "RR": 3169,
      "Ġangama": 3170,
      "hambisa": 3171,
      "HA": 3172,
      "Ġyemi": 3173,
      "He": 3174,
      "ĠKukho": 3175,
      "Entsha": 3176,
      "runa": 3177,
      "wandle": 3178,
      "ĠIr": 3179,
      "ĠâĦ": 3180,
      "hambodiya": 3181,
      "qinileyo": 3182,
      "tyo": 3183,
      "ĠYen": 3184,
      "ĠkaY": 3185,
      "ikoruna": 3186,
      "inch": 3187,
      "ĠKhambodiya": 3188,
      "Ġlwakho": 3189,
      "Ġwi": 3190,
      "zama": 3191,
      "ĠBhu": 3192,
      "Ġlin": 3193,
      "red": 3194,
      "hili": 3195,
      "Ġnomgangatho": 3196,
      "taba": 3197,
      "gging": 3198,
      "Ġfa": 3199,
      "Ġamaxesha": 3200,
      "Ġnan": 3201,
      "ĠBir": 3202,
      "ĠInkqubo": 3203,
      "ĠSao": 3204,
      "yawo": 3205,
      "ĠLen": 3206,
      "ĠFlorin": 3207,
      "ĠHong": 3208,
      "ĠAfri": 3209,
      "Ġeyo": 3210,
      "ĠQa": 3211,
      "profeti": 3212,
      "kani": 3213,
      "ps": 3214,
      "ĠAc": 3215,
      "ĠVi": 3216,
      "dwe": 3217,
      "ranite": 3218,
      "wela": 3219,
      "Ġwenze": 3220,
      "Ġji": 3221,
      "ĠNd": 3222,
      "yuli": 3223,
      "Ha": 3224,
      "ĠFloor": 3225,
      "ltr": 3226,
      "UYL": 3227,
      "MS": 3228,
      "sefu": 3229,
      "ĠTh": 3230,
      "phoseni": 3231,
      "makhi": 3232,
      "thwe": 3233,
      "Ġiimfuno": 3234,
      "dor": 3235,
      "jiswa": 3236,
      "ĠBhutan": 3237,
      "IXUY": 3238,
      "yen": 3239,
      "hlabathini": 3240,
      "ltrum": 3241,
      "mis": 3242,
      "Ġabi": 3243,
      "Ġngaphantsi": 3244,
      "mkele": 3245,
      "Ġesandleni": 3246,
      "OX": 3247,
      "Ġwendlela": 3248,
      "gqibeleleyo": 3249,
      "imeyile": 3250,
      "Ġimeko": 3251,
      "lile": 3252,
      "ondolo": 3253,
      "Ġkunokuba": 3254,
      "jwe": 3255,
      "manga": 3256,
      "esho": 3257,
      "Ġlama": 3258,
      "khuph": 3259,
      "UYUA": 3260,
      "xibelelwano": 3261,
      "Ġkuse": 3262,
      "bingeleli": 3263,
      "cah": 3264,
      "noloji": 3265,
      "vun": 3266,
      "Ġokung": 3267,
      "Ġnangona": 3268,
      "chwepheshe": 3269,
      "Ġtu": 3270,
      "khelo": 3271,
      "Ġezing": 3272,
      "xhasi": 3273,
      "doba": 3274,
      "qweno": 3275,
      "FT": 3276,
      "kolo": 3277,
      "ries": 3278,
      "khuselekileyo": 3279,
      "ĠZUOH": 3280,
      "ĠWuphoseni": 3281,
      "Ġutsho": 3282,
      "gidi": 3283,
      "ĠPakistan": 3284,
      "ĠInt": 3285,
      "ĠnguSihlalo": 3286,
      "lingana": 3287,
      "yibili": 3288,
      "khono": 3289,
      "Ġamakhulu": 3290,
      "Ġme": 3291,
      "Ġcon": 3292,
      "Ġzombane": 3293,
      "Ġx": 3294,
      "wayo": 3295,
      "ĠMalawi": 3296,
      "Host": 3297,
      "ĠUhlobo": 3298,
      "file": 3299,
      "Ġnawe": 3300,
      "ĠMal": 3301,
      "Ġabanye": 3302,
      "SJ": 3303,
      "thisa": 3304,
      "Ġwazi": 3305,
      "Thu": 3306,
      "WE": 3307,
      "mene": 3308,
      "Ġnathi": 3309,
      "ĠâĢĺ": 3310,
      "ĠBrazi": 3311,
      "Intanethi": 3312,
      "FZ": 3313,
      "moya": 3314,
      "khonkco": 3315,
      "ĠNjengoko": 3316,
      "Ġsta": 3317,
      "Ġumphefumlo": 3318,
      "Ġlegging": 3319,
      "Ġinkxaso": 3320,
      "cedi": 3321,
      "etro": 3322,
      "Ġpo": 3323,
      "Ġehamba": 3324,
      "thsaba": 3325,
      "Ġamabini": 3326,
      "Solar": 3327,
      "Ġokun": 3328,
      "misebenzi": 3329,
      "CI": 3330,
      "OU": 3331,
      "Ġakhe": 3332,
      "ustom": 3333,
      "lumko": 3334,
      "Ġwenza": 3335,
      "Ġkunge": 3336,
      "Ġiikwacha": 3337,
      "Ġleggings": 3338,
      "alve": 3339,
      "Ġezintathu": 3340,
      "Ġeme": 3341,
      "lawuli": 3342,
      "ĠIimpawu": 3343,
      "ĠContro": 3344,
      "Ġukunciphisa": 3345,
      "hlangabe": 3346,
      "luhlu": 3347,
      "Ġbaku": 3348,
      "ĠWUUY": 3349,
      "ĠRa": 3350,
      "ĠPacka": 3351,
      "Ġubunzima": 3352,
      "Ġkwizinga": 3353,
      "Ġumenzi": 3354,
      "futha": 3355,
      "gne": 3356,
      "khang": 3357,
      "ĠBadge": 3358,
      "tas": 3359,
      "ĠGranite": 3360,
      "fri": 3361,
      "ĠGol": 3362,
      "Ġisandla": 3363,
      "BT": 3364,
      "HZ": 3365,
      "Ġesa": 3366,
      "Ġngokusebenzisa": 3367,
      "hlulo": 3368,
      "FA": 3369,
      "Ġja": 3370,
      "xhasa": 3371,
      "ĠKun": 3372,
      "Ġngathi": 3373,
      "ĠMar": 3374,
      "ĠJa": 3375,
      "Ġlwaba": 3376,
      "kunzi": 3377,
      "Ġwelding": 3378,
      "homb": 3379,
      "EV": 3380,
      "Ġang": 3381,
      "Ġukumelana": 3382,
      "Ġengena": 3383,
      "Ġthina": 3384,
      "ĠNgu": 3385,
      "YZ": 3386,
      "ĠuS": 3387,
      "eter": 3388,
      "Ġusi": 3389,
      "Ġigolide": 3390,
      "ĠICQ": 3391,
      "Ġyenza": 3392,
      "menistan": 3393,
      "oroc": 3394,
      "doqo": 3395,
      "sindo": 3396,
      "pheleni": 3397,
      "GK": 3398,
      "ms": 3399,
      "Ġkwenza": 3400,
      "Rom": 3401,
      "rium": 3402,
      "ĠBrazilian": 3403,
      "Ġmanat": 3404,
      "fayile": 3405,
      "ĠTurkmenistan": 3406,
      "ĠSet": 3407,
      "veni": 3408,
      "welo": 3409,
      "DA": 3410,
      "ture": 3411,
      "Mi": 3412,
      "Ġzenu": 3413,
      "We": 3414,
      "dity": 3415,
      "Ġmach": 3416,
      "ĠFu": 3417,
      "Ġebe": 3418,
      "lezo": 3419,
      "zimbeni": 3420,
      "wulo": 3421,
      "Ġintloko": 3422,
      "ĠKwathi": 3423,
      "andlela": 3424,
      "Ġisantya": 3425,
      "cedisi": 3426,
      "ĠPeru": 3427,
      "leyiti": 3428,
      "cel": 3429,
      "hole": 3430,
      "ĠumYiputa": 3431,
      "Ġubuso": 3432,
      "ĠZUOX": 3433,
      "mbela": 3434,
      "uevo": 3435,
      "ezi": 3436,
      "ĠKrone": 3437,
      "zuku": 3438,
      "elelweyo": 3439,
      "cipe": 3440,
      "elelana": 3441,
      "zuzu": 3442,
      "enzeka": 3443,
      "kaThixo": 3444,
      "orocco": 3445,
      "wesi": 3446,
      "Ġindoda": 3447,
      "WU": 3448,
      "Ġukusebenzisa": 3449,
      "ĠNuevo": 3450,
      "Ġngalo": 3451,
      "xoxo": 3452,
      "thunywa": 3453,
      "ĠPeruvian": 3454,
      "Ġelingum": 3455,
      "loty": 3456,
      "ĠTome": 3457,
      "qam": 3458,
      "Ġkwiindawo": 3459,
      "Ġ[": 3460,
      "Ġda": 3461,
      "Ġulw": 3462,
      "zodwa": 3463,
      "ĠEast": 3464,
      "ĠLenene": 3465,
      "elweyo": 3466,
      "Ġiba": 3467,
      "ĠPrincipe": 3468,
      "Ġabicah": 3469,
      "Ka": 3470,
      "ĠyaseMorocco": 3471,
      "koku": 3472,
      "mala": 3473,
      "Ġukufikelela": 3474,
      "hlukileyo": 3475,
      "Ġdobra": 3476,
      "veki": 3477,
      "VJ": 3478,
      "yuni": 3479,
      "ĠIndian": 3480,
      "LQ": 3481,
      "kise": 3482,
      "wn": 3483,
      "emingxuma": 3484,
      "jen": 3485,
      "Ġ$": 3486,
      "anjalo": 3487,
      "marike": 3488,
      "lia": 3489,
      "Ġnomakhi": 3490,
      "leki": 3491,
      "mpompo": 3492,
      "hishino": 3493,
      "londolo": 3494,
      "wegian": 3495,
      "lwayo": 3496,
      "ĠNorwegian": 3497,
      "YC": 3498,
      "bikho": 3499,
      "Li": 3500,
      "Ġkuquka": 3501,
      "hlawumbi": 3502,
      "ller": 3503,
      "UYX": 3504,
      "Ġzombini": 3505,
      "sond": 3506,
      "zech": 3507,
      "qhe": 3508,
      "Ġcu": 3509,
      "ĠBan": 3510,
      "qaqa": 3511,
      "thetheli": 3512,
      "any": 3513,
      "ĠElectric": 3514,
      "ĠRand": 3515,
      "Press": 3516,
      "ĠUz": 3517,
      "Ġehlabathini": 3518,
      "thambo": 3519,
      "Ġiilwimi": 3520,
      "ĠZloty": 3521,
      "okubamba": 3522,
      "Ġolun": 3523,
      "kwandisa": 3524,
      "GG": 3525,
      "gqa": 3526,
      "Ġukuthengiswa": 3527,
      "ĠOlu": 3528,
      "Ġityhubhu": 3529,
      "KM": 3530,
      "ĠLu": 3531,
      "Somali": 3532,
      "os": 3533,
      "Ġnk": 3534,
      "Ġezise": 3535,
      "Ġelincinci": 3536,
      "IKUY": 3537,
      "Ġepheleleyo": 3538,
      "dia": 3539,
      "sale": 3540,
      "khali": 3541,
      "ganda": 3542,
      "EH": 3543,
      "VH": 3544,
      "Ġbahlala": 3545,
      "Ġelula": 3546,
      "Gu": 3547,
      "Ġimvelaphi": 3548,
      "Ġezizodwa": 3549,
      "dlali": 3550,
      "ood": 3551,
      "ĠTai": 3552,
      "Ġkwenu": 3553,
      "ĠSey": 3554,
      "Ġngesandla": 3555,
      "LED": 3556,
      "tshe": 3557,
      "Ġunyango": 3558,
      "ULA": 3559,
      "qongileyo": 3560,
      "igolide": 3561,
      "Ġgama": 3562,
      "laphu": 3563,
      "ĠSol": 3564,
      "fakelo": 3565,
      "chelles": 3566,
      "ĠPackaging": 3567,
      "ĠBr": 3568,
      "bhobho": 3569,
      "zilebhu": 3570,
      "gent": 3571,
      "âĢĶ": 3572,
      "ĠIizilebhu": 3573,
      "eliswa": 3574,
      "orea": 3575,
      "ĠSeychelles": 3576,
      "esa": 3577,
      "ĠwaseC": 3578,
      "ĠabangamaSomali": 3579,
      "qanawa": 3580,
      "chiza": 3581,
      "tshabala": 3582,
      "Ġezingama": 3583,
      "ila": 3584,
      "Ġelise": 3585,
      "endawo": 3586,
      "angqa": 3587,
      "Ġnazo": 3588,
      "qhamo": 3589,
      "ĠIsa": 3590,
      "Ġngokuzenzekelayo": 3591,
      "Ġzayo": 3592,
      "ĠUbun": 3593,
      "Ġukususela": 3594,
      "vule": 3595,
      "Thupha": 3596,
      "bwe": 3597,
      "Ġaphezulu": 3598,
      "zulwini": 3599,
      "Ġva": 3600,
      "quarium": 3601,
      "qwalas": 3602,
      "ep": 3603,
      "Ġethile": 3604,
      "Ġathi": 3605,
      "Ġencinane": 3606,
      "khuselo": 3607,
      "jineli": 3608,
      "tshwa": 3609,
      "mbabwe": 3610,
      "ĠIndlela": 3611,
      "mas": 3612,
      "zinyo": 3613,
      "ĠWater": 3614,
      "gunya": 3615,
      "ĠwaseCuba": 3616,
      "CJ": 3617,
      "ĠAruba": 3618,
      "Ġlethu": 3619,
      "Ġkang": 3620,
      "tombi": 3621,
      "Ġnjenga": 3622,
      "bhotile": 3623,
      "Na": 3624,
      "wayini": 3625,
      "tshintsho": 3626,
      "fike": 3627,
      "Ġemin": 3628,
      "Ġamazwe": 3629,
      "bingelelo": 3630,
      "ĠEyeThupha": 3631,
      "bileyo": 3632,
      "endulo": 3633,
      "anish": 3634,
      "Ġngako": 3635,
      "ĠIndawo": 3636,
      "up": 3637,
      "ĠAmanzi": 3638,
      "Ġnokupa": 3639,
      "FL": 3640,
      "vange": 3641,
      "Ġisha": 3642,
      "Ġezilungileyo": 3643,
      "qondiso": 3644,
      "xubevange": 3645,
      "IS": 3646,
      "YN": 3647,
      "ĠBluetooth": 3648,
      "ĠTan": 3649,
      "Ġngenyanga": 3650,
      "Ġjikelele": 3651,
      "tseben": 3652,
      "Ġebo": 3653,
      "Ġekhaya": 3654,
      "ĠnoM": 3655,
      "won": 3656,
      "Ġulwimi": 3657,
      "Ġkweli": 3658,
      "buzo": 3659,
      "Ġneemfuno": 3660,
      "Ġngegama": 3661,
      "sia": 3662,
      "enille": 3663,
      "Ġibhotile": 3664,
      "BE": 3665,
      "lwana": 3666,
      "Ġ~": 3667,
      "bekistan": 3668,
      "ĠGhana": 3669,
      "ĠSud": 3670,
      "dongwe": 3671,
      "Ġelikhulu": 3672,
      "ĠSinga": 3673,
      "Ġabasebenzi": 3674,
      "pecial": 3675,
      "ĠUzbekistan": 3676,
      "YV": 3677,
      "cango": 3678,
      "khetho": 3679,
      "Ġsam": 3680,
      "MU": 3681,
      "ziwe": 3682,
      "ĠUAE": 3683,
      "iselwe": 3684,
      "ĠyaseP": 3685,
      "Ra": 3686,
      "ĠBur": 3687,
      "ĠKWI": 3688,
      "Ġababe": 3689,
      "ĠEx": 3690,
      "rugua": 3691,
      "amandla": 3692,
      "Ġad": 3693,
      "Ġenemingxuma": 3694,
      "wudi": 3695,
      "lad": 3696,
      "fic": 3697,
      "nam": 3698,
      "ĠChenille": 3699,
      "The": 3700,
      "bbe": 3701,
      "kalo": 3702,
      "Ġingxowa": 3703,
      "angenwa": 3704,
      "ĠSerbian": 3705,
      "engu": 3706,
      "ĠTurkish": 3707,
      "undi": 3708,
      "fiya": 3709,
      "khululekile": 3710,
      "sel": 3711,
      "ĠUrugua": 3712,
      "tius": 3713,
      "qale": 3714,
      "Ġngultrum": 3715,
      "Ġifayibha": 3716,
      "Ġemehlweni": 3717,
      "lun": 3718,
      "ĠHea": 3719,
      "Ġiinkqubo": 3720,
      "ĠIsiRom": 3721,
      "weli": 3722,
      "andard": 3723,
      "ĠMol": 3724,
      "coce": 3725,
      "stani": 3726,
      "JJ": 3727,
      "ĠCFC": 3728,
      "ĠZUYO": 3729,
      "chapha": 3730,
      "landela": 3731,
      "ĠGambian": 3732,
      "ĠBirr": 3733,
      "holesale": 3734,
      "Ġwayo": 3735,
      "ĠPanel": 3736,
      "phakamisa": 3737,
      "Ġrate": 3738,
      "ĠPipe": 3739,
      "Ġop": 3740,
      "Ġiinkcukacha": 3741,
      "ĠBotswana": 3742,
      "uti": 3743,
      "ĠDo": 3744,
      "Ġabantwana": 3745,
      "ĠMaldi": 3746,
      "creen": 3747,
      "piya": 3748,
      "Ġwayi": 3749,
      "cro": 3750,
      "bhin": 3751,
      "ĠZimbabwe": 3752,
      "ĠSudanese": 3753,
      "ĠMaldivian": 3754,
      "pore": 3755,
      "ĠIing": 3756,
      "Ġnez": 3757,
      "Ġyaku": 3758,
      "Ġngaphambi": 3759,
      "ĠUbushushu": 3760,
      "iss": 3761,
      "yopiya": 3762,
      "Ġukunga": 3763,
      "phelo": 3764,
      "Tiyopiya": 3765,
      "Ġcedi": 3766,
      "yusa": 3767,
      "boa": 3768,
      "Ġngomhla": 3769,
      "ĠDalasi": 3770,
      "WQ": 3771,
      "gcwa": 3772,
      "sting": 3773,
      "ĠNgaba": 3774,
      "Ġtrans": 3775,
      "terial": 3776,
      "ĠelingumTiyopiya": 3777,
      "ĠBrea": 3778,
      "qatha": 3779,
      "AT": 3780,
      "val": 3781,
      "Ġsu": 3782,
      "ribbe": 3783,
      "ribbean": 3784,
      "con": 3785,
      "gqu": 3786,
      "langeni": 3787,
      "Ga": 3788,
      "lat": 3789,
      "Ġkuqala": 3790,
      "ustri": 3791,
      "ĠUruguayan": 3792,
      "ist": 3793,
      "hlula": 3794,
      "bhonasi": 3795,
      "ĠwaseChina": 3796,
      "ĠRufiya": 3797,
      "ĠRufiyaa": 3798,
      "wina": 3799,
      "hlamba": 3800,
      "Ġimoto": 3801,
      "Ġumveliso": 3802,
      "Ġumxholo": 3803,
      "mpe": 3804,
      "Ġabasebenzisi": 3805,
      "ary": 3806,
      "Ġumbhobho": 3807,
      "II": 3808,
      "umana": 3809,
      "ĠKwe": 3810,
      "Ġkwegama": 3811,
      "Ġelina": 3812,
      "xulumene": 3813,
      "dityan": 3814,
      "Ġabavelisi": 3815,
      "ĠBalboa": 3816,
      "ĠKWIP": 3817,
      "KX": 3818,
      "Ġet": 3819,
      "projekthi": 3820,
      "Ġnamhlanj": 3821,
      "ĠMauritius": 3822,
      "ĠKWIPULA": 3823,
      "UYQ": 3824,
      "zikhe": 3825,
      "Ġngamanzi": 3826,
      "Ġingxubevange": 3827,
      "andu": 3828,
      "Ġyokun": 3829,
      "top": 3830,
      "Ġeziphezulu": 3831,
      "isha": 3832,
      "stru": 3833,
      "ĠLat": 3834,
      "FG": 3835,
      "Ġseries": 3836,
      "ĠCaribbean": 3837,
      "thambileyo": 3838,
      "vus": 3839,
      "tyenziswe": 3840,
      "ĠBang": 3841,
      "Ġyanga": 3842,
      "Ġj": 3843,
      "zamo": 3844,
      "dium": 3845,
      "ĠFomen": 3846,
      "tek": 3847,
      "ĠGro": 3848,
      "ĠUnidad": 3849,
      "ĠFomento": 3850,
      "Ch": 3851,
      "sse": 3852,
      "ugu": 3853,
      "Ġbaye": 3854,
      "rhulumente": 3855,
      "cebiso": 3856,
      "cinezelo": 3857,
      "sela": 3858,
      "Ġnako": 3859,
      "ongezelelweyo": 3860,
      "mbewu": 3861,
      "ĠyasePanama": 3862,
      "LT": 3863,
      "mela": 3864,
      "alelo": 3865,
      "Ġlokugqibela": 3866,
      "ĠIranian": 3867,
      "daka": 3868,
      "lando": 3869,
      "Ġcar": 3870,
      "NN": 3871,
      "Ġesis": 3872,
      "PH": 3873,
      "ingle": 3874,
      "Ġyokugcina": 3875,
      "Ġzeen": 3876,
      "Ġwemi": 3877,
      "Ġkoonyana": 3878,
      "YE": 3879,
      "ĠUganda": 3880,
      "khokelo": 3881,
      "ĠuPa": 3882,
      "yika": 3883,
      "SV": 3884,
      "Ġubude": 3885,
      "gital": 3886,
      "ĠLithu": 3887,
      "Yuro": 3888,
      "cs": 3889,
      "qina": 3890,
      "UKUY": 3891,
      "Ġuziphu": 3892,
      "SZ": 3893,
      "ĠuDavide": 3894,
      "Ġali": 3895,
      "Ġman": 3896,
      "Ġishampu": 3897,
      "qulu": 3898,
      "Ġnazi": 3899,
      "Ġabafundi": 3900,
      "phinde": 3901,
      "Tsha": 3902,
      "onisa": 3903,
      "kala": 3904,
      "ĠCzech": 3905,
      "Ġyeen": 3906,
      "Ġliya": 3907,
      "Ġumbingeleli": 3908,
      "ĠNgokwe": 3909,
      "xelela": 3910,
      "Ġmntu": 3911,
      "isweni": 3912,
      "ĠMex": 3913,
      "ĠPolish": 3914,
      "DC": 3915,
      "bber": 3916,
      "cwe": 3917,
      "his": 3918,
      "thambisa": 3919,
      "Ġumlilo": 3920,
      "tyhi": 3921,
      "lanzi": 3922,
      "midlalo": 3923,
      "Ġmm": 3924,
      "Ġiinkonzo": 3925,
      "Ġlabo": 3926,
      "ĠLitas": 3927,
      "qinisekiso": 3928,
      "ĠLithuanian": 3929,
      "Levi": 3930,
      "gxina": 3931,
      "ĠEngange": 3932,
      "WM": 3933,
      "thuli": 3934,
      "qaleni": 3935,
      "Ġefanayo": 3936,
      "Ġathile": 3937,
      "ĠJordan": 3938,
      "ĠBoliviano": 3939,
      "yon": 3940,
      "Ġumhlaba": 3941,
      "ĠFumana": 3942,
      "tshala": 3943,
      "ĠGo": 3944,
      "Ġnangoku": 3945,
      "ĠBreaker": 3946,
      "zikhethela": 3947,
      "AWG": 3948,
      "net": 3949,
      "lishumi": 3950,
      "okwenzeka": 3951,
      "funde": 3952,
      "ĠMini": 3953,
      "khuthaza": 3954,
      "qing": 3955,
      "fakwe": 3956,
      "ĠSolve": 3957,
      "keza": 3958,
      "Ġnjengokuba": 3959,
      "ĠSalva": 3960,
      "ĠTanz": 3961,
      "Ġiqhosha": 3962,
      "ĠeYerusalem": 3963,
      "Ġumva": 3964,
      "Ġamalungelo": 3965,
      "akobi": 3966,
      "ĠTanzanian": 3967,
      "Ġumlando": 3968,
      "phulaphu": 3969,
      "omatshini": 3970,
      "hlale": 3971,
      "DV": 3972,
      "Ġukubonisa": 3973,
      "Ġndiku": 3974,
      "Yurophu": 3975,
      "Ġeqhelekileyo": 3976,
      "ĠkaSirayeli": 3977,
      "ZXXUY": 3978,
      "ĠProduct": 3979,
      "ĠEziikoruna": 3980,
      "chanekileyo": 3981,
      "ĠSalvador": 3982,
      "gasy": 3983,
      "ĠSma": 3984,
      "Ġbayi": 3985,
      "ĠAir": 3986,
      "ĠTr": 3987,
      "Ġubha": 3988,
      "ĠkuThixo": 3989,
      "ĠSouth": 3990,
      "Ġingqondo": 3991,
      "Ġiku": 3992,
      "ĠCro": 3993,
      "ĠMongo": 3994,
      "xhomekeke": 3995,
      "hlangabezana": 3996,
      "Tshayina": 3997,
      "site": 3998,
      "khowudi": 3999,
      "Ġbayo": 4000,
      "ĠPCB": 4001,
      "hluko": 4002,
      "cali": 4003,
      "ĠÂ°": 4004,
      "Ġngelixa": 4005,
      "Ġkwan": 4006,
      "Ġngempumelelo": 4007,
      "yunithi": 4008,
      "Ġnzima": 4009,
      "ĠBed": 4010,
      "ĠColon": 4011,
      "omini": 4012,
      "HL": 4013,
      "cara": 4014,
      "Ġnoko": 4015,
      "Ġnokun": 4016,
      "ladesh": 4017,
      "zeni": 4018,
      "Ġeni": 4019,
      "lutyo": 4020,
      "Ġukup": 4021,
      "Ġumgca": 4022,
      "ind": 4023,
      "qinisekileyo": 4024,
      "venkile": 4025,
      "Ġimb": 4026,
      "ler": 4027,
      "Ġnokusebenza": 4028,
      "ĠwaseB": 4029,
      "cama": 4030,
      "ĠGeor": 4031,
      "FB": 4032,
      "Ġikh": 4033,
      "ĠTaka": 4034,
      "lunye": 4035,
      "zambi": 4036,
      "allet": 4037,
      "phume": 4038,
      "Mozambi": 4039,
      "wanda": 4040,
      "phahla": 4041,
      "paji": 4042,
      "ĠBangladesh": 4043,
      "Ġuko": 4044,
      "Ġukusi": 4045,
      "Ġngamandla": 4046,
      "ĠIsiRomanian": 4047,
      "Mozambique": 4048,
      "DM": 4049,
      "kuma": 4050,
      "ĠYimani": 4051,
      "ĠUD": 4052,
      "Ġuqhagamsh": 4053,
      "tyebi": 4054,
      "struction": 4055,
      "EB": 4056,
      "aquarium": 4057,
      "qwelo": 4058,
      "lungile": 4059,
      "chas": 4060,
      "ĠSafe": 4061,
      "caleni": 4062,
      "Ġaluminiyam": 4063,
      "CG": 4064,
      "tanian": 4065,
      "ĠCustom": 4066,
      "ĠwaseMozambique": 4067,
      "ĠMetical": 4068,
      "ĠSPC": 4069,
      "bheli": 4070,
      "dlulileyo": 4071,
      "khiqizi": 4072,
      "ĠMongolian": 4073,
      "lack": 4074,
      "ĠSp": 4075,
      "ĠOugu": 4076,
      "ftware": 4077,
      "ordPress": 4078,
      "ĠMauritanian": 4079,
      "ĠOuguiya": 4080,
      "Siriya": 4081,
      "Ġintliziyo": 4082,
      "Ġngazo": 4083,
      "lungiswa": 4084,
      "singqongileyo": 4085,
      "hou": 4086,
      "Ġlat": 4087,
      "ĠPhili": 4088,
      "rabha": 4089,
      "ĠBurundi": 4090,
      "ate": 4091,
      "PQ": 4092,
      "Ġyona": 4093,
      "qoph": 4094,
      "cessing": 4095,
      "WX": 4096,
      "kongeza": 4097,
      "ĠKong": 4098,
      "ĠYehova": 4099,
      "etnam": 4100,
      "gangathweni": 4101,
      "gqibo": 4102,
      "ĠKwakhona": 4103,
      "ĠTugri": 4104,
      "ĠTugrik": 4105,
      "heet": 4106,
      "ĠIimveliso": 4107,
      "khonza": 4108,
      "kodwa": 4109,
      "ĠMexican": 4110,
      "BTN": 4111,
      "DJ": 4112,
      "Ġukwen": 4113,
      "vili": 4114,
      "bung": 4115,
      "ĠJi": 4116,
      "Ġnezixhobo": 4117,
      "YL": 4118,
      "eshi": 4119,
      "mitha": 4120,
      "twini": 4121,
      "ĠDanish": 4122,
      "fili": 4123,
      "YYZUY": 4124,
      "mashumi": 4125,
      "ĠKorea": 4126,
      "ĠCNC": 4127,
      "Ġkuza": 4128,
      "Ġkwinqanaba": 4129,
      "Nicara": 4130,
      "Nicaragua": 4131,
      "VV": 4132,
      "YT": 4133,
      "cela": 4134,
      "ozi": 4135,
      "thixo": 4136,
      "omba": 4137,
      "Ġnezinto": 4138,
      "bene": 4139,
      "tetho": 4140,
      "WO": 4141,
      "Ġani": 4142,
      "Ġithe": 4143,
      "tshu": 4144,
      "rain": 4145,
      "ĠDu": 4146,
      "ĠCordoba": 4147,
      "Ġukung": 4148,
      "Ġiinwele": 4149,
      "khanyisa": 4150,
      "thandayo": 4151,
      "keli": 4152,
      "Ġethembekileyo": 4153,
      "ensi": 4154,
      "khun": 4155,
      "ĠDomini": 4156,
      "beko": 4157,
      "shiya": 4158,
      "Za": 4159,
      "Ġngee": 4160,
      "Ġyolawulo": 4161,
      "photo": 4162,
      "lee": 4163,
      "funekayo": 4164,
      "ĠAmaNicaragua": 4165,
      "ky": 4166,
      "yer": 4167,
      "thathe": 4168,
      "ĠUkunikela": 4169,
      "rew": 4170,
      "fra": 4171,
      "ĠNi": 4172,
      "lungelel": 4173,
      "qonga": 4174,
      "zange": 4175,
      "enya": 4176,
      "Bh": 4177,
      "Ii": 4178,
      "entengiso": 4179,
      "thiwa": 4180,
      "angena": 4181,
      "Ġekupheleni": 4182,
      "thandathu": 4183,
      "ĠSolo": 4184,
      "ĠLibyan": 4185,
      "elf": 4186,
      "ĠIsithsaba": 4187,
      "Ġring": 4188,
      "ciko": 4189,
      "stal": 4190,
      "wonye": 4191,
      "Ira": 4192,
      "Ġumthamo": 4193,
      "NE": 4194,
      "swa": 4195,
      "Ġkusetyenziswa": 4196,
      "ĠwaseSiriya": 4197,
      "Ġicala": 4198,
      "thango": 4199,
      "Ġkwis": 4200,
      "ongwane": 4201,
      "qolo": 4202,
      "fudumeza": 4203,
      "Ġnokupasa": 4204,
      "NS": 4205,
      "cho": 4206,
      "Ġidi": 4207,
      "Ġsis": 4208,
      "tshol": 4209,
      "ĠAri": 4210,
      "HT": 4211,
      "pper": 4212,
      "Ġukwazi": 4213,
      "low": 4214,
      "ĠUAT": 4215,
      "ĠIBL": 4216,
      "ĠnoY": 4217,
      "sinyithi": 4218,
      "sebenzise": 4219,
      "ĠStone": 4220,
      "ĠBall": 4221,
      "ustrial": 4222,
      "rd": 4223,
      "rg": 4224,
      "Ġephezulu": 4225,
      "Ġkuthetha": 4226,
      "Ġnakwi": 4227,
      "ĠSaudi": 4228,
      "Ġukupeliswa": 4229,
      "ĠGeorgian": 4230,
      "ĠDominican": 4231,
      "ld": 4232,
      "elisa": 4233,
      "Ġbani": 4234,
      "tsholongwane": 4235,
      "qeqesho": 4236,
      "galelo": 4237,
      "Ġezithile": 4238,
      "Ġkubalule": 4239,
      "DI": 4240,
      "hambe": 4241,
      "engq": 4242,
      "ĠTaiwan": 4243,
      "ati": 4244,
      "Ġukuhambelana": 4245,
      "Ġine": 4246,
      "Ġamazwi": 4247,
      "ppines": 4248,
      "ĠSolomon": 4249,
      "elize": 4250,
      "mbala": 4251,
      "Ġngokunga": 4252,
      "Ġlwee": 4253,
      "gxa": 4254,
      "ĠuMoses": 4255,
      "ĠBags": 4256,
      "ster": 4257,
      "bai": 4258,
      "ĠPin": 4259,
      "ĠElizi": 4260,
      "Ġulusu": 4261,
      "Iraq": 4262,
      "CT": 4263,
      "sisi": 4264,
      "ĠIt": 4265,
      "ĠTun": 4266,
      "LWUUY": 4267,
      "camango": 4268,
      "FK": 4269,
      "Ġngaloo": 4270,
      "shini": 4271,
      "veliswa": 4272,
      "tabeni": 4273,
      "Ġzika": 4274,
      "entliziyo": 4275,
      "Ġngemihla": 4276,
      "deni": 4277,
      "hami": 4278,
      "yame": 4279,
      "ĠDire": 4280,
      "manzini": 4281,
      "ĠIMB": 4282,
      "dova": 4283,
      "zerbai": 4284,
      "ĠMalagasy": 4285,
      "ĠAriary": 4286,
      "ĠPh": 4287,
      "rhweba": 4288,
      "ĠlikaYehova": 4289,
      "ilari": 4290,
      "ĠEliziilari": 4291,
      "betha": 4292,
      "ĠSingapore": 4293,
      "phele": 4294,
      "wuli": 4295,
      "ĠBuy": 4296,
      "Moya": 4297,
      "ĠaseIraq": 4298,
      "Ġzesilivere": 4299,
      "ĠUnga": 4300,
      "ĠBelize": 4301,
      "ĠKha": 4302,
      "ĠValve": 4303,
      "SRD": 4304,
      "ĠUkwaleka": 4305,
      "ctile": 4306,
      "web": 4307,
      "Ġkwezinye": 4308,
      "Ġwenu": 4309,
      "Ġimini": 4310,
      "quare": 4311,
      "jol": 4312,
      "yeza": 4313,
      "wusi": 4314,
      "dumiso": 4315,
      "WK": 4316,
      "zerbaijani": 4317,
      "HV": 4318,
      "Ġumbane": 4319,
      "ĠUkukhanya": 4320,
      "aland": 4321,
      "Ġndinga": 4322,
      "Ġjama": 4323,
      "Ġkubu": 4324,
      "Ġjamaican": 4325,
      "leleni": 4326,
      "Ġnamandla": 4327,
      "feze": 4328,
      "fani": 4329,
      "anka": 4330,
      "ĠIMZ": 4331,
      "phaza": 4332,
      "Ġprocessing": 4333,
      "Ġiw": 4334,
      "Ġnabantu": 4335,
      "rench": 4336,
      "ĠMoldova": 4337,
      "cb": 4338,
      "Ġisebenzisa": 4339,
      "luka": 4340,
      "owa": 4341,
      "Ġukuhamba": 4342,
      "zing": 4343,
      "phala": 4344,
      "Ġkusuka": 4345,
      "qambi": 4346,
      "ĠLatvian": 4347,
      "sis": 4348,
      "thiwe": 4349,
      "isian": 4350,
      "Ġezili": 4351,
      "thabathela": 4352,
      "zenza": 4353,
      "ort": 4354,
      "zoba": 4355,
      "ĠThina": 4356,
      "kcubeko": 4357,
      "JZ": 4358,
      "NO": 4359,
      "YB": 4360,
      "ĠIxesha": 4361,
      "Ġmhlawumbi": 4362,
      "ĠTunisian": 4363,
      "Ġyombane": 4364,
      "bulala": 4365,
      "thethe": 4366,
      "Ġenoku": 4367,
      "qalisa": 4368,
      "ĠCle": 4369,
      "Ġwaza": 4370,
      "zelayo": 4371,
      "Ġilitye": 4372,
      "urma": 4373,
      "hlanje": 4374,
      "zukulwana": 4375,
      "ell": 4376,
      "Ġoma": 4377,
      "tshaba": 4378,
      "hite": 4379,
      "inea": 4380,
      "qoqo": 4381,
      "blogi": 4382,
      "Ġukunika": 4383,
      "Ġiinguqu": 4384,
      "Ġayo": 4385,
      "temp": 4386,
      "ĠiiMveliso": 4387,
      "HS": 4388,
      "yat": 4389,
      "Ġemzimbeni": 4390,
      "dli": 4391,
      "ĠFunda": 4392,
      "omdla": 4393,
      "ĠKyat": 4394,
      "khatha": 4395,
      "ĠAmagama": 4396,
      "Ġyenu": 4397,
      "Kha": 4398,
      "LG": 4399,
      "Ġombane": 4400,
      "ĠInter": 4401,
      "XHV": 4402,
      "Rwanda": 4403,
      "cry": 4404,
      "dish": 4405,
      "posi": 4406,
      "hwe": 4407,
      "dos": 4408,
      "Ġamehlo": 4409,
      "ĠLong": 4410,
      "ĠDram": 4411,
      "Ġngekhompyutha": 4412,
      "ĠMaterial": 4413,
      "Ġeyayise": 4414,
      "ĠConstruction": 4415,
      "qongqo": 4416,
      "WordPress": 4417,
      "qanda": 4418,
      "tsal": 4419,
      "cid": 4420,
      "Ġkumazwe": 4421,
      "menian": 4422,
      "ĠDirect": 4423,
      "ĠuE": 4424,
      "late": 4425,
      "shicilelo": 4426,
      "no": 4427,
      "ĠBe": 4428,
      "ories": 4429,
      "teknoloji": 4430,
      "Ġnkqubo": 4431,
      "mnyama": 4432,
      "guqula": 4433,
      "Ġeyona": 4434,
      "Ġingqalelo": 4435,
      "ĠÃ¢": 4436,
      "anto": 4437,
      "ĠBox": 4438,
      "ĠVer": 4439,
      "ĠZealand": 4440,
      "ĠISO": 4441,
      "ĠwaseBurma": 4442,
      "miselo": 4443,
      "ĠBer": 4444,
      "cation": 4445,
      "etter": 4446,
      "Ġmihla": 4447,
      "Ġokungangenwa": 4448,
      "ĠPhilippines": 4449,
      "mhlanje": 4450,
      "qinga": 4451,
      "Ġlobu": 4452,
      "kiweyo": 4453,
      "Ġlokuba": 4454,
      "geria": 4455,
      "tele": 4456,
      "Ġyayi": 4457,
      "ĠIndone": 4458,
      "belana": 4459,
      "okumkani": 4460,
      "ĠEsi": 4461,
      "ĠOoo": 4462,
      "gcali": 4463,
      "ĠArmenian": 4464,
      "SCR": 4465,
      "sie": 4466,
      "ĠHel": 4467,
      "Ġnjengo": 4468,
      "modyuli": 4469,
      "CE": 4470,
      "tani": 4471,
      "enti": 4472,
      "Ġkushishino": 4473,
      "Ġiimeko": 4474,
      "ush": 4475,
      "gqith": 4476,
      "Ġane": 4477,
      "lam": 4478,
      "Ġkufa": 4479,
      "Ġkunoku": 4480,
      "wula": 4481,
      "Ġuyakwazi": 4482,
      "ĠEnye": 4483,
      "Ġipleyiti": 4484,
      "ĠColombian": 4485,
      "YG": 4486,
      "ira": 4487,
      "Ġbeku": 4488,
      "Ġzokwakha": 4489,
      "ĠIintsingiselo": 4490,
      "kcazo": 4491,
      "pal": 4492,
      "indi": 4493,
      "Ġndawonye": 4494,
      "Ġiso": 4495,
      "bago": 4496,
      "Ġokwa": 4497,
      "âĢĿâĢĿ": 4498,
      "wangoku": 4499,
      "ĠVietnam": 4500,
      "ining": 4501,
      "inidad": 4502,
      "mpilo": 4503,
      "ĠCase": 4504,
      "mbutho": 4505,
      "NOK": 4506,
      "lahlwa": 4507,
      "onka": 4508,
      "ĠPho": 4509,
      "ĠOmani": 4510,
      "vuma": 4511,
      "ĠeyayiseRwanda": 4512,
      "sal": 4513,
      "ĠUkun": 4514,
      "ĠTobago": 4515,
      "ĠTrinidad": 4516,
      "Ġnceda": 4517,
      "ĠeChina": 4518,
      "Ġnjengen": 4519,
      "Isa": 4520,
      "SOS": 4521,
      "inyithi": 4522,
      "Ġihlabathi": 4523,
      "Ġzokubamba": 4524,
      "zuzo": 4525,
      "loni": 4526,
      "ĠAbenzi": 4527,
      "ĠTra": 4528,
      "bhan": 4529,
      "jikeleze": 4530,
      "Ġuhambo": 4531,
      "tso": 4532,
      "esse": 4533,
      "phozithi": 4534,
      "mbolo": 4535,
      "gle": 4536,
      "Ġntoni": 4537,
      "ĠBrun": 4538,
      "Ġaye": 4539,
      "ĠGib": 4540,
      "Ġunike": 4541,
      "yukayo": 4542,
      "op": 4543,
      "ont": 4544,
      "Ġkwamandla": 4545,
      "fudu": 4546,
      "Ġnani": 4547,
      "ĠyaseLe": 4548,
      "Ġcap": 4549,
      "ohane": 4550,
      "NB": 4551,
      "yli": 4552,
      "thando": 4553,
      "fundisa": 4554,
      "HH": 4555,
      "feni": 4556,
      "Ġbama": 4557,
      "fake": 4558,
      "linye": 4559,
      "Ġebalulekileyo": 4560,
      "isiwe": 4561,
      "raltar": 4562,
      "sweni": 4563,
      "mbono": 4564,
      "ishwa": 4565,
      "ĠyaseMzantsi": 4566,
      "hali": 4567,
      "ĠBonisa": 4568,
      "Ġiintsuku": 4569,
      "ĠZUY": 4570,
      "MWK": 4571,
      "ĠAccess": 4572,
      "dana": 4573,
      "sity": 4574,
      "ĠSri": 4575,
      "Ġmaka": 4576,
      "Ġibhetri": 4577,
      "ĠFiji": 4578,
      "ĠGibraltar": 4579,
      "ĠLiberia": 4580,
      "Uku": 4581,
      "undoqo": 4582,
      "Ġabaza": 4583,
      "cei": 4584,
      "ĠGuinea": 4585,
      "bandayo": 4586,
      "ĠBrunei": 4587,
      "ĠIcandelo": 4588,
      "Ġsibe": 4589,
      "Ġlaba": 4590,
      "ĠNami": 4591,
      "Ġstainless": 4592,
      "zandla": 4593,
      "ĠLanka": 4594,
      "dlula": 4595,
      "indows": 4596,
      "ĠNamibian": 4597,
      "ĠUYehova": 4598,
      "Ġst": 4599,
      "Ġsiza": 4600,
      "Ġekun": 4601,
      "git": 4602,
      "qophiso": 4603,
      "ĠBela": 4604,
      "ĠThai": 4605,
      "Ta": 4606,
      "onto": 4607,
      "ĠKip": 4608,
      "IBUY": 4609,
      "qhubi": 4610,
      "ĠLao": 4611,
      "thethweni": 4612,
      "leeve": 4613,
      "Ġintshi": 4614,
      "wenza": 4615,
      "ĠHNA": 4616,
      "cudo": 4617,
      "ĠLev": 4618,
      "ĠGuyana": 4619,
      "SG": 4620,
      "mbelelo": 4621,
      "elizwe": 4622,
      "ĠKw": 4623,
      "rimp": 4624,
      "ĠKuya": 4625,
      "ĠIndonesian": 4626,
      "benzisa": 4627,
      "FO": 4628,
      "mbia": 4629,
      "Ġmn": 4630,
      "kiyo": 4631,
      "ĠMalay": 4632,
      "fileyo": 4633,
      "Ġyorhwebo": 4634,
      "ĠWo": 4635,
      "dlebe": 4636,
      "ywe": 4637,
      "ĠForint": 4638,
      "chitha": 4639,
      "ĠStainless": 4640,
      "atsh": 4641,
      "IRR": 4642,
      "Ġwire": 4643,
      "ĠHXHV": 4644,
      "Ġonoku": 4645,
      "yinto": 4646,
      "ĠRica": 4647,
      "Ġezingena": 4648,
      "dlel": 4649,
      "Ġneng": 4650,
      "Ġkuyi": 4651,
      "banoni": 4652,
      "ĠLetter": 4653,
      "high": 4654,
      "ĠyaseLebanoni": 4655,
      "DZ": 4656,
      "zindlu": 4657,
      "Ġyodongwe": 4658,
      "laba": 4659,
      "pholisa": 4660,
      "Bho": 4661,
      "Ġhe": 4662,
      "liyo": 4663,
      "Ġok": 4664,
      "ĠKenya": 4665,
      "ĠHaiti": 4666,
      "MVR": 4667,
      "lango": 4668,
      "ĠBi": 4669,
      "wendwe": 4670,
      "Ġngolwa": 4671,
      "entloko": 4672,
      "ĠNgaphandle": 4673,
      "ĠBusie": 4674,
      "ĠMotor": 4675,
      "BAM": 4676,
      "bados": 4677,
      "ĠShi": 4678,
      "ĠKristu": 4679,
      "Ġsleeve": 4680,
      "valo": 4681,
      "ĠDis": 4682,
      "Ġsiye": 4683,
      "rusian": 4684,
      "MAD": 4685,
      "ĠPhawundi": 4686,
      "ĠTube": 4687,
      "Co": 4688,
      "angoko": 4689,
      "funyan": 4690,
      "dlul": 4691,
      "ĠSaint": 4692,
      "dlo": 4693,
      "ĠFrench": 4694,
      "ĠAd": 4695,
      "Ġezim": 4696,
      "Ġkomhlaba": 4697,
      "ĠUShishino": 4698,
      "xhe": 4699,
      "Ġophakamileyo": 4700,
      "ĠKr": 4701,
      "MUR": 4702,
      "ĠBul": 4703,
      "Nigeria": 4704,
      "ĠBarbados": 4705,
      "ĠBelarusian": 4706,
      "Ġngelo": 4707,
      "ĠYou": 4708,
      "fanelekile": 4709,
      "lungiselela": 4710,
      "ff": 4711,
      "tywe": 4712,
      "ciki": 4713,
      "KHR": 4714,
      "mvo": 4715,
      "Ġaqhelekileyo": 4716,
      "Ġamashishini": 4717,
      "chaza": 4718,
      "Ġyangaphandle": 4719,
      "Ġububanzi": 4720,
      "ttle": 4721,
      "BQ": 4722,
      "Ġkuka": 4723,
      "yalezo": 4724,
      "atshir": 4725,
      "zalwa": 4726,
      "ĠamaSirayeli": 4727,
      "tari": 4728,
      "ĠOp": 4729,
      "vume": 4730,
      "yimfuneko": 4731,
      "kuni": 4732,
      "lowo": 4733,
      "Ġkwethu": 4734,
      "face": 4735,
      "nikelo": 4736,
      "ĠCosta": 4737,
      "krini": 4738,
      "ombazana": 4739,
      "Ġephantsi": 4740,
      "tshuku": 4741,
      "Casino": 4742,
      "Ġcolon": 4743,
      "ĠNaira": 4744,
      "PR": 4745,
      "jonge": 4746,
      "Ġaze": 4747,
      "tyibili": 4748,
      "ĠAccessories": 4749,
      "beke": 4750,
      "Ġyes": 4751,
      "Ġngaphambili": 4752,
      "zobo": 4753,
      "esign": 4754,
      "imeyli": 4755,
      "ĠnoA": 4756,
      "Ġndithi": 4757,
      "zalise": 4758,
      "ĠBaht": 4759,
      "mkela": 4760,
      "Ġabafazi": 4761,
      "ĠwaseNigeria": 4762,
      "buyisela": 4763,
      "yweni": 4764,
      "sila": 4765,
      "ĠAzerbaijani": 4766,
      "ĠManat": 4767,
      "Ġzizi": 4768,
      "urde": 4769,
      "Chinese": 4770,
      "ĠGourde": 4771,
      "Ġebusweni": 4772,
      "wazi": 4773,
      "buye": 4774,
      "angweni": 4775,
      "Ġnegama": 4776,
      "ngen": 4777,
      "qaba": 4778,
      "Ġkumaxabiso": 4779,
      "ydra": 4780,
      "HJ": 4781,
      "ins": 4782,
      "Ġinyama": 4783,
      "Ġas": 4784,
      "phon": 4785,
      "ĠGiga": 4786,
      "ĠFlooring": 4787,
      "lima": 4788,
      "Ġukulawula": 4789,
      "ĠBahami": 4790,
      "Ġamawaka": 4791,
      "Ġdong": 4792,
      "Ġngolwaa": 4793,
      "ĠBahamian": 4794,
      "Special": 4795,
      "andela": 4796,
      "ĠAmandla": 4797,
      "Ġmnye": 4798,
      "kwane": 4799,
      "festile": 4800,
      "ĠIJX": 4801,
      "Bhe": 4802,
      "VA": 4803,
      "Ġwocingo": 4804,
      "tshukumo": 4805,
      "-$": 4806,
      "atu": 4807,
      "shekele": 4808,
      "XCD": 4809,
      "isti": 4810,
      "Ġngokulula": 4811,
      "ĠPaci": 4812,
      "ĠVietnamesse": 4813,
      "keleyo": 4814,
      "ĠIib": 4815,
      "isile": 4816,
      "dinga": 4817,
      "elekanga": 4818,
      "phaya": 4819,
      "Ġcha": 4820,
      "hluka": 4821,
      "CZK": 4822,
      "ĠMalaysin": 4823,
      "PEN": 4824,
      "Ġneza": 4825,
      "Ġengama": 4826,
      "ĠHe": 4827,
      "Ġumboniso": 4828,
      "Ġwemikhosi": 4829,
      "inyl": 4830,
      "Ġow": 4831,
      "Ġngokuzoba": 4832,
      "ĠWhite": 4833,
      "lisayo": 4834,
      "shion": 4835,
      "Ġukuhlangabezana": 4836,
      "Ġiimpahla": 4837,
      "ĠLow": 4838,
      "BRL": 4839,
      "Ġbra": 4840,
      "ilder": 4841,
      "Ġumntwana": 4842,
      "ĠNorth": 4843,
      "Ġiwhis": 4844,
      "ud": 4845,
      "ume": 4846,
      "Ġnabe": 4847,
      "ĠBag": 4848,
      "ĠYem": 4849,
      "Ġpanel": 4850,
      "{_": 4851,
      "ĠSDR": 4852,
      "Ġizibane": 4853,
      "kcazelo": 4854,
      "ĠuN": 4855,
      "Ġkwakunye": 4856,
      "Ġkwinkqubo": 4857,
      "ĠGigalight": 4858,
      "Congo": 4859,
      "Ġucingo": 4860,
      "Ġuxinzelelo": 4861,
      "hlangana": 4862,
      "phantse": 4863,
      "ĠâĦĥ": 4864,
      "fuma": 4865,
      "bungcali": 4866,
      "erian": 4867,
      "Ġhayi": 4868,
      "Ġringgit": 4869,
      "ĠHelena": 4870,
      "Ġikhadi": 4871,
      "Ġband": 4872,
      "ĠâĢ»": 4873,
      "ĠYase": 4874,
      "buyela": 4875,
      "qoqosho": 4876,
      "HC": 4877,
      "PKR": 4878,
      "RY": 4879,
      "wholesale": 4880,
      "Ġed": 4881,
      "Ġuhlalutyo": 4882,
      "BX": 4883,
      "bumba": 4884,
      "Ġthe": 4885,
      "lath": 4886,
      "muda": 4887,
      "SC": 4888,
      "Th": 4889,
      "yisebenzisa": 4890,
      "Ġus": 4891,
      "Ġinike": 4892,
      "ĠDesign": 4893,
      "Ġnendlela": 4894,
      "oogle": 4895,
      "Ġulwelo": 4896,
      "ĠBank": 4897,
      "Ġemininzi": 4898,
      "VZ": 4899,
      "enkcukacha": 4900,
      "Ġkwexesha": 4901,
      "thwala": 4902,
      "ĠTala": 4903,
      "UGX": 4904,
      "ĠBermuda": 4905,
      "RJ": 4906,
      "ents": 4907,
      "wanka": 4908,
      "Ġisipho": 4909,
      "ĠZH": 4910,
      "ĠCable": 4911,
      "Ġngamazwe": 4912,
      "ĠSwedish": 4913,
      "Ġnabakhiqizi": 4914,
      "anuatu": 4915,
      "Ġnjengexabiso": 4916,
      "Ġikakhulu": 4917,
      "Ġlibe": 4918,
      "Ġingxelo": 4919,
      "RSD": 4920,
      "wiss": 4921,
      "Ġkwawo": 4922,
      "INR": 4923,
      "TZS": 4924,
      "Ġsentsimbi": 4925,
      "Ġangamaxabiso": 4926,
      "Zambia": 4927,
      "eed": 4928,
      "jeni": 4929,
      "ym": 4930,
      "Ġkwiminyaka": 4931,
      "khath": 4932,
      "olomon": 4933,
      "zakh": 4934,
      "ĠSingle": 4935,
      "ĠVanuatu": 4936,
      "celand": 4937,
      "ĠKuna": 4938,
      "ĠIsiS": 4939,
      "filimu": 4940,
      "ĠZHEJIANG": 4941,
      "gon": 4942,
      "ĠIikwacha": 4943,
      "orean": 4944,
      "ĠzaseZambia": 4945,
      "able": 4946,
      "ĠMi": 4947,
      "CLF": 4948,
      "ĠCroati": 4949,
      "-{_": 4950,
      "khwa": 4951,
      "Ġkwihlabathi": 4952,
      "Ġngezinye": 4953,
      "ĠSebenzisa": 4954,
      "unaphakade": 4955,
      "qhubekayo": 4956,
      "ĠLokurhweba": 4957,
      "mgangathweni": 4958,
      "Ġ=": 4959,
      "ĠEli": 4960,
      "ĠaseCongo": 4961,
      "ĠCroatian": 4962,
      "meli": 4963,
      "Ġuphando": 4964,
      "thin": 4965,
      "Ġumthwalo": 4966,
      "ĠYoku": 4967,
      "Iimveliso": 4968,
      "ĠKrona": 4969,
      "Ġukhetho": 4970,
      "Ġvatu": 4971,
      "ĠiN": 4972,
      "Ġdata": 4973,
      "Ġuzin": 4974,
      "Ġutshintsho": 4975,
      "sekethe": 4976,
      "Ġisisombululo": 4977,
      "ĠYima": 4978,
      "Ġmotor": 4979,
      "ĠÂ»": 4980,
      "Yesu": 4981,
      "Ġudonga": 4982,
      "pheli": 4983,
      "Ġngokukodwa": 4984,
      "Ġmabini": 4985,
      "bhozo": 4986,
      "qhelo": 4987,
      "PAB": 4988,
      "ger": 4989,
      "work": 4990,
      "Ðµ": 4991,
      "ĠAbantu": 4992,
      "Ġmulti": 4993,
      "LYD": 4994,
      "cwangcisa": 4995,
      "ZHEJIANG": 4996,
      "Ġngabo": 4997,
      "khusele": 4998,
      "Ġkuloo": 4999,
      "Ġukukhusela": 5000,
      "aneko": 5001,
      "Ġnenkqubo": 5002,
      "nikezelwa": 5003,
      "LO": 5004,
      "Ġnange": 5005,
      "room": 5006,
      "khonkwane": 5007,
      "Bhayibhile": 5008,
      "ĠPacific": 5009,
      "diliya": 5010,
      "engoku": 5011,
      "onian": 5012,
      "shicilela": 5013,
      "An": 5014,
      "RS": 5015,
      "TU": 5016,
      "Ġkwelanga": 5017,
      "Ġmatshini": 5018,
      "UZS": 5019,
      "Ġnaseku": 5020,
      "khangele": 5021,
      "Guate": 5022,
      "tyibilika": 5023,
      "gram": 5024,
      "ui": 5025,
      "lesi": 5026,
      "UYUY": 5027,
      "Ġumphezulu": 5028,
      "ĠKorean": 5029,
      "Ġyeglasi": 5030,
      "Ġyenzelwe": 5031,
      "Ġlili": 5032,
      "Ġyokubamba": 5033,
      "NU": 5034,
      "Ġnem": 5035,
      "angaphambili": 5036,
      "Ġziin": 5037,
      "Ġkwezo": 5038,
      "Ġnoonyana": 5039,
      "ĠYemeni": 5040,
      "Guatemala": 5041,
      "GMD": 5042,
      "axi": 5043,
      "Ġiwebhusayithi": 5044,
      "Ġlyu": 5045,
      "gqibeleni": 5046,
      "BWP": 5047,
      "ĠQuet": 5048,
      "ĠQatari": 5049,
      "ĠClear": 5050,
      "IQ": 5051,
      "alumini": 5052,
      "yila": 5053,
      "ĠTenge": 5054,
      "ĠCape": 5055,
      "Ġithetha": 5056,
      "Ġizihlangu": 5057,
      "philileyo": 5058,
      "Ġlun": 5059,
      "Ġbom": 5060,
      "thunyelwa": 5061,
      "ĠQuetzal": 5062,
      "FU": 5063,
      "gerian": 5064,
      "ove": 5065,
      "Ġoyile": 5066,
      "Ġinkulu": 5067,
      "ĠuYo": 5068,
      "XP": 5069,
      "kunceda": 5070,
      "ĠChinese": 5071,
      "TM": 5072,
      "gin": 5073,
      "kubhi": 5074,
      "philayo": 5075,
      "xinin": 5076,
      "Bhabheli": 5077,
      "ETB": 5078,
      "Ġbesithi": 5079,
      "Ġukwenzela": 5080,
      "elelwa": 5081,
      "ĠIzinto": 5082,
      "OLV": 5083,
      "xibelelana": 5084,
      "lexible": 5085,
      "qun": 5086,
      "isithi": 5087,
      "phakama": 5088,
      "tsebenz": 5089,
      "lis": 5090,
      "elane": 5091,
      "Ġnokwa": 5092,
      "liziyweni": 5093,
      "Ġngokwenene": 5094,
      "dima": 5095,
      "Ġngokuse": 5096,
      "Ġezincinane": 5097,
      "tional": 5098,
      "ĠwaseGuatemala": 5099,
      "ĠYabona": 5100,
      "Ġwomntu": 5101,
      "DH": 5102,
      "sun": 5103,
      "natha": 5104,
      "Ġintanethi": 5105,
      "qingatha": 5106,
      "BOB": 5107,
      "Ġityala": 5108,
      "Ġioli": 5109,
      "lawulwa": 5110,
      "ĠVerde": 5111,
      "xheba": 5112,
      "elwane": 5113,
      "Ġekhethekileyo": 5114,
      "Ġumthengisi": 5115,
      "yanise": 5116,
      "Ġmicro": 5117,
      "EGP": 5118,
      "tsebenziswano": 5119,
      "JA": 5120,
      "YIB": 5121,
      "gxo": 5122,
      "ganeko": 5123,
      "phone": 5124,
      "Ġezinoku": 5125,
      "eries": 5126,
      "ĠAlgerian": 5127,
      "babini": 5128,
      "Ġire": 5129,
      "Ġsimahla": 5130,
      "ĠIsithethi": 5131,
      "mnandi": 5132,
      "GHS": 5133,
      "jenjalo": 5134,
      "axial": 5135,
      "Ġngcono": 5136,
      "rive": 5137,
      "thandaza": 5138,
      "FQ": 5139,
      "ĠÐ": 5140,
      "Ġeshushu": 5141,
      "Ġumzi": 5142,
      "Ġisipaji": 5143,
      "Ġpump": 5144,
      "ziwayo": 5145,
      "Ġuna": 5146,
      "Ġcom": 5147,
      "Ġipa": 5148,
      "thulu": 5149,
      "tyeni": 5150,
      "fihla": 5151,
      "FM": 5152,
      "sional": 5153,
      "YUA": 5154,
      "sentla": 5155,
      "Ġigesi": 5156,
      "ĠSomoni": 5157,
      "din": 5158,
      "Ġuli": 5159,
      "matic": 5160,
      "caka": 5161,
      "Ġbee": 5162,
      "laseleyo": 5163,
      "Ġumhla": 5164,
      "Ġnobun": 5165,
      "kelelo": 5166,
      "ĠIceland": 5167,
      "ĠSwiss": 5168,
      "Ġlwama": 5169,
      "ĠAlb": 5170,
      "BU": 5171,
      "Ġther": 5172,
      "ĠUQUY": 5173,
      "ĠKwan": 5174,
      "thuma": 5175,
      "Ġlayo": 5176,
      "ĠPata": 5177,
      "hwebo": 5178,
      "ww": 5179,
      "Ġyentsimbi": 5180,
      "sonde": 5181,
      "Ġelowo": 5182,
      "Ġumzekelo": 5183,
      "Ġngokung": 5184,
      "ĠThixo": 5185,
      "Ġsama": 5186,
      "belo": 5187,
      "vnia": 5188,
      "than": 5189,
      "Ġukum": 5190,
      "ĠLeli": 5191,
      "ryvnia": 5192,
      "chasene": 5193,
      "Ġsh": 5194,
      "tafile": 5195,
      "Ġekubeni": 5196,
      "ĠGuilder": 5197,
      "Sawule": 5198,
      "wankathelo": 5199,
      "AED": 5200,
      "nu": 5201,
      "use": 5202,
      "xy": 5203,
      "ĠSengoku": 5204,
      "uran": 5205,
      "zwana": 5206,
      "xaxheba": 5207,
      "ĠProje": 5208,
      "ĠAfghan": 5209,
      "Ġetc": 5210,
      "LTL": 5211,
      "Ġeba": 5212,
      "Ġeso": 5213,
      "angeni": 5214,
      "Ġezifanelekileyo": 5215,
      "GBP": 5216,
      "fessional": 5217,
      "STD": 5218,
      "vers": 5219,
      "Ġisebenza": 5220,
      "Ġebonisa": 5221,
      "ĠBel": 5222,
      "phethe": 5223,
      "Ġkubakho": 5224,
      "vuka": 5225,
      "Ġescudo": 5226,
      "ĠUmgangatho": 5227,
      "Ġezisetyenziswa": 5228,
      "ĠÃ": 5229,
      "Ġeno": 5230,
      "qhum": 5231,
      "Ġibhodi": 5232,
      "VS": 5233,
      "qengq": 5234,
      "Ġzii": 5235,
      "Ġziye": 5236,
      "ĠIsra": 5237,
      "ĠAlbanian": 5238,
      "ĠSeries": 5239,
      "Ġumyalelo": 5240,
      "Ġelect": 5241,
      "Ġkrone": 5242,
      "Ġezimbalwa": 5243,
      "BO": 5244,
      "IQD": 5245,
      "gwen": 5246,
      "Ġhlobo": 5247,
      "Ġngawo": 5248,
      "hlwe": 5249,
      "Ġkobu": 5250,
      "BDT": 5251,
      "ĠAfghani": 5252,
      "kubhite": 5253,
      "ĠAuto": 5254,
      "Ġngokuthi": 5255,
      "fumene": 5256,
      "Ġesiphezulu": 5257,
      "ĠAmaleki": 5258,
      "Ġngomn": 5259,
      "Ġebusuku": 5260,
      "gxinin": 5261,
      "xwebhu": 5262,
      "Ġkanga": 5263,
      "hlola": 5264,
      "ĠSmall": 5265,
      "atshirt": 5266,
      "khuni": 5267,
      "gubung": 5268,
      "Ġbezi": 5269,
      "Ġezenziwe": 5270,
      "Re": 5271,
      "ĠBath": 5272,
      "phesheya": 5273,
      "fele": 5274,
      "hryvnia": 5275,
      "wisela": 5276,
      "yazi": 5277,
      "pozithi": 5278,
      "FW": 5279,
      "ces": 5280,
      "Ġecacileyo": 5281,
      "Ġngabantu": 5282,
      "ishwankathelo": 5283,
      "Ġezineeng": 5284,
      "ĠIsraeli": 5285,
      "baba": 5286,
      "sithi": 5287,
      "Ġlinga": 5288,
      "Ġwayesebenzisa": 5289,
      "Ġukutyibilika": 5290,
      "Ġeninzi": 5291,
      "oly": 5292,
      "Ġngubani": 5293,
      "NM": 5294,
      "Ġzise": 5295,
      "Ġwawu": 5296,
      "Ġiziphumo": 5297,
      "ĠKuwa": 5298,
      "Ġzazo": 5299,
      "Ġokulungileyo": 5300,
      "lood": 5301,
      "ĠIZUY": 5302,
      "Ġmac": 5303,
      "soloko": 5304,
      "Ġnabanye": 5305,
      "qobo": 5306,
      "ĠTechnology": 5307,
      "CO": 5308,
      "garian": 5309,
      "ĠIP": 5310,
      "Ġentle": 5311,
      "hlungu": 5312,
      "wder": 5313,
      "Ġwawa": 5314,
      "fikelele": 5315,
      "OLAS": 5316,
      "Ġeyenziwe": 5317,
      "ality": 5318,
      "ĠNgokweshekele": 5319,
      "ĠKuwaiti": 5320,
      "Ġufakelo": 5321,
      "ĠIMQ": 5322,
      "Ġalu": 5323,
      "tyh": 5324,
      "thotho": 5325,
      "khala": 5326,
      "xoki": 5327,
      "bhetri": 5328,
      "zibuthe": 5329,
      "ĠFibre": 5330,
      "Ġezineengqayi": 5331,
      "ĠUmbala": 5332,
      "hashe": 5333,
      "simbi": 5334,
      "gentine": 5335,
      "Â®": 5336,
      "NQ": 5337,
      "PLN": 5338,
      "Ġmusa": 5339,
      "ĠDen": 5340,
      "coko": 5341,
      "tshixo": 5342,
      "luncedo": 5343,
      "Ġcarbon": 5344,
      "Ġemanzini": 5345,
      "hushu": 5346,
      "ĠTi": 5347,
      "ĠBahrain": 5348,
      "GO": 5349,
      "Ġngonyaka": 5350,
      "JD": 5351,
      "Ze": 5352,
      "base": 5353,
      "ĠIV": 5354,
      "ĠEna": 5355,
      "reet": 5356,
      "Ġezisi": 5357,
      "Ġyesikhumba": 5358,
      "ĠIJQ": 5359,
      "dibana": 5360,
      "Ġumng": 5361,
      "buza": 5362,
      "kwenkwe": 5363,
      "PHP": 5364,
      "lip": 5365,
      "orha": 5366,
      "Ġscreen": 5367,
      "Ġizicelo": 5368,
      "Ġinxalenye": 5369,
      "ĠKUY": 5370,
      "Ġelinga": 5371,
      "YIT": 5372,
      "zisebenzisa": 5373,
      "Ġta": 5374,
      "lator": 5375,
      "Ġihamba": 5376,
      "ĠEzinye": 5377,
      "ĠâĢĶ": 5378,
      "FX": 5379,
      "yis": 5380,
      "Ġiqa": 5381,
      "mbhobho": 5382,
      "debe": 5383,
      "Ġbrand": 5384,
      "cimbi": 5385,
      "vice": 5386,
      "guquli": 5387,
      "xibe": 5388,
      "khundla": 5389,
      "Ġeb": 5390,
      "kwenene": 5391,
      "mboo": 5392,
      "yint": 5393,
      "yiwe": 5394,
      "mihla": 5395,
      "Ġbag": 5396,
      "ĠEs": 5397,
      "ĠYIB": 5398,
      "Ġsase": 5399,
      "gqibe": 5400,
      "KRW": 5401,
      "thabathe": 5402,
      "ĠFiber": 5403,
      "khongo": 5404,
      "ering": 5405,
      "ĠkoYehova": 5406,
      "Ġbenza": 5407,
      "Ġukwandisa": 5408,
      "Ġacid": 5409,
      "dileyo": 5410,
      "yiki": 5411,
      "foto": 5412,
      "Ġrgentine": 5413,
      "braham": 5414,
      "ĠPataca": 5415,
      "Ġtye": 5416,
      "mveli": 5417,
      "ĠSiyazikhethela": 5418,
      "Ġmachine": 5419,
      "Ġcuke": 5420,
      "ĠKhawu": 5421,
      "del": 5422,
      "Ġigazi": 5423,
      "Ġephakamileyo": 5424,
      "Ġkwazo": 5425,
      "Ġnezin": 5426,
      "ĠYuan": 5427,
      "Ġisiseko": 5428,
      "QSFP": 5429,
      "Ġmacanese": 5430,
      "liphi": 5431,
      "Ġezikhoyo": 5432,
      "Ġlwes": 5433,
      "ĠLempi": 5434,
      "Ġibhegi": 5435,
      "ĠLempira": 5436,
      "qum": 5437,
      "Ġkubun": 5438,
      "fama": 5439,
      "funayo": 5440,
      "Ġiingxaki": 5441,
      "\",": 5442,
      "DOP": 5443,
      "GE": 5444,
      "NW": 5445,
      "var": 5446,
      "LE": 5447,
      "Ġkuyilo": 5448,
      "Ġumthengi": 5449,
      "Ġndin": 5450,
      "ĠAfrika": 5451,
      "OLASOLV": 5452,
      "CS": 5453,
      "Ġithuba": 5454,
      "Ġintambo": 5455,
      "quip": 5456,
      "ĠHond": 5457,
      "ĠLoti": 5458,
      "NIO": 5459,
      "Faro": 5460,
      "ĠHonduran": 5461,
      "Ġinter": 5462,
      "Ġzokusebenza": 5463,
      "BZD": 5464,
      "Di": 5465,
      "zhou": 5466,
      "ĠUmzekelo": 5467,
      "Ġabang": 5468,
      "eremi": 5469,
      "Ġzwi": 5470,
      "omi": 5471,
      "Ġngosuku": 5472,
      "usani": 5473,
      "Ġuno": 5474,
      "Ġngokom": 5475,
      "IU": 5476,
      "KP": 5477,
      "Ġngaye": 5478,
      "quba": 5479,
      "YUY": 5480,
      "ZO": 5481,
      "Ġiintlanga": 5482,
      "SYP": 5483,
      "NX": 5484,
      "lambo": 5485,
      "wabo": 5486,
      "tshan": 5487,
      "Ġiip": 5488,
      "Ġbhe": 5489,
      "ĠJo": 5490,
      "vavanya": 5491,
      "ĠBest": 5492,
      "entetho": 5493,
      "ĠuPatch": 5494,
      "ner": 5495,
      "ombolo": 5496,
      "enk": 5497,
      "Ġumda": 5498,
      "bhaka": 5499,
      "Ġezantsi": 5500,
      "BM": 5501,
      "VT": 5502,
      "col": 5503,
      "à´": 5504,
      "Ġkwing": 5505,
      "dibano": 5506,
      "lwen": 5507,
      "xesh": 5508,
      "Ġngokufanelekileyo": 5509,
      "Ġyintoni": 5510,
      "MZN": 5511,
      "Ġibhola": 5512,
      "ĠIphepha": 5513,
      "Ġyedi": 5514,
      "wuphi": 5515,
      "khamera": 5516,
      "hombisa": 5517,
      "leli": 5518,
      "Ġbi": 5519,
      "Ġekwa": 5520,
      "ĠAntil": 5521,
      "BK": 5522,
      "mar": 5523,
      "mile": 5524,
      "all": 5525,
      "Ġsaba": 5526,
      "xeko": 5527,
      "Ġtube": 5528,
      "ĠKwanza": 5529,
      "ece": 5530,
      "ĠUtsho": 5531,
      "lizwe": 5532,
      "ergy": 5533,
      "ĠGul": 5534,
      "Ġlwesi": 5535,
      "ĠJet": 5536,
      "bumn": 5537,
      "modeli": 5538,
      "Ġnkqo": 5539,
      "ĠIgama": 5540,
      "Ġnamanye": 5541,
      "ĠGym": 5542,
      "ĠAbafazi": 5543,
      "Ġisetyenziswa": 5544,
      "entlalo": 5545,
      "thelekiswa": 5546,
      "anse": 5547,
      "jenge": 5548,
      "aliti": 5549,
      "as": 5550,
      "Ġiphi": 5551,
      "lock": 5552,
      "ĠKit": 5553,
      "alk": 5554,
      "Ġamava": 5555,
      "tyana": 5556,
      "ĠTest": 5557,
      "Ġakayi": 5558,
      "Ġkubalulekile": 5559,
      "ZQ": 5560,
      "lanu": 5561,
      "Ġathe": 5562,
      "Ġukudla": 5563,
      "ĠLin": 5564,
      "Ph": 5565,
      "Sh": 5566,
      "zona": 5567,
      "dibene": 5568,
      "Ġndim": 5569,
      "peed": 5570,
      "Ġibandla": 5571,
      "ton": 5572,
      "xenye": 5573,
      "hlambulu": 5574,
      "Ġiibhotile": 5575,
      "Ġimilo": 5576,
      "Ngqina": 5577,
      "mpuma": 5578,
      "liaanse": 5579,
      "gwenxa": 5580,
      "ĠAntilliaanse": 5581,
      "ĠGulden": 5582,
      "IO": 5583,
      "PZ": 5584,
      "ĠMusa": 5585,
      "Ġiindaba": 5586,
      "Ġzentsimbi": 5587,
      "ks": 5588,
      "tyle": 5589,
      "cum": 5590,
      "Ġphantse": 5591,
      "Ġkuzi": 5592,
      "shuwa": 5593,
      "Ġuyise": 5594,
      "ĠNet": 5595,
      "Ġngalinye": 5596,
      "Ġyenziwe": 5597,
      "sinye": 5598,
      "bhetye": 5599,
      "kunene": 5600,
      "Ġzendalo": 5601,
      "vulekileyo": 5602,
      "Ġmanzi": 5603,
      "Fil": 5604,
      "boni": 5605,
      "Ġingxaki": 5606,
      "iner": 5607,
      "Ġecaleni": 5608,
      "zemidlalo": 5609,
      "antoni": 5610,
      "ĠDigital": 5611,
      "Ġaluminium": 5612,
      "Google": 5613,
      "MXN": 5614,
      "oyise": 5615,
      "Ġithi": 5616,
      "ĠIXUY": 5617,
      "Ngesi": 5618,
      "PN": 5619,
      "YO": 5620,
      "at": 5621,
      "Ġukubonelela": 5622,
      "Ġkwamanzi": 5623,
      "thali": 5624,
      "ĠLCD": 5625,
      "ĠOn": 5626,
      "ĠOli": 5627,
      "ĠUze": 5628,
      "Ġuse": 5629,
      "luvo": 5630,
      "Ġokwe": 5631,
      "Ġkwimeko": 5632,
      "Ġpi": 5633,
      "Ġkukuthi": 5634,
      "Ġnding": 5635,
      "Nepal": 5636,
      "phulaphuli": 5637,
      "khathal": 5638,
      "GC": 5639,
      "ZU": 5640,
      "pr": 5641,
      "Ġnkampani": 5642,
      "Ġkufumana": 5643,
      "bouti": 5644,
      "nge": 5645,
      "Ġzawo": 5646,
      "Ġpre": 5647,
      "ĠElectronic": 5648,
      "dongeni": 5649,
      "Gi": 5650,
      "Ġeban": 5651,
      "Ġincwadi": 5652,
      "ĠYIT": 5653,
      "jithali": 5654,
      "khuphela": 5655,
      "khuphiswano": 5656,
      "etros": 5657,
      "ĠeliseNepal": 5658,
      "JC": 5659,
      "elani": 5660,
      "kali": 5661,
      "orhwebo": 5662,
      "Ġamalungu": 5663,
      "vumba": 5664,
      "glass": 5665,
      "mfuneko": 5666,
      "Ġrh": 5667,
      "liti": 5668,
      "Ġbaza": 5669,
      "ream": 5670,
      "Ġnamadoda": 5671,
      "tsala": 5672,
      "Ġkwenzeka": 5673,
      "Ġkwixesha": 5674,
      "jibouti": 5675,
      "shicilelwe": 5676,
      "Ġzobugcisa": 5677,
      "ĠIVinyl": 5678,
      "phambu": 5679,
      "ĠEwe": 5680,
      "ĠDjibouti": 5681,
      "CUP": 5682,
      "Ġimpompo": 5683,
      "ĠYouko": 5684,
      "Ja": 5685,
      "NK": 5686,
      "Ġukufunda": 5687,
      "sebenzini": 5688,
      "boniso": 5689,
      "Ġimifanekiso": 5690,
      "vakalelo": 5691,
      "BIF": 5692,
      "Ġbantu": 5693,
      "Ġabazi": 5694,
      "ĠHan": 5695,
      "Ġundi": 5696,
      "lwandle": 5697,
      "SAR": 5698,
      "ĠBulgarian": 5699,
      "JOD": 5700,
      "sti": 5701,
      "Ġekho": 5702,
      "ĠCana": 5703,
      "Ġumfanekiso": 5704,
      "ĠHunga": 5705,
      "Ġndizayo": 5706,
      "vuzo": 5707,
      "Ġesing": 5708,
      "ĠBottle": 5709,
      "TRY": 5710,
      "qhubeke": 5711,
      "thembeka": 5712,
      "ĠController": 5713,
      "RWF": 5714,
      "ness": 5715,
      "Ġukwakha": 5716,
      "Ġumfazi": 5717,
      "thoba": 5718,
      "ide": 5719,
      "engo": 5720,
      "ĠAm": 5721,
      "Ġyemveliso": 5722,
      "xobo": 5723,
      "jika": 5724,
      "EUR": 5725,
      "lenza": 5726,
      "Ġmzi": 5727,
      "ĠLift": 5728,
      "Ġizandla": 5729,
      "qengqele": 5730,
      "ishe": 5731,
      "zeki": 5732,
      "Ġabayi": 5733,
      "entlanga": 5734,
      "lwane": 5735,
      "ĠGold": 5736,
      "RD": 5737,
      "TE": 5738,
      "magne": 5739,
      "ĠSho": 5740,
      "Ġkwalo": 5741,
      "doma": 5742,
      "Ġzonyango": 5743,
      "thandwa": 5744,
      "singatha": 5745,
      "ĠAfrica": 5746,
      "JH": 5747,
      "SVC": 5748,
      "boya": 5749,
      "Ġelizayo": 5750,
      "ĠIzibane": 5751,
      "Me": 5752,
      "lani": 5753,
      "pti": 5754,
      "Ġkhe": 5755,
      "sic": 5756,
      "Ġkwela": 5757,
      "ĠKh": 5758,
      "MNT": 5759,
      "RL": 5760,
      "yele": 5761,
      "siko": 5762,
      "oran": 5763,
      "tate": 5764,
      "mpendulo": 5765,
      "gwebu": 5766,
      "ĠIsefu": 5767,
      "Ġngokuqhelekileyo": 5768,
      "futhe": 5769,
      "Ġyendalo": 5770,
      "dwendwe": 5771,
      "sebe": 5772,
      "Ġkwicala": 5773,
      "ĠMulti": 5774,
      "onaphakade": 5775,
      "bonwa": 5776,
      "TND": 5777,
      "xeba": 5778,
      "XAU": 5779,
      "ĠHungarian": 5780,
      "gcini": 5781,
      "Ġwona": 5782,
      "Ġezis": 5783,
      "yisekile": 5784,
      "ĠPouch": 5785,
      "ĠScrew": 5786,
      "Ġrhanga": 5787,
      "ĠPouches": 5788,
      "UYM": 5789,
      "Ġwazala": 5790,
      "zuko": 5791,
      "Ġomtsha": 5792,
      "Ġizakhiwo": 5793,
      "ĠLabel": 5794,
      "ĠAnd": 5795,
      "ohn": 5796,
      "RA": 5797,
      "eld": 5798,
      "Ġukufa": 5799,
      "Ġezizi": 5800,
      "verter": 5801,
      "ĠComoran": 5802,
      "MMK": 5803,
      "Ġkusi": 5804,
      "erti": 5805,
      "Ġyawo": 5806,
      "tywina": 5807,
      "bamb": 5808,
      "ziyo": 5809,
      "esis": 5810,
      "Ġumlomo": 5811,
      "ĠYUA": 5812,
      "enezu": 5813,
      "Ġfil": 5814,
      "enezuela": 5815,
      "pcs": 5816,
      "Ġekhuselekileyo": 5817,
      "qabileyo": 5818,
      "Ġby": 5819,
      "fumanisa": 5820,
      "ĠSub": 5821,
      "RON": 5822,
      "seva": 5823,
      "iler": 5824,
      "ĠAman": 5825,
      "Ġyazo": 5826,
      "tsimi": 5827,
      "Ġokunga": 5828,
      "icro": 5829,
      "thiwekhi": 5830,
      "Ġedfa": 5831,
      "tshanje": 5832,
      "Ġkha": 5833,
      "loba": 5834,
      "bukhulu": 5835,
      "Ġlwezi": 5836,
      "bheja": 5837,
      "phulaphula": 5838,
      "ĠIndustrial": 5839,
      "krola": 5840,
      "Nt": 5841,
      "Ġyokwenza": 5842,
      "bhaliweyo": 5843,
      "Ġekuqaleni": 5844,
      "mpuli": 5845,
      "ĠSweatshirt": 5846,
      "dlelwane": 5847,
      ");": 5848,
      "Funda": 5849,
      "Jam": 5850,
      "SBD": 5851,
      "Ġkwabantu": 5852,
      "Ġuyazi": 5853,
      "engubo": 5854,
      "ĠIshicilelwe": 5855,
      "erte": 5856,
      "Ġyalo": 5857,
      "ghts": 5858,
      "ydrau": 5859,
      "ot": 5860,
      "yenze": 5861,
      "Ġyamanzi": 5862,
      "ĠMna": 5863,
      "ĠRol": 5864,
      "thumele": 5865,
      "alkland": 5866,
      "BSD": 5867,
      "Ġyokwakha": 5868,
      "milo": 5869,
      "ĠNon": 5870,
      "ĠEquip": 5871,
      "Ġlwam": 5872,
      "Ġbrace": 5873,
      "ĠCA": 5874,
      "ĠMUYO": 5875,
      "Ġzitsha": 5876,
      "fayili": 5877,
      "Ġubuchule": 5878,
      "Ġngesantya": 5879,
      "hanjiswa": 5880,
      "kumgangatho": 5881,
      "ĠControl": 5882,
      "Ngcwele": 5883,
      "Ġukuthintela": 5884,
      "kom": 5885,
      "Ġind": 5886,
      "ĠEyona": 5887,
      "rade": 5888,
      "Ġemhlophe": 5889,
      "Ġesisi": 5890,
      "puter": 5891,
      "Ġiseti": 5892,
      "JG": 5893,
      "Ġngezinto": 5894,
      "MRO": 5895,
      "wulos": 5896,
      "cocekileyo": 5897,
      "AMD": 5898,
      "Ġkuhlala": 5899,
      "lori": 5900,
      "sibini": 5901,
      "ĠFalkland": 5902,
      "qhubu": 5903,
      "qhutywa": 5904,
      "mbula": 5905,
      "bume": 5906,
      "Ġleen": 5907,
      "keliso": 5908,
      "Ġluya": 5909,
      "vumelwano": 5910,
      "Ġngeendlela": 5911,
      "cang": 5912,
      "zis": 5913,
      "Ġti": 5914,
      "ĠIzin": 5915,
      "Ġukuthetha": 5916,
      "phile": 5917,
      "Ġkuna": 5918,
      "Ġkunokwenzeka": 5919,
      "WDM": 5920,
      "ĠYiba": 5921,
      "krelekrele": 5922,
      "mvelo": 5923,
      "Ġebomini": 5924,
      "ĠHead": 5925,
      "TMT": 5926,
      "Venezuela": 5927,
      "yman": 5928,
      "Ġanama": 5929,
      "Ġemo": 5930,
      "Ġesebenzayo": 5931,
      "Ġemfutshane": 5932,
      "MYR": 5933,
      "ĠElevator": 5934,
      "Ro": 5935,
      "mart": 5936,
      "Ġungum": 5937,
      "ether": 5938,
      "Ġngokuqinisekileyo": 5939,
      "Ġying": 5940,
      "Ġiiyure": 5941,
      "mpulu": 5942,
      "hland": 5943,
      "Ġndiba": 5944,
      "Ġezu": 5945,
      "ĠLeone": 5946,
      "ĠGear": 5947,
      "Filisti": 5948,
      "ziweyo": 5949,
      "fazwe": 5950,
      "EO": 5951,
      "GEL": 5952,
      "then": 5953,
      "sign": 5954,
      "Ġingubo": 5955,
      "yiweyo": 5956,
      "ĠNkosi": 5957,
      "vala": 5958,
      "Ġzehlabathi": 5959,
      "Ġisiguquli": 5960,
      "ĠUYUA": 5961,
      "zuzwana": 5962,
      "cer": 5963,
      "Ġisakhelo": 5964,
      "khawulezayo": 5965,
      "tsapho": 5966,
      "Ġngonaphakade": 5967,
      "ĠFan": 5968,
      "Ġziza": 5969,
      "Ġzokhuseleko": 5970,
      "qhekeza": 5971,
      "funyanwa": 5972,
      "BUY": 5973,
      "LKR": 5974,
      "RV": 5975,
      "ziselo": 5976,
      "butho": 5977,
      "Ġsokuba": 5978,
      "Ġamafutha": 5979,
      "Ġimibuzo": 5980,
      "ĠIsixhobo": 5981,
      "Ġbanoku": 5982,
      "licon": 5983,
      "DKK": 5984,
      "ĠIqhubu": 5985,
      "board": 5986,
      "Ġisiphumo": 5987,
      "Ġelifutshane": 5988,
      "bungqina": 5989,
      "fanekis": 5990,
      "ĠBolivar": 5991,
      "ĠDeep": 5992,
      "anduva": 5993,
      "Ġuninzi": 5994,
      "mpazamo": 5995,
      "Ġcamera": 5996,
      "troni": 5997,
      "COP": 5998,
      "JL": 5999,
      "LVL": 6000,
      "RZ": 6001,
      "Ġumkhonzi": 6002,
      "Ġyabantu": 6003,
      "ĠKey": 6004,
      "Ġumahluko": 6005,
      "ĠPoly": 6006,
      "ls": 6007,
      "kumisa": 6008,
      "ĠUDT": 6009,
      "lus": 6010,
      "mbon": 6011,
      "khutshwa": 6012,
      "MDL": 6013,
      "ydraulic": 6014,
      "Ġeye": 6015,
      "phathwa": 6016,
      "Ġisibane": 6017,
      "ĠInto": 6018,
      "Ġlwethu": 6019,
      "ĠEnd": 6020,
      "Ġamanqaku": 6021,
      "MGA": 6022,
      "ZMW": 6023,
      "ency": 6024,
      "way": 6025,
      "luphi": 6026,
      "ssero": 6027,
      "IDR": 6028,
      "enera": 6029,
      "Ġethu": 6030,
      "phunga": 6031,
      "Ġolung": 6032,
      "rami": 6033,
      "Ġingakumbi": 6034,
      "liswe": 6035,
      "tshisa": 6036,
      "bucala": 6037,
      "benza": 6038,
      "Ġemsebenzini": 6039,
      "vuza": 6040,
      "ĠCayman": 6041,
      "THB": 6042,
      "thunyelwe": 6043,
      "Ġkungekho": 6044,
      "ĠDoor": 6045,
      "cle": 6046,
      "Ġukubona": 6047,
      "elika": 6048,
      "Ġbenu": 6049,
      "ĠHosting": 6050,
      "lindele": 6051,
      "ĠFuerte": 6052,
      "ĠYaseVenezuela": 6053,
      "Jamani": 6054,
      "Lu": 6055,
      "SGD": 6056,
      "ento": 6057,
      "Ġimo": 6058,
      "Ġal": 6059,
      "Ġukupakisha": 6060,
      "Ġkweminyaka": 6061,
      "Ġfra": 6062,
      "Ġzoshishino": 6063,
      "mbuzo": 6064,
      "khumbula": 6065,
      "Ġukudala": 6066,
      "yihlo": 6067,
      "ĠElastic": 6068,
      "reyi": 6069,
      "sari": 6070,
      "ĠOkulandelayo": 6071,
      "qesh": 6072,
      "Ġona": 6073,
      "simahla": 6074,
      "ĠYonke": 6075,
      "kondla": 6076,
      "Ġniya": 6077,
      "troniki": 6078,
      "JMD": 6079,
      "Yo": 6080,
      "sonic": 6081,
      "yus": 6082,
      "zila": 6083,
      "kethi": 6084,
      "inako": 6085,
      "Ġiziko": 6086,
      "Ġnesa": 6087,
      "ĠBathroom": 6088,
      "Ġiliso": 6089,
      "Ġsheet": 6090,
      "Ġnexesha": 6091,
      "ĠYUY": 6092,
      "thethayo": 6093,
      "ĠPhoto": 6094,
      "Ġicandelo": 6095,
      "ĠIKUY": 6096,
      "Ġune": 6097,
      "Ġlawo": 6098,
      "Ġndingu": 6099,
      "Ġnjengesi": 6100,
      "Neon": 6101,
      "port": 6102,
      "mpembelelo": 6103,
      "sserole": 6104,
      "AUD": 6105,
      "OUY": 6106,
      "dom": 6107,
      "Ġlentetho": 6108,
      "ĠRes": 6109,
      "Ġndiyi": 6110,
      "khankan": 6111,
      "kwaneleyo": 6112,
      "vol": 6113,
      "ĠYenza": 6114,
      "ĠUmfanekiso": 6115,
      "ĠKazakh": 6116,
      "LBP": 6117,
      "Ġukwenziwa": 6118,
      "ĠIdolo": 6119,
      "thanga": 6120,
      "Ġamazinyo": 6121,
      "Ġizityalo": 6122,
      "hlandlo": 6123,
      "Ġiteknoloji": 6124,
      "ĠItshathi": 6125,
      "ĠIbhokisi": 6126,
      "phumla": 6127,
      "peyin": 6128,
      "Ġubungqina": 6129,
      "Ġiwhisky": 6130,
      "Ġusa": 6131,
      "bawo": 6132,
      "Ġoya": 6133,
      "diweyo": 6134,
      "Ġling": 6135,
      "Ġenze": 6136,
      "Ġikhandlela": 6137,
      "JE": 6138,
      "Ġesinye": 6139,
      "Ġlwesishwankathelo": 6140,
      "cket": 6141,
      "ĠIkhasino": 6142,
      "Ġnokumelana": 6143,
      "Ġlihambelana": 6144,
      "Ġngukumkani": 6145,
      "phumelele": 6146,
      "CLP": 6147,
      "HTG": 6148,
      "VUV": 6149,
      "xumi": 6150,
      "yr": 6151,
      "Ġinkcubeko": 6152,
      "ĠâĹ": 6153,
      "Ġsinoku": 6154,
      "LAK": 6155,
      "xanduva": 6156,
      "bamba": 6157,
      "susa": 6158,
      "Ġilifa": 6159,
      "xham": 6160,
      "ydro": 6161,
      "RH": 6162,
      "USD": 6163,
      "zane": 6164,
      "Ġid": 6165,
      "Ġyokwa": 6166,
      "Ġumsebenzisi": 6167,
      "kholelwa": 6168,
      "Ġneent": 6169,
      "Ġyenye": 6170,
      "Ġeline": 6171,
      "ktroniki": 6172,
      "kezela": 6173,
      "Ġnguye": 6174,
      "zelwe": 6175,
      "Ġebandayo": 6176,
      "Ġkunene": 6177,
      "ĠeN": 6178,
      "ester": 6179,
      "ĠPor": 6180,
      "vutha": 6181,
      "ĠVar": 6182,
      "ĠNgako": 6183,
      "tton": 6184,
      "ĠStreet": 6185,
      "misonto": 6186,
      "ges": 6187,
      "Ġigumbi": 6188,
      "anasonic": 6189,
      "Ġamacandelo": 6190,
      "tyiswa": 6191,
      "sebenze": 6192,
      "Ġnento": 6193,
      "langaniso": 6194,
      "Ġtechnology": 6195,
      "Ġemnyango": 6196,
      "ving": 6197,
      "ĠeM": 6198,
      "Ġnemveliso": 6199,
      "ĠAni": 6200,
      "ĠBamboo": 6201,
      "ĠDC": 6202,
      "Ġimithetho": 6203,
      "NAD": 6204,
      "GQ": 6205,
      "xwe": 6206,
      "Ġukhuselo": 6207,
      "ulula": 6208,
      "Ġisikhumba": 6209,
      "Ġbuka": 6210,
      "fundiso": 6211,
      "GM": 6212,
      "Go": 6213,
      "OMR": 6214,
      "nceda": 6215,
      "Ġac": 6216,
      "Ġakwa": 6217,
      "yathela": 6218,
      "Ġinika": 6219,
      "Ġumphathi": 6220,
      "ĠFlood": 6221,
      "ĠPC": 6222,
      "khethiweyo": 6223,
      "ĠWena": 6224,
      "Ġngexabiso": 6225,
      "bhali": 6226,
      "Ġolubanzi": 6227,
      "zanga": 6228,
      "Ġekhoyo": 6229,
      "Ġububi": 6230,
      "gozi": 6231,
      "phumeza": 6232,
      "Ġamancinci": 6233,
      "qengqeleki": 6234,
      "Asi": 6235,
      "ZM": 6236,
      "Ġephambili": 6237,
      "Ġakuyi": 6238,
      "Ġukusifaka": 6239,
      "BBD": 6240,
      "IP": 6241,
      "bandla": 6242,
      "wada": 6243,
      "Ġumkhosi": 6244,
      "Ġuni": 6245,
      "ĠCasserole": 6246,
      "Ġofisi": 6247,
      "Ġngokwemi": 6248,
      "BYR": 6249,
      "bandakanywa": 6250,
      "ĠImisela": 6251,
      "Ġzitshajwe": 6252,
      "Ġikhaya": 6253,
      "ileta": 6254,
      "qubu": 6255,
      "ĠYo": 6256,
      "Ġngezantsi": 6257,
      "manci": 6258,
      "ĠUmsebenzi": 6259,
      "suswa": 6260,
      "BGN": 6261,
      "wesileyo": 6262,
      "bande": 6263,
      "cm": 6264,
      "sor": 6265,
      "Ġilanga": 6266,
      "Ġkwimveliso": 6267,
      "Ġkwizinto": 6268,
      "Ġisicwangciso": 6269,
      "Ġkukumkani": 6270,
      "Ġnaziphi": 6271,
      "GU": 6272,
      "JV": 6273,
      "ĠLoo": 6274,
      "Ġyeng": 6275,
      "UAH": 6276,
      "khany": 6277,
      "ĠCE": 6278,
      "Ġinxaxheba": 6279,
      "ĠLilangeni": 6280,
      "reat": 6281,
      "Ġebantwini": 6282,
      "Aron": 6283,
      "Ġuphuhliso": 6284,
      "Ġnamnye": 6285,
      "omlomo": 6286,
      "ĠWoo": 6287,
      "ĠGolden": 6288,
      "TX": 6289,
      "WP": 6290,
      "Ġusebenzise": 6291,
      "Ġiwayini": 6292,
      "onde": 6293,
      "Ġkwishishini": 6294,
      "qule": 6295,
      "Ġbephosa": 6296,
      "ĠuP": 6297,
      "ĠIta": 6298,
      "landeli": 6299,
      "Ġayina": 6300,
      "car": 6301,
      "tsika": 6302,
      "Ġsiko": 6303,
      "ĠCasino": 6304,
      "XOF": 6305,
      "ĠHair": 6306,
      "DL": 6307,
      "Ġphoto": 6308,
      "yeke": 6309,
      "Ġwaku": 6310,
      "ĠPlay": 6311,
      "Ġlwakhe": 6312,
      "QAR": 6313,
      "Ġkananjalo": 6314,
      "Ru": 6315,
      "zakhiwo": 6316,
      "Ġeziqhelekileyo": 6317,
      "Ġenesi": 6318,
      "Ġmqengqeleki": 6319,
      "hlela": 6320,
      "Ġbes": 6321,
      "tyatya": 6322,
      "ĠTop": 6323,
      "phonon": 6324,
      "ĠProjectile": 6325,
      "ĠVarsity": 6326,
      "She": 6327,
      "ah": 6328,
      "ĠIint": 6329,
      "Ġuncedo": 6330,
      "Ġkubathengi": 6331,
      "ĠColored": 6332,
      "ĠKazakhstani": 6333,
      "nc": 6334,
      "Ġozi": 6335,
      "taka": 6336,
      "Ġyangoku": 6337,
      "ĠOk": 6338,
      "phose": 6339,
      "isebenze": 6340,
      "qwenela": 6341,
      "KES": 6342,
      "cangca": 6343,
      "\".": 6344,
      "YU": 6345,
      "ala": 6346,
      "zenz": 6347,
      "Ġkuthe": 6348,
      "ĠMaced": 6349,
      "Ġekugqibeleni": 6350,
      "bhenge": 6351,
      "bhinq": 6352,
      "jelo": 6353,
      "funxa": 6354,
      "Ġyint": 6355,
      "tshiza": 6356,
      "Ġparam": 6357,
      "km": 6358,
      "songa": 6359,
      "sikweni": 6360,
      "kholwa": 6361,
      "Ġisithuba": 6362,
      "ĠCoin": 6363,
      "gqitha": 6364,
      "gcinwe": 6365,
      "Ġekr": 6366,
      "Ġebonakalayo": 6367,
      "ĠUkuzi": 6368,
      "ketho": 6369,
      "kwin": 6370,
      "gyz": 6371,
      "baluleke": 6372,
      "ĠDenar": 6373,
      "yrgyz": 6374,
      "ĠMacedonian": 6375,
      "Ar": 6376,
      "njalo": 6377,
      "ssa": 6378,
      "Ġefana": 6379,
      "khobo": 6380,
      "phakhe": 6381,
      "Ġngokucacileyo": 6382,
      "Ġlizwe": 6383,
      "gwebo": 6384,
      "Ġuhamb": 6385,
      "Ġkubantu": 6386,
      "elaphu": 6387,
      "ĠyeN": 6388,
      "ĠEl": 6389,
      "Ġababingeleli": 6390,
      "gusha": 6391,
      "Ġngokwaneleyo": 6392,
      "ĠRF": 6393,
      "phuhlisa": 6394,
      "Ġezulwini": 6395,
      "TO": 6396,
      "TTD": 6397,
      "oz": 6398,
      "prin": 6399,
      "ziswa": 6400,
      "Ġndo": 6401,
      "ĠiP": 6402,
      "Ġoba": 6403,
      "ĠFence": 6404,
      "Ġsing": 6405,
      "Ġsonke": 6406,
      "EX": 6407,
      "sixhenxe": 6408,
      "tshiswa": 6409,
      "inika": 6410,
      "khululo": 6411,
      "Ġiinkampani": 6412,
      "Ġnjengoku": 6413,
      "thandazo": 6414,
      "):": 6415,
      "Uni": 6416,
      "YM": 6417,
      "Ġizwi": 6418,
      "ĠSlo": 6419,
      "mium": 6420,
      "ĠKyrgyz": 6421,
      "thole": 6422,
      "Ġbegama": 6423,
      "ĠKyrgyzstani": 6424,
      "YER": 6425,
      "jo": 6426,
      "trans": 6427,
      "Ġkubonakala": 6428,
      "Ġukuqonda": 6429,
      "qathango": 6430,
      "jikis": 6431,
      "qiweyo": 6432,
      "Ġneengxa": 6433,
      "place": 6434,
      "ings": 6435,
      "Ġbaby": 6436,
      "ĠBaya": 6437,
      "ĠInkampani": 6438,
      "Ġzinoku": 6439,
      "ĠTajikis": 6440,
      "Ġelinyukayo": 6441,
      "Ġeludongeni": 6442,
      "eremiya": 6443,
      "ĠTajikistani": 6444,
      "TB": 6445,
      "mber": 6446,
      "ĠNokuba": 6447,
      "tshato": 6448,
      "Ġngaphaya": 6449,
      "tary": 6450,
      "Ġlokucoca": 6451,
      "qonde": 6452,
      "mbulula": 6453,
      "ments": 6454,
      "YQ": 6455,
      "YX": 6456,
      "misela": 6457,
      "Ġyeyona": 6458,
      "ĠTrans": 6459,
      "ĠzeB": 6460,
      "Ġlive": 6461,
      "Ġengcono": 6462,
      "Ġzing": 6463,
      "Ġezintle": 6464,
      "ĠoyiNgcwele": 6465,
      "win": 6466,
      "ĠUyilo": 6467,
      "ĠUmntu": 6468,
      "Ġiisa": 6469,
      "esenti": 6470,
      "Ġsiku": 6471,
      "Ġemveni": 6472,
      "ĠNak": 6473,
      "ĠModel": 6474,
      "Ġiingubo": 6475,
      "pt": 6476,
      "bali": 6477,
      "ĠBUY": 6478,
      "ĠBlack": 6479,
      "lwakhiwo": 6480,
      "ukuba": 6481,
      "fundisi": 6482,
      "qinile": 6483,
      "jus": 6484,
      "lom": 6485,
      "ĠGri": 6486,
      "Ġbenze": 6487,
      "ĠScreen": 6488,
      "ids": 6489,
      "Ġnabesi": 6490,
      "TOP": 6491,
      "sango": 6492,
      "Ġomn": 6493,
      "Ġngentsimbi": 6494,
      "khongozeli": 6495,
      "mpumalanga": 6496,
      "Khu": 6497,
      "XDR": 6498,
      "Ġinjongo": 6499,
      "Ġezikumgangatho": 6500,
      "shisa": 6501,
      "bhola": 6502,
      "Ġisin": 6503,
      "hlaziywa": 6504,
      "VPS": 6505,
      "ĠUKUY": 6506,
      "ero": 6507,
      "ĠFo": 6508,
      "ĠYintoni": 6509,
      "Ġwokuqala": 6510,
      "endele": 6511,
      "Ġentliziyweni": 6512,
      "Ġendleleni": 6513,
      "Ġngokunjalo": 6514,
      "Bawo": 6515,
      "HUF": 6516,
      "band": 6517,
      "phath": 6518,
      "Ġwakwa": 6519,
      "Ġentabeni": 6520,
      "tamo": 6521,
      "kunkuma": 6522,
      "lonyeni": 6523,
      "ramidi": 6524,
      "ĠNakfa": 6525,
      "hhala": 6526,
      "tshon": 6527,
      "zinda": 6528,
      "unge": 6529,
      "enzhen": 6530,
      "Ġnamhla": 6531,
      "bangelwa": 6532,
      "Ġneengxakana": 6533,
      "BND": 6534,
      "NZD": 6535,
      "ZW": 6536,
      "Ġlw": 6537,
      "Ġiibh": 6538,
      "Ġkwezinto": 6539,
      "cima": 6540,
      "Ġser": 6541,
      "vuya": 6542,
      "Ġwobu": 6543,
      "LRD": 6544,
      "thambiso": 6545,
      "Ġnabesilisa": 6546,
      "GF": 6547,
      "IUY": 6548,
      "qan": 6549,
      "zel": 6550,
      "Ġmb": 6551,
      "ingxobo": 6552,
      "shin": 6553,
      "jikelo": 6554,
      "Ġenge": 6555,
      "Ġbubu": 6556,
      "cor": 6557,
      "Ġizicwangciso": 6558,
      "Ġmodu": 6559,
      "DZD": 6560,
      "Ge": 6561,
      "zalwane": 6562,
      "ĠBrand": 6563,
      "hlali": 6564,
      "Ġwasi": 6565,
      "Ġlogo": 6566,
      "ĠAng": 6567,
      "ĠArani": 6568,
      "OCKS": 6569,
      "qwenga": 6570,
      "Ġesisangqa": 6571,
      "bise": 6572,
      "Ġeen": 6573,
      "Ġkumatshini": 6574,
      "Ġnawo": 6575,
      "hlolo": 6576,
      "ĠEnergy": 6577,
      "caciso": 6578,
      "singathwa": 6579,
      "Ġmkhulu": 6580,
      "ĠnguThixo": 6581,
      "Ġnenceba": 6582,
      "ttery": 6583,
      "zimeleyo": 6584,
      "Ġtouch": 6585,
      "Web": 6586,
      "kokuqala": 6587,
      "Ġividiyo": 6588,
      "Ġepho": 6589,
      "Ġukutshintsha": 6590,
      "sayi": 6591,
      "gqo": 6592,
      "Ġweb": 6593,
      "qokelela": 6594,
      "ilding": 6595,
      "ĠâĦ¢": 6596,
      "RI": 6597,
      "ĠUkongeza": 6598,
      "Ġukuthengisa": 6599,
      "Ġose": 6600,
      "ĠBack": 6601,
      "Ġamathathu": 6602,
      "vuyo": 6603,
      "hlabayo": 6604,
      "isebenzise": 6605,
      "Ġelevator": 6606,
      "Ġumaleko": 6607,
      "hlwempu": 6608,
      "NJ": 6609,
      "Ġfu": 6610,
      "Ġiko": 6611,
      "ĠIKQ": 6612,
      "zali": 6613,
      "Ġkwiwebhusayithi": 6614,
      "isileyo": 6615,
      "ĠEPQ": 6616,
      "tors": 6617,
      "Ġintombi": 6618,
      "Ġungu": 6619,
      "ĠUSB": 6620,
      "hanya": 6621,
      "CHF": 6622,
      "Ġstandard": 6623,
      "EE": 6624,
      "Ġmali": 6625,
      "Ġukhethe": 6626,
      "onwa": 6627,
      "arh": 6628,
      "cola": 6629,
      "CRC": 6630,
      "dumileyo": 6631,
      "ĠEasy": 6632,
      "CM": 6633,
      "YF": 6634,
      "ZK": 6635,
      "tis": 6636,
      "ones": 6637,
      "Ġyokuthengisa": 6638,
      "phelisa": 6639,
      "amu": 6640,
      "bandakanye": 6641,
      "Ġentlango": 6642,
      "ĠPhaka": 6643,
      "Ġuzinzo": 6644,
      "gorha": 6645,
      "ii": 6646,
      "mfele": 6647,
      "anan": 6648,
      "ĠeS": 6649,
      "Ġkubandakanya": 6650,
      "ĠBathi": 6651,
      "ĠBoard": 6652,
      "vumele": 6653,
      "qiqo": 6654,
      "fakamfele": 6655,
      "Bhen": 6656,
      "yiswa": 6657,
      "mvaka": 6658,
      "Ġsebenzisa": 6659,
      "Ġukufaka": 6660,
      "qadi": 6661,
      "ĠWUY": 6662,
      "Ġnophuhliso": 6663,
      "Ġimizi": 6664,
      "Ġzobun": 6665,
      "Ġasixhenxe": 6666,
      "ĠCanadian": 6667,
      "JPY": 6668,
      "Ġwan": 6669,
      "Ġiise": 6670,
      "ĠBonke": 6671,
      "anamhlanje": 6672,
      "ĠFlexible": 6673,
      "ĠLine": 6674,
      "ĠOko": 6675,
      "put": 6676,
      "Ġbenga": 6677,
      "Ġingaba": 6678,
      "Ġfashion": 6679,
      "Fi": 6680,
      "TK": 6681,
      "zation": 6682,
      "Ġyoshicilelo": 6683,
      "Ġenzima": 6684,
      "quku": 6685,
      "gudileyo": 6686,
      "Ġbest": 6687,
      "ĠGroove": 6688,
      "rhu": 6689,
      "eno": 6690,
      "Ġkwenye": 6691,
      "ĠBit": 6692,
      "tyho": 6693,
      "Ġzeglasi": 6694,
      "cede": 6695,
      "papa": 6696,
      "justable": 6697,
      "PP": 6698,
      "sono": 6699,
      "ĠuKristu": 6700,
      "Ġkuzisebenzisa": 6701,
      "Ġukudibanisa": 6702,
      "Ġkune": 6703,
      "SEK": 6704,
      "Ġiphiramidi": 6705,
      "fono": 6706,
      "umo": 6707,
      "Ġbali": 6708,
      "bonani": 6709,
      "Ġengundoqo": 6710,
      "luminium": 6711,
      "ĠRound": 6712,
      "aluminiyam": 6713,
      "ese": 6714,
      "Ġkutheni": 6715,
      "Ġajikeleze": 6716,
      "Ġlona": 6717,
      "Ġamaxabiso": 6718,
      "mbiza": 6719,
      "Ġndiza": 6720,
      "ĠâĢ¦": 6721,
      "Ġesinga": 6722,
      "Ġingxolo": 6723,
      "Ġabane": 6724,
      "linganisi": 6725,
      "Ġdesign": 6726,
      "ofisi": 6727,
      "GTQ": 6728,
      ".\"": 6729,
      "melwane": 6730,
      "Ġit": 6731,
      "ĠIxabiso": 6732,
      "Ġukuthambisa": 6733,
      "ĠKan": 6734,
      "ĠIBUY": 6735,
      "Ġlakwa": 6736,
      "Ġolukhulu": 6737,
      "Ġimfuneko": 6738,
      "ĠIinkcukacha": 6739,
      "xeshanye": 6740,
      "ZWL": 6741,
      "tshisayo": 6742,
      "dili": 6743,
      "Ġsquare": 6744,
      "mbathisa": 6745,
      "HRK": 6746,
      "hombiso": 6747,
      "PU": 6748,
      "Ġkuthelekiswa": 6749,
      "Ġngeng": 6750,
      "ququ": 6751,
      "sele": 6752,
      "sijini": 6753,
      "Ġsha": 6754,
      "Ġamakhonkco": 6755,
      "tyebhetye": 6756,
      "ĠÃĹ": 6757,
      "khoboka": 6758,
      "TWD": 6759,
      "age": 6760,
      "ziso": 6761,
      "Ġar": 6762,
      "ĠSOCKS": 6763,
      "Ġencinci": 6764,
      "Ġenama": 6765,
      "khuphe": 6766,
      "Ġsabo": 6767,
      "Ġyindlela": 6768,
      "HKD": 6769,
      "KWD": 6770,
      "cina": 6771,
      "Ġnantoni": 6772,
      "Ġeyin": 6773,
      "Ġwindow": 6774,
      "londolozo": 6775,
      "YK": 6776,
      "Ġitsho": 6777,
      "ĠChi": 6778,
      "ĠNing": 6779,
      "Ġena": 6780,
      "Ġiingxoxo": 6781,
      "CDF": 6782,
      "thuthuthu": 6783,
      "julu": 6784,
      "onyama": 6785,
      "ĠUkusetyenziswa": 6786,
      "Ġamayeza": 6787,
      "Ġelifanelekileyo": 6788,
      "mvakalelo": 6789,
      "GW": 6790,
      "Ġzis": 6791,
      "Ġsp": 6792,
      "Ġenda": 6793,
      "Ġamatye": 6794,
      "catshu": 6795,
      "Ġoluphezulu": 6796,
      "Ġtest": 6797,
      "Ġzine": 6798,
      "gweba": 6799,
      "Ġkubekho": 6800,
      "Ġthermal": 6801,
      "dus": 6802,
      "Ġinkosi": 6803,
      "Ġkwimarike": 6804,
      "Ġwali": 6805,
      "ĠYin": 6806,
      "Ġiifayile": 6807,
      "khulula": 6808,
      "ĠGard": 6809,
      "phupha": 6810,
      "Ġemlonyeni": 6811,
      "Ġesikhulu": 6812,
      "coin": 6813,
      "minye": 6814,
      "xiba": 6815,
      "cturing": 6816,
      "ĠParts": 6817,
      "ĠKunye": 6818,
      "GX": 6819,
      "ZB": 6820,
      "kla": 6821,
      "kang": 6822,
      "uwa": 6823,
      "aneni": 6824,
      "iseli": 6825,
      "Ġkuso": 6826,
      "ĠComp": 6827,
      "Ġinjini": 6828,
      "Ġyezo": 6829,
      "via": 6830,
      "Ġimin": 6831,
      "GYD": 6832,
      "ĠImidlalo": 6833,
      "Ġreplace": 6834,
      "ĠGift": 6835,
      "CNY": 6836,
      "ĠUluhlu": 6837,
      "Ġnango": 6838,
      "Ġukubeka": 6839,
      "anghai": 6840,
      "Ġself": 6841,
      "ĠBaby": 6842,
      "Ġyuan": 6843,
      "Ġndibe": 6844,
      "Ġimibala": 6845,
      "Ġnibe": 6846,
      "Ġumbono": 6847,
      "BHD": 6848,
      "FJD": 6849,
      "ontelo": 6850,
      "Ġbhetyebhetye": 6851,
      "TQ": 6852,
      "md": 6853,
      "ĠIhryvnia": 6854,
      "Ġkwiint": 6855,
      "Ġnalo": 6856,
      "funi": 6857,
      "qinisa": 6858,
      "chaphazela": 6859,
      "qwe": 6860,
      "tweni": 6861,
      "ziva": 6862,
      "ĠeYiputa": 6863,
      "Ġinzuzo": 6864,
      "Ġwee": 6865,
      "Ġubudala": 6866,
      "Ġeyenza": 6867,
      "qingqiweyo": 6868,
      "Hi": 6869,
      "dap": 6870,
      "ĠAC": 6871,
      "ĠPP": 6872,
      "qhelekanga": 6873,
      "Ġukunceda": 6874,
      "hlanganisa": 6875,
      "Ġkungena": 6876,
      "lathisi": 6877,
      "Yordan": 6878,
      "Ġkwenziwa": 6879,
      "Ġyomntu": 6880,
      "tifike": 6881,
      "ngoku": 6882,
      "pati": 6883,
      "phaneli": 6884,
      "AZN": 6885,
      "VND": 6886,
      "VPN": 6887,
      "Ġauto": 6888,
      "hlambela": 6889,
      "Ġumsindo": 6890,
      "ĠkaDavide": 6891,
      "ĠZa": 6892,
      "tyeya": 6893,
      "ĠAmazinga": 6894,
      "Ġintengiso": 6895,
      "SHP": 6896,
      "kwenkwezi": 6897,
      "Ġikhowudi": 6898,
      "tsontelo": 6899,
      "khohlo": 6900,
      "dola": 6901,
      "Ġzabantu": 6902,
      "fuyo": 6903,
      "NGN": 6904,
      "ĠStandard": 6905,
      "XPF": 6906,
      "Ġethe": 6907,
      "rekho": 6908,
      "Ġiinkuni": 6909,
      "cks": 6910,
      "Ġteether": 6911,
      "Ġkubunzulu": 6912,
      "nel": 6913,
      "vele": 6914,
      "Ġembi": 6915,
      "dade": 6916,
      "ision": 6917,
      "Ġzemi": 6918,
      "Ġokukhulu": 6919,
      "landele": 6920,
      "Ġsoftware": 6921,
      "qulathe": 6922,
      "yibilika": 6923,
      "Ġfracturing": 6924,
      "ĠUkwenza": 6925,
      "Ġukholo": 6926,
      "Ġkwalenza": 6927,
      "chum": 6928,
      "Ġndiye": 6929,
      "Ġimichiza": 6930,
      "mbileyo": 6931,
      "dalwa": 6932,
      "ĠAPI": 6933,
      "ĠInfo": 6934,
      "ĠInkcazo": 6935,
      "fuziselo": 6936,
      "KGS": 6937,
      "wabhi": 6938,
      "dada": 6939,
      "Ġumonakalo": 6940,
      "Ġimitha": 6941,
      "bonakaliyo": 6942,
      "Ġngumntu": 6943,
      "Bu": 6944,
      "KMF": 6945,
      "ĠULQ": 6946,
      "ĠUYUY": 6947,
      "ĠIde": 6948,
      "yoku": 6949,
      "zinzileyo": 6950,
      "org": 6951,
      "Ġumtya": 6952,
      "Ġenom": 6953,
      "Ġezinxulumene": 6954,
      "inethi": 6955,
      "ITUY": 6956,
      "Ġneenkonzo": 6957,
      "SDG": 6958,
      "Ġeluhlaza": 6959,
      "BMD": 6960,
      "JO": 6961,
      "Ġibi": 6962,
      "khelwe": 6963,
      "dical": 6964,
      "buko": 6965,
      "entri": 6966,
      "Ġubugcisa": 6967,
      "bonakalisa": 6968,
      "Ġimbonakalo": 6969,
      "vana": 6970,
      "Ġihlala": 6971,
      "hlaleni": 6972,
      "tali": 6973,
      "hleni": 6974,
      "Ġubukumkani": 6975,
      "foma": 6976,
      "meled": 6977,
      "ARS": 6978,
      "ĠEnameled": 6979,
      "Lo": 6980,
      "gaya": 6981,
      "Ġbaphantsi": 6982,
      "Ġolunye": 6983,
      "Ġdrive": 6984,
      "phendule": 6985,
      "WST": 6986,
      "Bhodi": 6987,
      "ĠItalian": 6988,
      "Ġuhambelwano": 6989,
      "YW": 6990,
      "woku": 6991,
      "bomvu": 6992,
      "hlathi": 6993,
      "tures": 6994,
      "Ġning": 6995,
      "Ġifom": 6996,
      "Ġimbewu": 6997,
      "bekwa": 6998,
      "Ġsho": 6999,
      "Ġnenkxaso": 7000,
      "Ġeluqhuba": 7001,
      "ĠlaseYiputa": 7002,
      "khiqizo": 7003,
      "nkqubo": 7004,
      "halo": 7005,
      "loy": 7006,
      "Ġbaben": 7007,
      "proof": 7008,
      "Mowabhi": 7009,
      "GIP": 7010,
      "Ġvana": 7011,
      "Ġphandle": 7012,
      "Ġufumana": 7013,
      "gonyam": 7014,
      "Ġitha": 7015,
      "webu": 7016,
      "Ġnaman": 7017,
      "Ġezilishumi": 7018,
      "Ġisonka": 7019,
      "ĠAndi": 7020,
      "HNL": 7021,
      "xelele": 7022,
      "khund": 7023,
      "sey": 7024,
      "Ġlee": 7025,
      "bhere": 7026,
      "henyu": 7027,
      "Ġumazibuthe": 7028,
      "khundleni": 7029,
      "LX": 7030,
      "Ġesebenza": 7031,
      "Ġkwisa": 7032,
      "ĠSha": 7033,
      "gcono": 7034,
      "ĠIsiC": 7035,
      "ĠIsiT": 7036,
      "very": 7037,
      "Ġeyahlukileyo": 7038,
      "Ġzabathengi": 7039,
      "qulun": 7040,
      "EC": 7041,
      "EQ": 7042,
      "MP": 7043,
      "mori": 7044,
      "okanye": 7045,
      "lol": 7046,
      "Ġukukhula": 7047,
      "Ġyomn": 7048,
      "Ġzangaphandle": 7049,
      "ĠNceda": 7050,
      "mbasa": 7051,
      "ĠAll": 7052,
      "esuka": 7053,
      "Ġizindlu": 7054,
      "kude": 7055,
      "Ġnel": 7056,
      "Ġuthuli": 7057,
      "Ġiy": 7058,
      "Ġiindidi": 7059,
      "ĠSurface": 7060,
      "rgani": 7061,
      "GNF": 7062,
      "TJS": 7063,
      "ZAR": 7064,
      "Ġxi": 7065,
      "Ġhigh": 7066,
      "yeka": 7067,
      "Ġukuqala": 7068,
      "Ġngelaphu": 7069,
      "Ġweza": 7070,
      "Ġlwabo": 7071,
      "ceiver": 7072,
      "SZL": 7073,
      "honasi": 7074,
      "zisi": 7075,
      "Ġikha": 7076,
      "makisha": 7077,
      "Ġngamanye": 7078,
      "Ġyenziwa": 7079,
      "Ġbeza": 7080,
      "ĠNgom": 7081,
      "khiwe": 7082,
      "zeleka": 7083,
      "terior": 7084,
      "Ġokunene": 7085,
      "Ġekrwada": 7086,
      "catshulwa": 7087,
      "AFN": 7088,
      "klasi": 7089,
      "ĠUkunikezelwa": 7090,
      "Ġenokuba": 7091,
      "Ġziquka": 7092,
      "ĠGG": 7093,
      "Ġpu": 7094,
      "ĠCoaxial": 7095,
      "qinisekisi": 7096,
      "LSL": 7097,
      "kg": 7098,
      "zz": 7099,
      "Ġilo": 7100,
      "Ġsine": 7101,
      "huma": 7102,
      "ĠUmthengisi": 7103,
      "Ġiingcango": 7104,
      "gameni": 7105,
      "Ġmachining": 7106,
      "dibeneyo": 7107,
      "ALL": 7108,
      "ity": 7109,
      "lenze": 7110,
      "Ġkuthatha": 7111,
      "ĠSun": 7112,
      "umkani": 7113,
      "Ġengu": 7114,
      "KZT": 7115,
      "ĠQaphela": 7116,
      "jolise": 7117,
      "lahlwayo": 7118,
      "xande": 7119,
      "mbande": 7120,
      "Ġizimvo": 7121,
      "onike": 7122,
      "mnyango": 7123,
      "Ġ.:": 7124,
      "gquma": 7125,
      "ĠFloodlight": 7126,
      "TW": 7127,
      "play": 7128,
      "anisi": 7129,
      "ĠuMa": 7130,
      "batha": 7131,
      "ĠBase": 7132,
      "khemi": 7133,
      "hlolwa": 7134,
      "ofer": 7135,
      "Ġucinezelo": 7136,
      "Ġufunde": 7137,
      "Ġidatha": 7138,
      "omileyo": 7139,
      "Ġelihle": 7140,
      "Ġzokulwa": 7141,
      "pot": 7142,
      "Ġdis": 7143,
      "lungiselelo": 7144,
      "Ð°": 7145,
      "thel": 7146,
      "lity": 7147,
      "Ġzanga": 7148,
      "mesi": 7149,
      "Ġumnqophiso": 7150,
      "ĠUthe": 7151,
      "ĠUphawu": 7152,
      "phondo": 7153,
      "Ġkwangaphambili": 7154,
      "Ġbawa": 7155,
      "Ġyokuhlangana": 7156,
      "Ġezinama": 7157,
      "enaku": 7158,
      "Ġsayo": 7159,
      "Ġneendlela": 7160,
      "Ġdeg": 7161,
      "Ġmeko": 7162,
      "fanekiswana": 7163,
      "od": 7164,
      "swe": 7165,
      "Ġumgubo": 7166,
      "ĠFlat": 7167,
      "ĠWood": 7168,
      "Ġizithambiso": 7169,
      "bonise": 7170,
      "Ġesise": 7171,
      "dlule": 7172,
      "Ġyimi": 7173,
      "linganayo": 7174,
      "stalline": 7175,
      "ILS": 7176,
      "Xhosa": 7177,
      "bhlo": 7178,
      "uh": 7179,
      "lumk": 7180,
      "gqwesileyo": 7181,
      "irha": 7182,
      "oney": 7183,
      "ĠUnoku": 7184,
      "cebook": 7185,
      "ĠGroup": 7186,
      "zed": 7187,
      "Ġnaluphi": 7188,
      "ĠKni": 7189,
      "Ġiika": 7190,
      "Ġabatsha": 7191,
      "bhalwe": 7192,
      "Ġwent": 7193,
      "ĠNgokom": 7194,
      "Ġugcine": 7195,
      "ĠkuMoses": 7196,
      "Ġumthombo": 7197,
      "ĠamaYuda": 7198,
      "culo": 7199,
      "Ġnenkonzo": 7200,
      "ĠbukaThixo": 7201,
      "Ġiingxowa": 7202,
      "Ġubuncinane": 7203,
      "phuculwa": 7204,
      "Ġukutyabeka": 7205,
      "ĠIzinki": 7206,
      "Ġisigqibo": 7207,
      "fuphi": 7208,
      "ĠProte": 7209,
      "ISK": 7210,
      "gxininisa": 7211,
      "ltra": 7212,
      "Ġukufuma": 7213,
      "ĠUkutya": 7214,
      "Ġumlinganiselo": 7215,
      "Ġezibalulekileyo": 7216,
      "Ġmathathu": 7217,
      "Ġizincedisi": 7218,
      "ĠService": 7219,
      "KPW": 7220,
      "EK": 7221,
      "To": 7222,
      "danga": 7223,
      "wabisa": 7224,
      "Ġukuza": 7225,
      "Ġshushu": 7226,
      "Ġngale": 7227,
      "thutha": 7228,
      "Ġelithile": 7229,
      "Ġelus": 7230,
      "Ġestate": 7231,
      "Ġyesibini": 7232,
      "hlaziya": 7233,
      "ĠIileta": 7234,
      "Ġkula": 7235,
      "thutho": 7236,
      "ĠRen": 7237,
      "guqulwa": 7238,
      "bhinethi": 7239,
      "DJF": 7240,
      "Ya": 7241,
      "Ġawo": 7242,
      "luid": 7243,
      "siki": 7244,
      "ĠFit": 7245,
      "Ġenamandla": 7246,
      "Ġnolawulo": 7247,
      "Ġndizi": 7248,
      "ĠKule": 7249,
      "phuhliswa": 7250,
      "phefumla": 7251,
      "ĠShanghai": 7252,
      "vuselela": 7253,
      "lilweni": 7254,
      "phanda": 7255,
      "mbiwa": 7256,
      "funyen": 7257,
      "cambu": 7258,
      "ĠIngaba": 7259,
      "Ġemele": 7260,
      "Ġndini": 7261,
      "mfundo": 7262,
      "diphozithi": 7263,
      "khethwa": 7264,
      "Ġokuphezulu": 7265,
      "cinge": 7266,
      "thunzi": 7267,
      "Ġukwakhiwa": 7268,
      "tyatyambo": 7269,
      "Ġumprofeti": 7270,
      "Ġekufuneka": 7271,
      "ĠJohn": 7272,
      "yanisweni": 7273,
      "linganiswa": 7274,
      "ĠChain": 7275,
      "khemikhali": 7276,
      "kona": 7277,
      "Ġneli": 7278,
      "Ġkuko": 7279,
      "Ġumhlwa": 7280,
      "bulela": 7281,
      "phulo": 7282,
      "Ġelithi": 7283,
      "Ġesweni": 7284,
      "changeable": 7285,
      "Ġlwase": 7286,
      "ĠAnimal": 7287,
      "jenga": 7288,
      "sket": 7289,
      "Ġemp": 7290,
      "ĠCent": 7291,
      "Ġinyaniso": 7292,
      "mic": 7293,
      "mical": 7294,
      "Ġbar": 7295,
      "Ġbaze": 7296,
      "ĠMil": 7297,
      "Ġolunga": 7298,
      "chain": 7299,
      "tics": 7300,
      "Ġimpendulo": 7301,
      "dityaniswe": 7302,
      "ĠâĹı": 7303,
      "%,": 7304,
      "MOP": 7305,
      "ZA": 7306,
      "kishwa": 7307,
      "planga": 7308,
      "Ġ..": 7309,
      "kuku": 7310,
      "Ġiqondo": 7311,
      "Ġahlukeneyo": 7312,
      "hlunu": 7313,
      "Ġamanyathelo": 7314,
      "ĠCATV": 7315,
      "cangcazela": 7316,
      "elu": 7317,
      "endlela": 7318,
      "Ġukuphakama": 7319,
      "Ġinkunzi": 7320,
      "Ġintsebenziswano": 7321,
      "ĠyeC": 7322,
      "vak": 7323,
      "ĠMicro": 7324,
      "ĠAmeri": 7325,
      "ertifi": 7326,
      "Ġmodulator": 7327,
      "ĠKananjalo": 7328,
      "AOA": 7329,
      "ÑĤ": 7330,
      "Ġevulekileyo": 7331,
      "Ġyoluntu": 7332,
      "ĠKung": 7333,
      "tanki": 7334,
      "xhathisa": 7335,
      "chukumisa": 7336,
      "phazamise": 7337,
      "Fe": 7338,
      "HO": 7339,
      "VU": 7340,
      "Ġngobun": 7341,
      "Ġsemi": 7342,
      "ĠIiN": 7343,
      "foyile": 7344,
      "qhaphu": 7345,
      "ĠMachines": 7346,
      "CVE": 7347,
      "Ġemoyeni": 7348,
      "ĠUThixo": 7349,
      "Ġirabha": 7350,
      "Ġay": 7351,
      "Ġzona": 7352,
      "hlwele": 7353,
      "ĠInterior": 7354,
      "ĠBuilding": 7355,
      "ĠOfisi": 7356,
      "ĠbaseM": 7357,
      "Ġinwebu": 7358,
      "ĠNoko": 7359,
      "Ġwalo": 7360,
      "ĠKhu": 7361,
      "Ġyokuhlala": 7362,
      "Ġende": 7363,
      "chni": 7364,
      "Ġkumgangatho": 7365,
      "ĠStates": 7366,
      "ĠUbungakanani": 7367,
      "Ġjet": 7368,
      "Ġokwakhiwa": 7369,
      "CX": 7370,
      "GN": 7371,
      "Kanan": 7372,
      "Panasonic": 7373,
      "Ġtya": 7374,
      "ĠIbhonasi": 7375,
      "Ġnabani": 7376,
      "ray": 7377,
      "ĠGB": 7378,
      "Ġzalo": 7379,
      "lunganga": 7380,
      "bhokhwe": 7381,
      "qhubela": 7382,
      "Ġkwendawo": 7383,
      "bodi": 7384,
      "Ġinko": 7385,
      "bugcisa": 7386,
      "Ġway": 7387,
      "ĠiiPC": 7388,
      "hlon": 7389,
      "ĠHoo": 7390,
      "ĠRGB": 7391,
      "Ġyesicelo": 7392,
      "Ġemazulwini": 7393,
      "ĠuNyana": 7394,
      "IL": 7395,
      "tru": 7396,
      "Ð¸": 7397,
      "Ġumnatha": 7398,
      "ĠOonyana": 7399,
      "khuselwa": 7400,
      "Ġintlawulo": 7401,
      "layisha": 7402,
      "utput": 7403,
      "qamle": 7404,
      "magnethi": 7405,
      "PE": 7406,
      "thande": 7407,
      "dio": 7408,
      "dies": 7409,
      "yiloni": 7410,
      "cate": 7411,
      "olwazi": 7412,
      "bhalisa": 7413,
      "ekayo": 7414,
      "Ġngokobukhulu": 7415,
      "kwanda": 7416,
      "Ġireal": 7417,
      "lane": 7418,
      "Ġurhwebo": 7419,
      "thwele": 7420,
      "Ġeqinileyo": 7421,
      "Ġkuli": 7422,
      "Ġyovavanyo": 7423,
      "Ġumdla": 7424,
      "busika": 7425,
      "qakra": 7426,
      "Ġizibonelelo": 7427,
      "Ġfan": 7428,
      "Ġkomnye": 7429,
      "tywala": 7430,
      "khadibodi": 7431,
      "frayim": 7432,
      "Hxh": 7433,
      "dis": 7434,
      "Ġqua": 7435,
      "Ġegameni": 7436,
      "Ġukuli": 7437,
      "setyenz": 7438,
      "mpula": 7439,
      "ĠRus": 7440,
      "ĠUbukhulu": 7441,
      "Ġeyodwa": 7442,
      "Fran": 7443,
      "JU": 7444,
      "Sur": 7445,
      "khwele": 7446,
      "setyenziselwa": 7447,
      "ĠUkusebenzisa": 7448,
      "ĠPallet": 7449,
      "Ġyon": 7450,
      "ĠKufuneka": 7451,
      "bulawa": 7452,
      "Ġyakutya": 7453,
      "Slo": 7454,
      "ĠQSFP": 7455,
      "ziwo": 7456,
      "hambi": 7457,
      "Ġaza": 7458,
      "Ġinaliti": 7459,
      "ĠKina": 7460,
      "Ġshi": 7461,
      "Ġmsebenzi": 7462,
      "Ġmoya": 7463,
      "ĠWall": 7464,
      "hlelo": 7465,
      "yuan": 7466,
      "ĠWaphendula": 7467,
      "ondlo": 7468,
      "ĠÂ·": 7469,
      "tyhini": 7470,
      "Ġtyaba": 7471,
      "Roma": 7472,
      "Ġkufanelekile": 7473,
      "Ġukungena": 7474,
      "tation": 7475,
      "Ġzebanga": 7476,
      "hlenga": 7477,
      "elelweni": 7478,
      "ĠStones": 7479,
      "sindisa": 7480,
      "ĠNingbo": 7481,
      "entrifu": 7482,
      "Ġngokutsha": 7483,
      "Ġisithunywa": 7484,
      "Ġbun": 7485,
      "yulwa": 7486,
      "ĠCofa": 7487,
      "Ġkwindlela": 7488,
      "ĠIinkonzo": 7489,
      "MKD": 7490,
      "ouble": 7491,
      "inery": 7492,
      "United": 7493,
      "BB": 7494,
      "HW": 7495,
      "elwimi": 7496,
      "Ġekwen": 7497,
      "phun": 7498,
      "andulu": 7499,
      "vie": 7500,
      "Ġngumfanekiswana": 7501,
      "mka": 7502,
      "wing": 7503,
      "zh": 7504,
      "Ġilungele": 7505,
      "yolo": 7506,
      "Ġair": 7507,
      "Ġnaliphi": 7508,
      "Ġsmd": 7509,
      "Ġezitshisayo": 7510,
      "bhoni": 7511,
      "bhedi": 7512,
      "ukumkani": 7513,
      "linda": 7514,
      "xil": 7515,
      "Ġeze": 7516,
      "isebenzayo": 7517,
      "Ġoptical": 7518,
      "yulu": 7519,
      "ĠuK": 7520,
      "Ġesetyenziswa": 7521,
      "Ġkunzima": 7522,
      "konga": 7523,
      "ĠIinkqubo": 7524,
      "thintelo": 7525,
      "lwenziwo": 7526,
      "ĠInga": 7527,
      "yameni": 7528,
      "chaneka": 7529,
      "HU": 7530,
      "lana": 7531,
      "zekeliso": 7532,
      "ĠkaSi": 7533,
      "bhen": 7534,
      "khondo": 7535,
      "bility": 7536,
      "licone": 7537,
      "ĠLokulinganisa": 7538,
      "venia": 7539,
      "ĠBelt": 7540,
      "Ġelectro": 7541,
      "Ġiikawusi": 7542,
      "Ġeluswini": 7543,
      "VO": 7544,
      "Vi": 7545,
      "bes": 7546,
      "bri": 7547,
      "yiyo": 7548,
      "ĠArt": 7549,
      "Ġcro": 7550,
      "Ġfeed": 7551,
      "ohm": 7552,
      "lolonga": 7553,
      "bakho": 7554,
      "Ġiho": 7555,
      "Ġibhu": 7556,
      "tshona": 7557,
      "Ġkwint": 7558,
      "ĠDB": 7559,
      "khefu": 7560,
      "Ġisiqinisekiso": 7561,
      "Ġimidlalo": 7562,
      "ĠEkubeni": 7563,
      "ĠAbantwana": 7564,
      "docum": 7565,
      "rhumo": 7566,
      "Ġkakubi": 7567,
      "Ġayikho": 7568,
      "PYG": 7569,
      "qaqawuli": 7570,
      "Ġezisixhenxe": 7571,
      "arhente": 7572,
      "HQ": 7573,
      "Ġubone": 7574,
      "iseleyo": 7575,
      "Ġukuku": 7576,
      "Ġinqanaba": 7577,
      "ĠwakwaYuda": 7578,
      "ĠLwe": 7579,
      "Ġkamva": 7580,
      "soft": 7581,
      "Ġzokuhamba": 7582,
      "gqityi": 7583,
      "Ġwokudla": 7584,
      "XAG": 7585,
      "banika": 7586,
      "joliswe": 7587,
      "Ġikhadibhodi": 7588,
      "Al": 7589,
      "DN": 7590,
      "Po": 7591,
      "ju": 7592,
      "Ġkuluhlu": 7593,
      "Ġkwilizwe": 7594,
      "Ġkwase": 7595,
      "Ġbabantu": 7596,
      "Ġmane": 7597,
      "Ġubuhle": 7598,
      "gosa": 7599,
      "ĠUbubanzi": 7600,
      "PGK": 7601,
      "Um": 7602,
      "ambu": 7603,
      "ffe": 7604,
      "ĠeYurophu": 7605,
      "Ġkusasa": 7606,
      "Ġukuthatha": 7607,
      "Ġothe": 7608,
      "bopha": 7609,
      "ĠStor": 7610,
      "keka": 7611,
      "door": 7612,
      "Ġamagwebu": 7613,
      "ĠTri": 7614,
      "Ġnokusetyenziswa": 7615,
      "onia": 7616,
      "khulisa": 7617,
      "godi": 7618,
      "guqukayo": 7619,
      "kwere": 7620,
      "jamin": 7621,
      "national": 7622,
      "qinisekise": 7623,
      "jongene": 7624,
      "DQ": 7625,
      "RM": 7626,
      "ring": 7627,
      "ste": 7628,
      "sungu": 7629,
      "Ġibonisa": 7630,
      "Ġinceba": 7631,
      "ores": 7632,
      "ĠPlate": 7633,
      "Ġezibonakalayo": 7634,
      "tulo": 7635,
      "Ġngemini": 7636,
      "DS": 7637,
      "Ġngam": 7638,
      "roid": 7639,
      "Ġline": 7640,
      "heel": 7641,
      "khuba": 7642,
      "Ġyiyo": 7643,
      "Ġabana": 7644,
      "ĠNase": 7645,
      "Ġngamaxesha": 7646,
      "ĠMarine": 7647,
      "CW": 7648,
      "IA": 7649,
      "mfuno": 7650,
      "layer": 7651,
      "Ġzihlala": 7652,
      "qalo": 7653,
      "Ġngokoku": 7654,
      "vulwa": 7655,
      "ĠnoMthengisi": 7656,
      "documents": 7657,
      "hon": 7658,
      "enesis": 7659,
      "Ġkuyimfuneko": 7660,
      "kazana": 7661,
      "Ġkunceda": 7662,
      "Ġngasentla": 7663,
      "chan": 7664,
      "eters": 7665,
      "mbeko": 7666,
      "cwadana": 7667,
      "LK": 7668,
      "des": 7669,
      "Ġima": 7670,
      "Ġngon": 7671,
      "Ġwahlala": 7672,
      "Ġeziphilayo": 7673,
      "ĠYS": 7674,
      "ĠYing": 7675,
      "ĠOut": 7676,
      "ĠJin": 7677,
      "Ġesemgangathweni": 7678,
      "lelweyo": 7679,
      "fenitshala": 7680,
      "Ġfilter": 7681,
      "ĠBitcoin": 7682,
      "Ġimodeli": 7683,
      "Ġoza": 7684,
      "ĠUkususela": 7685,
      "bei": 7686,
      "Ġyesekethe": 7687,
      "Ġlingu": 7688,
      "Ġyengqondo": 7689,
      "Ġnoyilo": 7690,
      "Ġlokung": 7691,
      "rentshi": 7692,
      "ĠLowo": 7693,
      "Ġemibini": 7694,
      "ustry": 7695,
      "ÐµÐ": 7696,
      "Frentshi": 7697,
      "stile": 7698,
      "Ġilaphu": 7699,
      "thung": 7700,
      "lika": 7701,
      "cebisa": 7702,
      "kqubela": 7703,
      "Ġnomoya": 7704,
      "Ġyangaphakathi": 7705,
      "ĠOpen": 7706,
      "gubungela": 7707,
      "siseko": 7708,
      "Ġigalelo": 7709,
      "diza": 7710,
      "Ġbafuna": 7711,
      "ĠPri": 7712,
      "vimba": 7713,
      "entlobo": 7714,
      "Ġnendlu": 7715,
      "Ġkungabikho": 7716,
      "sindiso": 7717,
      "Ġikho": 7718,
      "Ġihe": 7719,
      "zekileyo": 7720,
      "Ġbawo": 7721,
      "Ġnobomi": 7722,
      "Ġizithuthi": 7723,
      "Ġnomn": 7724,
      "ĠFast": 7725,
      "Ġnemilo": 7726,
      "ĠIngcinezelo": 7727,
      "ĠUninzi": 7728,
      "qondweni": 7729,
      "ĠGarden": 7730,
      "Ġnonke": 7731,
      "Ġafe": 7732,
      "Ġyoyilo": 7733,
      "round": 7734,
      "hlisa": 7735,
      "Ġbang": 7736,
      "Ġsize": 7737,
      "Ġubuninzi": 7738,
      "Ġisampuli": 7739,
      "thelayo": 7740,
      "qhagamshelana": 7741,
      "Rashiya": 7742,
      "Bhenjamin": 7743,
      "Ġve": 7744,
      "kube": 7745,
      "Ġndlu": 7746,
      "Ġzenziwe": 7747,
      "tyelela": 7748,
      "Ġabakhonzi": 7749,
      "khawu": 7750,
      "Isaya": 7751,
      "eringi": 7752,
      "RQ": 7753,
      "Ġuxolo": 7754,
      "Ġuthotho": 7755,
      "ĠIqela": 7756,
      "mbonakalo": 7757,
      "Ġumzalwana": 7758,
      "ĠwakwaSirayeli": 7759,
      "Ġezimashumi": 7760,
      "ĠNgubani": 7761,
      "amuweli": 7762,
      "mbisa": 7763,
      "anase": 7764,
      "ĠloM": 7765,
      "chen": 7766,
      "requ": 7767,
      "Ġiinjongo": 7768,
      "tsiba": 7769,
      "Ġelwandle": 7770,
      "kiswe": 7771,
      "hlanjulu": 7772,
      "ĠUnit": 7773,
      "ngenisa": 7774,
      "Ġngokusekelwe": 7775,
      "SU": 7776,
      "bin": 7777,
      "teni": 7778,
      "ĠUPS": 7779,
      "Ġiva": 7780,
      "ĠEdge": 7781,
      "suke": 7782,
      "Ġngentsontelo": 7783,
      "ĠXing": 7784,
      "Ġengcwele": 7785,
      "puma": 7786,
      "panish": 7787,
      "lobal": 7788,
      "LM": 7789,
      "PO": 7790,
      "lash": 7791,
      "Ġile": 7792,
      "phy": 7793,
      "ĠSex": 7794,
      "ĠCol": 7795,
      "woofer": 7796,
      "ĠOil": 7797,
      "Ġcut": 7798,
      "Ġiziqhamo": 7799,
      "ciphe": 7800,
      "witter": 7801,
      "Ġolutsha": 7802,
      "Ġiplastiki": 7803,
      "Ġyomzimba": 7804,
      "ĠRubber": 7805,
      "ĠQuality": 7806,
      "Ġobung": 7807,
      "Ġchain": 7808,
      "Theng": 7809,
      "JW": 7810,
      "Ġia": 7811,
      "Ġukulungisa": 7812,
      "ĠSheet": 7813,
      "Ġyemisonto": 7814,
      "chani": 7815,
      "Ġcrimp": 7816,
      "fuman": 7817,
      "Ġezongezelelweyo": 7818,
      "zibulo": 7819,
      "cakaza": 7820,
      "kangeleko": 7821,
      "RO": 7822,
      "bs": 7823,
      "ĠiB": 7824,
      "ĠiS": 7825,
      "ĠIN": 7826,
      "wari": 7827,
      "Ġkwigumbi": 7828,
      "Ġkwathiwa": 7829,
      "Ġyathi": 7830,
      "ĠPsal": 7831,
      "Ġmanu": 7832,
      "tyha": 7833,
      "Ġbobu": 7834,
      "Ġnangenxa": 7835,
      "ĠHouse": 7836,
      "ĠKnitting": 7837,
      "rome": 7838,
      "Ġime": 7839,
      "Ġumdlalo": 7840,
      "ĠOkanye": 7841,
      "Ġnangoko": 7842,
      "Ġprodu": 7843,
      "ĠlikaThixo": 7844,
      "volta": 7845,
      "Asiriya": 7846,
      "Tu": 7847,
      "ny": 7848,
      "sine": 7849,
      "ĠUmn": 7850,
      "inter": 7851,
      "lare": 7852,
      "Ġkudla": 7853,
      "ĠSquare": 7854,
      "Ġneem": 7855,
      "qulo": 7856,
      "Ġmesh": 7857,
      "Ġabakhulu": 7858,
      "Ġnokuzi": 7859,
      "Ġnakuba": 7860,
      "Japan": 7861,
      "ĠIiNdumiso": 7862,
      "ĠPsalms": 7863,
      "HF": 7864,
      "JK": 7865,
      "Ġivenkile": 7866,
      "set": 7867,
      "mibala": 7868,
      "Ġbalo": 7869,
      "tol": 7870,
      "Ġyasimahla": 7871,
      "Ġiipa": 7872,
      "Ġelun": 7873,
      "khutsh": 7874,
      "Ġnithi": 7875,
      "Ġbobabini": 7876,
      "thathaka": 7877,
      "zonwabisa": 7878,
      "chumiso": 7879,
      "kri": 7880,
      "thana": 7881,
      "limo": 7882,
      "Ġukugcinwa": 7883,
      "Ġumgaqo": 7884,
      "Ġlisithi": 7885,
      "Ġmin": 7886,
      "Ġminyaka": 7887,
      "tyiswe": 7888,
      "Ġngegolide": 7889,
      "Ġezincinci": 7890,
      "ppers": 7891,
      "Ġnithe": 7892,
      "Ġikuvumela": 7893,
      "Ġomabini": 7894,
      "undu": 7895,
      "Ġyamandla": 7896,
      "deka": 7897,
      "ngu": 7898,
      "Ġengen": 7899,
      "tory": 7900,
      "Ġengaphezu": 7901,
      "sendle": 7902,
      "oksijini": 7903,
      "ĠOkwangoku": 7904,
      "CK": 7905,
      "zelela": 7906,
      "Ġuqeqesho": 7907,
      "Ġigu": 7908,
      "thandi": 7909,
      "ĠSelf": 7910,
      "betho": 7911,
      "khokela": 7912,
      "casa": 7913,
      "Ġkarhulumente": 7914,
      "Ġlokusila": 7915,
      "SRG": 7916,
      "tshabalalisa": 7917,
      "DO": 7918,
      "kq": 7919,
      "Ġup": 7920,
      "bakala": 7921,
      "Ġkus": 7922,
      "ĠAluminium": 7923,
      "buyele": 7924,
      "gnetic": 7925,
      "DB": 7926,
      "setyhini": 7927,
      "mbona": 7928,
      "ĠUkusuka": 7929,
      "ora": 7930,
      "Ġubudlelwane": 7931,
      "Ġzokun": 7932,
      "ĠCamera": 7933,
      "Ġnendawo": 7934,
      "rubber": 7935,
      "vumi": 7936,
      "ĠNgokutsho": 7937,
      "ĠDisplay": 7938,
      "daptha": 7939,
      "qine": 7940,
      "ĠuMoya": 7941,
      "balo": 7942,
      "Ġiyi": 7943,
      "lid": 7944,
      "andula": 7945,
      "ĠBri": 7946,
      "Ġbako": 7947,
      "Ġmga": 7948,
      "Ġzezulu": 7949,
      "hefu": 7950,
      "Ġiinxalenye": 7951,
      "gqirha": 7952,
      "mncwa": 7953,
      "gqitywa": 7954,
      "gnet": 7955,
      "requency": 7956,
      "uka": 7957,
      "Ġhle": 7958,
      "Ġethi": 7959,
      "habhi": 7960,
      "Ġukuyisebenzisa": 7961,
      "Ġemkho": 7962,
      "Ġnomsebenzi": 7963,
      "Ġunikezelo": 7964,
      "qulethe": 7965,
      "Ġhleze": 7966,
      "beng": 7967,
      "ĠUV": 7968,
      "Ġkwada": 7969,
      "Ġyeplastiki": 7970,
      "tyhu": 7971,
      "fayibha": 7972,
      "Ġwork": 7973,
      "Ġmaba": 7974,
      "Ġimizuzu": 7975,
      "ĠIsiK": 7976,
      "Ġesikhundleni": 7977,
      "ĠMachinery": 7978,
      "chanical": 7979,
      "uzo": 7980,
      "Ġubani": 7981,
      "lahla": 7982,
      "Ġstyle": 7983,
      "rigin": 7984,
      "xuba": 7985,
      "kwand": 7986,
      "ĠuSolomon": 7987,
      "ceivers": 7988,
      "Ġukuni": 7989,
      "khokelwa": 7990,
      "Ġezilahlwayo": 7991,
      "Ġekum": 7992,
      "Ġibekwe": 7993,
      "ylene": 7994,
      "ĠNgokomzekelo": 7995,
      "ĠProtection": 7996,
      "Isi": 7997,
      "LU": 7998,
      "bindi": 7999,
      "å¤": 8000,
      "Ġuhlala": 8001,
      "ĠkuM": 8002,
      "khandlela": 8003,
      "Ġukukhetha": 8004,
      "Ġwaphosa": 8005,
      "Ġngawe": 8006,
      "fung": 8007,
      "Ġkwesa": 8008,
      "Ġunxibelelwano": 8009,
      "enzuzo": 8010,
      "Ġimigca": 8011,
      "Ġoff": 8012,
      "Ġamane": 8013,
      "lungiselelweyo": 8014,
      "Ġkangangoko": 8015,
      "Ġiibheringi": 8016,
      "Ġcross": 8017,
      "JQ": 8018,
      "Ġphi": 8019,
      "Ġuhlanga": 8020,
      "ĠIya": 8021,
      "Ġukuthembeka": 8022,
      "thileyo": 8023,
      "Ġinsimbi": 8024,
      "angzhou": 8025,
      "Ġngefoyile": 8026,
      "mozulu": 8027,
      "zuza": 8028,
      "bingelelweni": 8029,
      "Ġhydraulic": 8030,
      "Ġimpi": 8031,
      "ĠRussian": 8032,
      "hlengahl": 8033,
      "AC": 8034,
      "DK": 8035,
      "elene": 8036,
      "ĠuH": 8037,
      "isiseko": 8038,
      "Ġkusebenza": 8039,
      "mation": 8040,
      "lusi": 8041,
      "Ġngokuchanekileyo": 8042,
      "gqwe": 8043,
      "endly": 8044,
      "Ġandiyi": 8045,
      "gonyamelo": 8046,
      "len": 8047,
      "yelwa": 8048,
      "elung": 8049,
      "Ġabu": 8050,
      "Ġoli": 8051,
      "Ġyokhuseleko": 8052,
      "Ġezimbi": 8053,
      "pholi": 8054,
      "bheham": 8055,
      "ĠMedical": 8056,
      "Ġezintlanu": 8057,
      "ĠFitness": 8058,
      "Ama": 8059,
      "SF": 8060,
      "lenga": 8061,
      "Ġvi": 8062,
      "yala": 8063,
      "Ġukuphumeza": 8064,
      "Ġol": 8065,
      "Ġino": 8066,
      "Ġintshukumo": 8067,
      "dam": 8068,
      "Ġsmart": 8069,
      "Ġyokugqibela": 8070,
      "bhal": 8071,
      "Ġisetyenziselwa": 8072,
      "website": 8073,
      "phakheji": 8074,
      "ĠSexy": 8075,
      "HM": 8076,
      "hulumente": 8077,
      "Ġee": 8078,
      "Ġega": 8079,
      "ĠkuY": 8080,
      "Ġkumn": 8081,
      "Ġbathe": 8082,
      "Ġnobushushu": 8083,
      "Ġlween": 8084,
      "hlutha": 8085,
      "sombulula": 8086,
      "Ġakuna": 8087,
      "Ġâĸ": 8088,
      "esile": 8089,
      "Ġmobile": 8090,
      "ĠManual": 8091,
      "crystalline": 8092,
      "bumnyama": 8093,
      "Phu": 8094,
      "Te": 8095,
      "vani": 8096,
      "inise": 8097,
      "Ġukucinga": 8098,
      "Ġnakwa": 8099,
      "Ġbasi": 8100,
      "Ġlisetyenziswa": 8101,
      "Ġamathuba": 8102,
      "Ġnokhuseleko": 8103,
      "Ġcream": 8104,
      "guquka": 8105,
      "qinelana": 8106,
      "bhek": 8107,
      "Ġndaba": 8108,
      "khanyayo": 8109,
      "Ġngomnyaka": 8110,
      "TP": 8111,
      "Ġiga": 8112,
      "phina": 8113,
      "Ġzelanga": 8114,
      "ĠNan": 8115,
      "ĠElungiselelweyo": 8116,
      "Ġmar": 8117,
      "Ġneemveliso": 8118,
      "Ġanoku": 8119,
      "ĠMobile": 8120,
      "khululekileyo": 8121,
      "Ġongena": 8122,
      "ĠEquipment": 8123,
      "JM": 8124,
      "kre": 8125,
      "Ġike": 8126,
      "unya": 8127,
      "rical": 8128,
      "phephe": 8129,
      "hliso": 8130,
      "khawulo": 8131,
      "ekawusi": 8132,
      "ĠNgaloo": 8133,
      "Ġisetyenziswe": 8134,
      "endeleko": 8135,
      "Ġizisombululo": 8136,
      "qamlezo": 8137,
      "fezekisa": 8138,
      "ĠKeychain": 8139,
      "ĠkaSipho": 8140,
      "layi": 8141,
      "thon": 8142,
      "mbingeleli": 8143,
      "Ġamaziko": 8144,
      "tyhubhu": 8145,
      "ĠDouble": 8146,
      "ĠInani": 8147,
      "manani": 8148,
      "Ġyile": 8149,
      "ĠWeb": 8150,
      "IF": 8151,
      "LF": 8152,
      "tin": 8153,
      "Ġaben": 8154,
      "Ġukujonga": 8155,
      "Ġnakwe": 8156,
      "Ġnawuphi": 8157,
      "ĠAsi": 8158,
      "xabise": 8159,
      "coo": 8160,
      "ĠZUOY": 8161,
      "bhiya": 8162,
      "ĠYaye": 8163,
      "cence": 8164,
      "ĠAbanye": 8165,
      "Ġyesinyithi": 8166,
      "Ġlokusingqongileyo": 8167,
      "Ġzokugcina": 8168,
      "rhamncwa": 8169,
      "jongana": 8170,
      "tsebenzo": 8171,
      "ĠPhantsi": 8172,
      "CF": 8173,
      "HX": 8174,
      "tini": 8175,
      "elise": 8176,
      "Ġikrele": 8177,
      "ĠeTshayina": 8178,
      "Ġothile": 8179,
      "bophel": 8180,
      "ĠClo": 8181,
      "ompa": 8182,
      "Ġeziphakamileyo": 8183,
      "Ġyanamhlanje": 8184,
      "Ġoluthambileyo": 8185,
      "ĠWaba": 8186,
      "ĠStadium": 8187,
      "ĠUbude": 8188,
      "qwalasela": 8189,
      "zani": 8190,
      "tsu": 8191,
      "Ġor": 8192,
      "undo": 8193,
      "ĠChe": 8194,
      "ĠPcb": 8195,
      "Ġiividiyo": 8196,
      "qabane": 8197,
      "hezulu": 8198,
      "ĠHand": 8199,
      "Ġblue": 8200,
      "hlulayo": 8201,
      "Ġndithe": 8202,
      "yuke": 8203,
      "Ġflow": 8204,
      "Ġengum": 8205,
      "ongoma": 8206,
      "cwadini": 8207,
      "Ġkancinci": 8208,
      "Ġidilesi": 8209,
      "PM": 8210,
      "Ġuy": 8211,
      "Ġkuxhomekeke": 8212,
      "Ġsini": 8213,
      "Ġyekhasino": 8214,
      "ĠZo": 8215,
      "ĠOo": 8216,
      "ishing": 8217,
      "ĠIsikhumba": 8218,
      "Ġnakuma": 8219,
      "qaqambileyo": 8220,
      "VM": 8221,
      "elli": 8222,
      "Ġilingana": 8223,
      "thendeleko": 8224,
      "Ġukuse": 8225,
      "Ġezikhethekileyo": 8226,
      "many": 8227,
      "enteni": 8228,
      "Ġimiyalelo": 8229,
      "Ġimibhobho": 8230,
      "tsalela": 8231,
      "blo": 8232,
      "zy": 8233,
      "lim": 8234,
      "Ġawun": 8235,
      "Ġobushushu": 8236,
      "Ġindima": 8237,
      "Ġlomntu": 8238,
      "Ġmfuneko": 8239,
      "Ġezelwe": 8240,
      "xhaswa": 8241,
      "sukuba": 8242,
      "form": 8243,
      "And": 8244,
      "AA": 8245,
      "Ġuwa": 8246,
      "Ġuthando": 8247,
      "ĠiC": 8248,
      "Ġukuthenga": 8249,
      "ĠUkugqiba": 8250,
      "ĠCertifi": 8251,
      "alta": 8252,
      "Ġamaqela": 8253,
      "Ġkweekawusi": 8254,
      "gumbini": 8255,
      "Ġisitya": 8256,
      "ĠUYIB": 8257,
      "Ġiinyawo": 8258,
      "andathu": 8259,
      "Ġekusebenz": 8260,
      "Ġsakwa": 8261,
      "ĠwaseBhabheli": 8262,
      "ileni": 8263,
      "Ġkwinto": 8264,
      "Ġamanani": 8265,
      "cwane": 8266,
      "Ġngent": 8267,
      "unyiwe": 8268,
      "elivery": 8269,
      "mbatho": 8270,
      "Ġyezinto": 8271,
      "kundla": 8272,
      "Ġemithathu": 8273,
      "Ġuluntu": 8274,
      "cacisa": 8275,
      "khuselekile": 8276,
      "yaniseka": 8277,
      "Ġquality": 8278,
      "SQ": 8279,
      "VQ": 8280,
      "Ġufake": 8281,
      "Ġukuthanda": 8282,
      "ĠCard": 8283,
      "Ġnezo": 8284,
      "Ġyesa": 8285,
      "rose": 8286,
      "ribhoni": 8287,
      "Ġamalaphu": 8288,
      "ĠTile": 8289,
      "Ġabadala": 8290,
      "Ġngohlobo": 8291,
      "Ġnokwenza": 8292,
      "Ġkoomatshini": 8293,
      "xhoba": 8294,
      "ĠNgexesha": 8295,
      "xide": 8296,
      "khuthazwa": 8297,
      "vy": 8298,
      "ws": 8299,
      "Ġkuwa": 8300,
      "lorho": 8301,
      "Ġindebe": 8302,
      "Ġnokuphucula": 8303,
      "Ġmahlanu": 8304,
      "phiko": 8305,
      "pusi": 8306,
      "xhala": 8307,
      "eration": 8308,
      "jikelezayo": 8309,
      "Isake": 8310,
      "suntswana": 8311,
      "Qu": 8312,
      "SW": 8313,
      "VN": 8314,
      "Ġ<": 8315,
      "Ġilahle": 8316,
      "zixhobo": 8317,
      "Ġashushu": 8318,
      "Ġoutput": 8319,
      "Ġenu": 8320,
      "ĠYYZUY": 8321,
      "Ġezinge": 8322,
      "Ġlesono": 8323,
      "ĠUmshini": 8324,
      "Ġelektroniki": 8325,
      "Ġkwiziko": 8326,
      "ĠPart": 8327,
      "lungelelanisa": 8328,
      "Ke": 8329,
      "Windows": 8330,
      "kudala": 8331,
      "ĠiM": 8332,
      "Ġyobomi": 8333,
      "ĠFin": 8334,
      "Ġyini": 8335,
      "Ġziyi": 8336,
      "Ġezino": 8337,
      "phakadeni": 8338,
      "Ġmayi": 8339,
      "ĠwoM": 8340,
      "ĠuYakobi": 8341,
      "amond": 8342,
      "Ġprofessional": 8343,
      "denge": 8344,
      "miso": 8345,
      "nea": 8346,
      "vile": 8347,
      "ĠUYo": 8348,
      "velise": 8349,
      "Ġsiyi": 8350,
      "Ġlube": 8351,
      "trogen": 8352,
      "Ziyon": 8353,
      "JT": 8354,
      "dan": 8355,
      "ick": 8356,
      "ans": 8357,
      "Ġulwa": 8358,
      "Ġumsi": 8359,
      "Ġswi": 8360,
      "Ġisilawuli": 8361,
      "Ġlemveliso": 8362,
      "Ġwandi": 8363,
      "Ġzooyise": 8364,
      "Ġwoba": 8365,
      "Ġyasekwa": 8366,
      "Ġngomthi": 8367,
      "Ġkwiimeko": 8368,
      "yenzayo": 8369,
      "tempileni": 8370,
      "Ġyedijithali": 8371,
      "cele": 8372,
      "àµ": 8373,
      "ï¸": 8374,
      "ĠUlwenziwo": 8375,
      "Ġukukhuthaza": 8376,
      "Ġkwangoko": 8377,
      "hokisi": 8378,
      "ululo": 8379,
      "ĠYesu": 8380,
      "Ġngenkonzo": 8381,
      "Ġsethu": 8382,
      "khule": 8383,
      "ĠLights": 8384,
      "ĠIzipho": 8385,
      "Hosting": 8386,
      "gqabi": 8387,
      "Ġsuper": 8388,
      "limation": 8389,
      "funyenwe": 8390,
      "Surinam": 8391,
      "ĠNaseSurinam": 8392,
      "DG": 8393,
      "SOLASOLV": 8394,
      "fini": 8395,
      "kukho": 8396,
      "kuhlaleni": 8397,
      "Ġebanzi": 8398,
      "Ġukuqhuba": 8399,
      "Ġukulungiselela": 8400,
      "phanga": 8401,
      "kosini": 8402,
      "ĠBlog": 8403,
      "Ġspeed": 8404,
      "ĠAka": 8405,
      "Ġeziza": 8406,
      "ĠMing": 8407,
      "wotshi": 8408,
      "Ġababa": 8409,
      "qaphele": 8410,
      "Ġzazi": 8411,
      "ĠWaza": 8412,
      "bheka": 8413,
      "ĠShenzhen": 8414,
      "londoloza": 8415,
      "selwandle": 8416,
      "ambuzane": 8417,
      "RW": 8418,
      "Ziko": 8419,
      "mkhawulo": 8420,
      "ĠuSawule": 8421,
      "ĠkuA": 8422,
      "Ġwamanzi": 8423,
      "ĠneZi": 8424,
      "ĠMc": 8425,
      "ĠYini": 8426,
      "ongwa": 8427,
      "Ġmazwi": 8428,
      "UMUY": 8429,
      "Ġkumashishini": 8430,
      "Ġabemi": 8431,
      "chweph": 8432,
      "qhagamshelwano": 8433,
      "sondeza": 8434,
      "peyinti": 8435,
      "QYS": 8436,
      "ation": 8437,
      "kin": 8438,
      "Ġyokudlala": 8439,
      "banjwa": 8440,
      "ĠWindows": 8441,
      "Ġwokuba": 8442,
      "hlulwa": 8443,
      "ĠIsicelo": 8444,
      "ĠHook": 8445,
      "xela": 8446,
      "hazi": 8447,
      "pheni": 8448,
      "Ġkwana": 8449,
      "Ġinene": 8450,
      "Ġumgama": 8451,
      "xamnye": 8452,
      "Ġelitsha": 8453,
      "Ġbume": 8454,
      "kiwe": 8455,
      "ĠInene": 8456,
      "bhaliso": 8457,
      "shor": 8458,
      "dware": 8459,
      "Ġone": 8460,
      "Ġzokudlala": 8461,
      "DW": 8462,
      "ning": 8463,
      "tombazana": 8464,
      "Ġukongeza": 8465,
      "Ġif": 8466,
      "Ġinyathelo": 8467,
      "ĠMen": 8468,
      "Ġababoneleli": 8469,
      "qokel": 8470,
      "Ġnabazalwana": 8471,
      "Ġkuthiwa": 8472,
      "ĠStar": 8473,
      "ĠsikaYehova": 8474,
      "ĠuPawulos": 8475,
      "bhinqise": 8476,
      "qakraza": 8477,
      "ï¸İ": 8478,
      "RX": 8479,
      "Ġegqibeleleyo": 8480,
      "Ġukubamba": 8481,
      "thenge": 8482,
      "Ġlokuthile": 8483,
      "pace": 8484,
      "ĠUmthambo": 8485,
      "Ġakubon": 8486,
      "Ġkumphezulu": 8487,
      "tshiphu": 8488,
      "sebenzisana": 8489,
      "linganisela": 8490,
      "Ġngokwakhe": 8491,
      "ĠRese": 8492,
      "Ġsingaba": 8493,
      "Ġumngxuma": 8494,
      "chwephesha": 8495,
      "Efrayim": 8496,
      "lapho": 8497,
      "Ġiti": 8498,
      "Ġipro": 8499,
      "Ġofuna": 8500,
      "bumbela": 8501,
      "Ġisiphelo": 8502,
      "ury": 8503,
      "Ġliphela": 8504,
      "kwenyani": 8505,
      "KUYH": 8506,
      "bhekis": 8507,
      "hlukana": 8508,
      "Ġbendi": 8509,
      "domain": 8510,
      "%.": 8511,
      "HB": 8512,
      "VE": 8513,
      "wisa": 8514,
      "Ġisebenze": 8515,
      "Ġucango": 8516,
      "Ġifowuni": 8517,
      "ĠiBhayibhile": 8518,
      "ĠIcwangcisa": 8519,
      "Ġkuphuma": 8520,
      "Ġalo": 8521,
      "Ġbazalwana": 8522,
      "Ġnempahla": 8523,
      "iselele": 8524,
      "ĠMaka": 8525,
      "Ġiseli": 8526,
      "ĠNgaphezu": 8527,
      "XAF": 8528,
      "enkce": 8529,
      "Khus": 8530,
      "DU": 8531,
      "Ng": 8532,
      "TUY": 8533,
      "bale": 8534,
      "thing": 8535,
      "Ġukuhla": 8536,
      "Ġukuxhasa": 8537,
      "seyile": 8538,
      "ĠUkusonga": 8539,
      "Ġabazalwana": 8540,
      "ĠWar": 8541,
      "Ġimigangatho": 8542,
      "Ġubulungisa": 8543,
      "paci": 8544,
      "Ġkukunceda": 8545,
      "nikezela": 8546,
      "Ġanamanci": 8547,
      "khwama": 8548,
      "ĠKhawuwa": 8549,
      "Ġmanual": 8550,
      "AI": 8551,
      "Ġnin": 8552,
      "Ġuhleli": 8553,
      "Ġkwengqondo": 8554,
      "ĠSin": 8555,
      "ĠCompo": 8556,
      "Ġnemisebenzi": 8557,
      "bhalwa": 8558,
      "Ġbemi": 8559,
      "xhotyiswe": 8560,
      "postile": 8561,
      "tshiweyo": 8562,
      "rhente": 8563,
      "Ġsokun": 8564,
      "Ġngokwayo": 8565,
      "mkelekile": 8566,
      "anyange": 8567,
      "ĠndinguYehova": 8568,
      "HK": 8569,
      "Ġinkcazelo": 8570,
      "khasi": 8571,
      "Ġnokugcinwa": 8572,
      "shan": 8573,
      "ibhe": 8574,
      "eap": 8575,
      "Ġnobukhulu": 8576,
      "ĠLighting": 8577,
      "fesane": 8578,
      "Ġtop": 8579,
      "Ġuqhagamshelwano": 8580,
      "ĠHebei": 8581,
      "RU": 8582,
      "mina": 8583,
      "Ġiphela": 8584,
      "Ġkufuna": 8585,
      "Ġmet": 8586,
      "ĠTshin": 8587,
      "ĠZXXUY": 8588,
      "Ġizilwanyana": 8589,
      "sukela": 8590,
      "yuse": 8591,
      "Ġluka": 8592,
      "ĠSupply": 8593,
      "ĠAbathengisi": 8594,
      "ĠYabonani": 8595,
      "ĠPiece": 8596,
      "xhomekeka": 8597,
      "Ġebomvu": 8598,
      "Ġunayo": 8599,
      "ĠRolling": 8600,
      "shorensi": 8601,
      ";+": 8602,
      "Kr": 8603,
      "Nyana": 8604,
      "cti": 8605,
      "xan": 8606,
      "Ġchi": 8607,
      "mbelela": 8608,
      "Ġyobun": 8609,
      "Ġume": 8610,
      "Ġiimilo": 8611,
      "gudu": 8612,
      "Ġubugwenxa": 8613,
      "YYS": 8614,
      "enzeke": 8615,
      "Ġngokweemfuno": 8616,
      "Ġkancinane": 8617,
      "Ġngasemva": 8618,
      "Ġnjengomfo": 8619,
      "Hebhere": 8620,
      "Ġitheyibhile": 8621,
      "gqithiseleyo": 8622,
      "Ġephothiweyo": 8623,
      "phazamiseka": 8624,
      "JX": 8625,
      "Shi": 8626,
      "pte": 8627,
      "enisa": 8628,
      "Ġucinga": 8629,
      "ĠUkupakisha": 8630,
      "Ġzisetyenziswa": 8631,
      "Ġyelanga": 8632,
      "larm": 8633,
      "lunge": 8634,
      "bhegi": 8635,
      "ĠProfessional": 8636,
      "rystal": 8637,
      "Ġiintloko": 8638,
      "khadibhodi": 8639,
      "frared": 8640,
      "qeshwa": 8641,
      "hlanjululwa": 8642,
      "OYS": 8643,
      "RG": 8644,
      "SX": 8645,
      "kish": 8646,
      "Ġkhu": 8647,
      "ĠCFP": 8648,
      "ĠkwaSirayeli": 8649,
      "Ġyokumkani": 8650,
      "quma": 8651,
      "qaphela": 8652,
      "Ġnokwenziwa": 8653,
      "moti": 8654,
      "enzele": 8655,
      "Ġkomn": 8656,
      "Ġngomlilo": 8657,
      "ĠYada": 8658,
      "thandwayo": 8659,
      "qeqeshi": 8660,
      "gxalaba": 8661,
      "ĠBig": 8662,
      "Ġzobunjineli": 8663,
      "blog": 8664,
      "eces": 8665,
      "Ġookumkani": 8666,
      "Ġ(â": 8667,
      "Ġinyanga": 8668,
      "ĠFeed": 8669,
      "khokelela": 8670,
      "Ġwaphuma": 8671,
      "Ġyokuzi": 8672,
      "iseki": 8673,
      "ĠDri": 8674,
      "ongweni": 8675,
      "ĠZoku": 8676,
      "bonayo": 8677,
      "hlanganiswa": 8678,
      "Ġngeenkonzo": 8679,
      "ports": 8680,
      "Facebook": 8681,
      "Webhu": 8682,
      "sondela": 8683,
      "voltaic": 8684,
      "Ġmgawuli": 8685,
      "ĠKhawuwabhinqise": 8686,
      ".âĢĻ": 8687,
      "Ġukhetha": 8688,
      "yosi": 8689,
      "Ġehambelana": 8690,
      "Ġukuma": 8691,
      "ĠCAS": 8692,
      "Ġkwiing": 8693,
      "dilesi": 8694,
      "Ġyedwa": 8695,
      "Ġeziyi": 8696,
      "Ġisiko": 8697,
      "Ġokubi": 8698,
      "chazwe": 8699,
      "Ġndaku": 8700,
      "Ġezimfakamfele": 8701,
      "par": 8702,
      "qeni": 8703,
      "ĠUk": 8704,
      "elikey": 8705,
      "ĠPE": 8706,
      "ĠMusani": 8707,
      "rashi": 8708,
      "Ġabaprofeti": 8709,
      "fakelwa": 8710,
      "ongwe": 8711,
      "Ġiintsimbi": 8712,
      "Ġimigaqo": 8713,
      "Ġzokufudumeza": 8714,
      "Ġengqondweni": 8715,
      "vavanywa": 8716,
      "Ġkangang": 8717,
      "gwele": 8718,
      "xwa": 8719,
      "Ġukukhangela": 8720,
      "Ġkwiphepha": 8721,
      "ĠTha": 8722,
      "ĠWonke": 8723,
      "Ġizithuba": 8724,
      "philisa": 8725,
      "bhsayithi": 8726,
      "Ġeshi": 8727,
      "ĠProduction": 8728,
      "welding": 8729,
      "ĠPortable": 8730,
      "HG": 8731,
      "thane": 8732,
      "Ġakana": 8733,
      "Ġukulungiswa": 8734,
      "sese": 8735,
      "Ġbazo": 8736,
      "ĠDel": 8737,
      "Ġnabathengi": 8738,
      "tural": 8739,
      "yinge": 8740,
      "chaphazele": 8741,
      "ĠUDW": 8742,
      "ĠYadav": 8743,
      "NPR": 8744,
      "qongo": 8745,
      "Ġ@": 8746,
      "Ġnyaka": 8747,
      "laser": 8748,
      "Ġicebo": 8749,
      "yesta": 8750,
      "Ġindlebe": 8751,
      "ĠFree": 8752,
      "khombe": 8753,
      "Ġwathetha": 8754,
      "fihlo": 8755,
      "ĠIndoda": 8756,
      "andayo": 8757,
      "Ġokupholisa": 8758,
      "bhisa": 8759,
      "Ġwenyama": 8760,
      "Ġwenziwe": 8761,
      "valwa": 8762,
      "Ġparameter": 8763,
      "hin": 8764,
      "enelo": 8765,
      "Ġityeya": 8766,
      "tson": 8767,
      "inian": 8768,
      "Ġbakwazi": 8769,
      "Ġngaxeshanye": 8770,
      "Ġencwadini": 8771,
      "mple": 8772,
      "ĠGreen": 8773,
      "ĠGlobal": 8774,
      "Ġbeng": 8775,
      "qhinga": 8776,
      "lungiselele": 8777,
      "tsare": 8778,
      "qeqesh": 8779,
      "Ġinikezela": 8780,
      "ĠIdeas": 8781,
      "pholiyesta": 8782,
      "ĠneZilinganisi": 8783,
      "DE": 8784,
      "Far": 8785,
      "PL": 8786,
      "Pol": 8787,
      "VG": 8788,
      "VK": 8789,
      "mthethweni": 8790,
      "ĠeA": 8791,
      "Ġefunekayo": 8792,
      "lodwa": 8793,
      "Ġakwi": 8794,
      "zeke": 8795,
      "eru": 8796,
      "alanga": 8797,
      "Ġnolwazi": 8798,
      "ĠGenera": 8799,
      "Ġisinyithi": 8800,
      "KUYR": 8801,
      "ĠNamhlanje": 8802,
      "Ġangaphandle": 8803,
      "zinikela": 8804,
      "funeki": 8805,
      "belwana": 8806,
      "tshonalanga": 8807,
      "rganic": 8808,
      "It": 8809,
      "ĠUkhuseleko": 8810,
      "Ġnkonzo": 8811,
      "ĠiBhodi": 8812,
      "Ġazo": 8813,
      "Ġukuhlala": 8814,
      "orld": 8815,
      "Ġamadolo": 8816,
      "ĠUmthi": 8817,
      "Ġwoluvo": 8818,
      "ongameli": 8819,
      "Ġkomzimba": 8820,
      "ĠInternational": 8821,
      "Ġikepusi": 8822,
      "IE": 8823,
      "JB": 8824,
      "rma": 8825,
      "seni": 8826,
      "vet": 8827,
      "Ġumyalezo": 8828,
      "Ġentsi": 8829,
      "Ġiindwendwe": 8830,
      "ĠIsantya": 8831,
      "Ġeyenzelwe": 8832,
      "Ġkhangela": 8833,
      "ĠBeach": 8834,
      "krainian": 8835,
      "merce": 8836,
      "XYS": 8837,
      "à°": 8838,
      "watt": 8839,
      "Ġukufudumeza": 8840,
      "Ġobe": 8841,
      "Ġoyin": 8842,
      "ĠGood": 8843,
      "Ġizipho": 8844,
      "ĠRange": 8845,
      "solar": 8846,
      "pping": 8847,
      "Ġnabasebenzi": 8848,
      "ĠSuper": 8849,
      "qiniseka": 8850,
      "lwelo": 8851,
      "Ġbanxibe": 8852,
      "thernet": 8853,
      "Ġkwezixhobo": 8854,
      "De": 8855,
      "HN": 8856,
      "Pha": 8857,
      "PYS": 8858,
      "misele": 8859,
      "inte": 8860,
      "vayo": 8861,
      "Ġelim": 8862,
      "Ġimithi": 8863,
      "ongezelela": 8864,
      "Ġibhulu": 8865,
      "jenje": 8866,
      "ssemb": 8867,
      "Ġreplacement": 8868,
      "RF": 8869,
      "RK": 8870,
      "VF": 8871,
      "yn": 8872,
      "yena": 8873,
      "Ġojikeleza": 8874,
      "ingqi": 8875,
      "cetyiswa": 8876,
      "ĠHar": 8877,
      "Ġblack": 8878,
      "olt": 8879,
      "ĠNgeli": 8880,
      "entlanzi": 8881,
      "Ġngesanti": 8882,
      "Ġcoil": 8883,
      "dolophu": 8884,
      "Ġemnyama": 8885,
      "ĠSlovak": 8886,
      "Ku": 8887,
      "RN": 8888,
      "Ġizulu": 8889,
      "Ġkuhamba": 8890,
      "Ġolungileyo": 8891,
      "Ġumvuzo": 8892,
      "Ġnasi": 8893,
      "Ġelifanayo": 8894,
      "ĠODM": 8895,
      "Ġwani": 8896,
      "qoko": 8897,
      "ĠNgelo": 8898,
      "linganiso": 8899,
      "foot": 8900,
      "vanced": 8901,
      "ĠPowder": 8902,
      "hlwayo": 8903,
      "cedisa": 8904,
      "cwecwe": 8905,
      "fanitshala": 8906,
      "JN": 8907,
      "rus": 8908,
      "screen": 8909,
      "Ġnyana": 8910,
      "Ġukuwa": 8911,
      "kam": 8912,
      "dao": 8913,
      "thathwa": 8914,
      "ĠBattery": 8915,
      "hlango": 8916,
      "phuka": 8917,
      "lungise": 8918,
      "Ġwewebhu": 8919,
      "Ġolukiweyo": 8920,
      "Ġwasebusika": 8921,
      "Ġnitrogen": 8922,
      "shiye": 8923,
      "Ġneenkqubo": 8924,
      "Ġungayi": 8925,
      "Ġumnini": 8926,
      "onakalisa": 8927,
      "Ġifakwe": 8928,
      "Ġwesithathu": 8929,
      "rhasi": 8930,
      "Ġadjustable": 8931,
      "Ġuqhagamshelane": 8932,
      "ĠDual": 8933,
      "ĠKitchen": 8934,
      "ĠPolymer": 8935,
      "cipheko": 8936,
      "hlangothi": 8937,
      "xon": 8938,
      "Ġvo": 8939,
      "Ġiquka": 8940,
      "Ġukuhlawula": 8941,
      "Ġoyint": 8942,
      "ĠUkusebenza": 8943,
      "ingelelo": 8944,
      "Ġyehlabathi": 8945,
      "baninzi": 8946,
      "ĠUYIT": 8947,
      "ĠInkxaso": 8948,
      "Ġlokun": 8949,
      "ĠMatshini": 8950,
      "Ġisono": 8951,
      "ĠCotton": 8952,
      "Ġingqayi": 8953,
      "ĠPack": 8954,
      "Ġeyahlulayo": 8955,
      "Ġifayile": 8956,
      "ĠLoop": 8957,
      "ĠUkuzilolonga": 8958,
      "WYS": 8959,
      "Ġkanti": 8960,
      "Ġukulahlwa": 8961,
      "ĠBasket": 8962,
      "kiya": 8963,
      "Ġunama": 8964,
      "mano": 8965,
      "Ġseen": 8966,
      "KUYG": 8967,
      "hambayo": 8968,
      "vanyo": 8969,
      "luleka": 8970,
      "ĠSiza": 8971,
      "Ġrated": 8972,
      "Ġibheji": 8973,
      "Ġtex": 8974,
      "komoya": 8975,
      "ĠWear": 8976,
      "Ġkungekhona": 8977,
      "maski": 8978,
      "anduluka": 8979,
      "gr": 8980,
      "iness": 8981,
      "Ġuthetha": 8982,
      "Ġukhululekile": 8983,
      "Ġiqatha": 8984,
      "zalisa": 8985,
      "elizwi": 8986,
      "ĠPe": 8987,
      "tshintshwa": 8988,
      "Ġlunga": 8989,
      "khonze": 8990,
      "Ġizahlulo": 8991,
      "Ġyobugcisa": 8992,
      "Ġcheap": 8993,
      "ĠDie": 8994,
      "mission": 8995,
      "Ġhead": 8996,
      "Ġinikeza": 8997,
      "AL": 8998,
      "PCB": 8999,
      "im": 9000,
      "annel": 9001,
      "Ġimashumi": 9002,
      "lug": 9003,
      "sile": 9004,
      "Ġou": 9005,
      "tolo": 9006,
      "ĠErose": 9007,
      "ĠBasic": 9008,
      "ongi": 9009,
      "Ġsixhobo": 9010,
      "Ġimiba": 9011,
      "KUYP": 9012,
      "kisayo": 9013,
      "ĠKwabase": 9014,
      "Ġezifanayo": 9015,
      "Ġtransfer": 9016,
      "Aram": 9017,
      "mhla": 9018,
      "zenzo": 9019,
      "endo": 9020,
      "hold": 9021,
      "Ġnabantwana": 9022,
      "Ġngokuzi": 9023,
      "guga": 9024,
      "tshintshe": 9025,
      "Ġper": 9026,
      "Ġesibingelelweni": 9027,
      "Ġukususa": 9028,
      "ĠBody": 9029,
      "qhel": 9030,
      "ĠQing": 9031,
      "Ġyesiqhelo": 9032,
      "Ġngokwezi": 9033,
      "udio": 9034,
      "bhekiselele": 9035,
      "Ġembalwa": 9036,
      "ley": 9037,
      "Ġukuthumela": 9038,
      "Ġwakha": 9039,
      "tec": 9040,
      "Ġiincwadi": 9041,
      "kwenzayo": 9042,
      "Ġintonga": 9043,
      "Ġyenkampani": 9044,
      "liyadi": 9045,
      "Ġroll": 9046,
      "dluliselwa": 9047,
      "Giliyadi": 9048,
      "ĠuPetros": 9049,
      "ĠIintlobo": 9050,
      "alable": 9051,
      "ĠMingyuan": 9052,
      "IYS": 9053,
      "KYS": 9054,
      "meter": 9055,
      "Ġetempileni": 9056,
      "khwela": 9057,
      "Ġngentliziyo": 9058,
      "ĠSMT": 9059,
      "dare": 9060,
      "Ġnale": 9061,
      "kezeli": 9062,
      "angu": 9063,
      "ĠLWUUY": 9064,
      "Ġeziikoruna": 9065,
      "sayo": 9066,
      "thuka": 9067,
      "ĠWenza": 9068,
      "ĠnoE": 9069,
      "khuseli": 9070,
      "ĠPaper": 9071,
      "ĠSoft": 9072,
      "endor": 9073,
      "ĠImfono": 9074,
      "Ġowomileyo": 9075,
      "babalo": 9076,
      "Ġekwenzeni": 9077,
      "ĠStorage": 9078,
      "free": 9079,
      "oyile": 9080,
      "pto": 9081,
      "ption": 9082,
      "lusu": 9083,
      "isoloko": 9084,
      "engcali": 9085,
      "ĠPlan": 9086,
      "Ġezifunekayo": 9087,
      "Ġnoo": 9088,
      "Ġnokugcina": 9089,
      "ĠOkunye": 9090,
      "Ġwema": 9091,
      "Ġisandi": 9092,
      "ront": 9093,
      "yanz": 9094,
      "ĠÂ¢": 9095,
      "Ġimpumelelo": 9096,
      "vakalisa": 9097,
      "ĠDay": 9098,
      "Ġsub": 9099,
      "ĠJiu": 9100,
      "ssage": 9101,
      "Slovenia": 9102,
      "Lin": 9103,
      "SM": 9104,
      "qwel": 9105,
      "tena": 9106,
      "uko": 9107,
      "Ġkubandakanywa": 9108,
      "thiya": 9109,
      "Ġumqondiso": 9110,
      "Ġkwamanye": 9111,
      "Ġyokuhamba": 9112,
      "demon": 9113,
      "tyelwa": 9114,
      "Ġisimbo": 9115,
      "Ġisizathu": 9116,
      "Ġzaso": 9117,
      "ĠWaye": 9118,
      "zuze": 9119,
      "Ġnomntu": 9120,
      "ull": 9121,
      "tyiwa": 9122,
      "ĠBeam": 9123,
      "ĠIndustry": 9124,
      "tempile": 9125,
      "ĠuYoshuwa": 9126,
      "qhumiso": 9127,
      "phunye": 9128,
      "DF": 9129,
      "SK": 9130,
      "Solomon": 9131,
      "TYS": 9132,
      "kubon": 9133,
      "Ġnexabiso": 9134,
      "ĠPul": 9135,
      "Ġabathetheli": 9136,
      "Ġezinzileyo": 9137,
      "Ġweng": 9138,
      "kontra": 9139,
      "tshixa": 9140,
      "bonakale": 9141,
      "OLA": 9142,
      "Ġlomgangatho": 9143,
      "Ġcofa": 9144,
      "ĠuAbraham": 9145,
      "khathaliseki": 9146,
      "Ġanamakhulu": 9147,
      "Ġuwu": 9148,
      "zekile": 9149,
      "zare": 9150,
      "ĠBS": 9151,
      "Ġingqi": 9152,
      "Ġkwicandelo": 9153,
      "Ġbabu": 9154,
      "ĠKus": 9155,
      "phic": 9156,
      "Ġesitsha": 9157,
      "Ġesangweni": 9158,
      "ĠLire": 9159,
      "Ġnguwe": 9160,
      "Ġiingcinga": 9161,
      "crylic": 9162,
      "Ġanesi": 9163,
      "ĠResealable": 9164,
      "Sha": 9165,
      "aba": 9166,
      "Ġipholiyesta": 9167,
      "Ġkol": 9168,
      "Ġedlulileyo": 9169,
      "Ġoz": 9170,
      "bow": 9171,
      "Ġingc": 9172,
      "Ġeliphakathi": 9173,
      "Ġsee": 9174,
      "khuku": 9175,
      "poswa": 9176,
      "mmer": 9177,
      "xila": 9178,
      "thabathele": 9179,
      "Ġkaloliwe": 9180,
      "Ġzasekhaya": 9181,
      "Ġiblogi": 9182,
      "gundoqo": 9183,
      "salela": 9184,
      "Ġindustrial": 9185,
      "ĠbaseMalta": 9186,
      "GYS": 9187,
      "lli": 9188,
      "Ġigunya": 9189,
      "pheng": 9190,
      "Ġkwifektri": 9191,
      "umn": 9192,
      "Ġyokuvelisa": 9193,
      "Ġyakwa": 9194,
      "Ġizizwe": 9195,
      "ĠIntsingiselo": 9196,
      "Ġubuchwepheshe": 9197,
      "Ġezaposwa": 9198,
      "Ġisayithi": 9199,
      "Ġneendleko": 9200,
      "ĠaseSlovenia": 9201,
      "ĠConne": 9202,
      "ĠTolar": 9203,
      "bert": 9204,
      "Kale": 9205,
      "PT": 9206,
      "hadi": 9207,
      "Ġkwabanye": 9208,
      "Ġabaya": 9209,
      "sulwa": 9210,
      "Ġwww": 9211,
      "gic": 9212,
      "ĠVula": 9213,
      "Ġnezibonelelo": 9214,
      "ĠHayi": 9215,
      "friji": 9216,
      "ING": 9217,
      "Ooo": 9218,
      "jing": 9219,
      "ola": 9220,
      "ĠUKU": 9221,
      "ĠuSi": 9222,
      "ĠyokuH": 9223,
      "Ġentan": 9224,
      "ĠYena": 9225,
      "funwa": 9226,
      "Ġiipro": 9227,
      "phelweni": 9228,
      "yano": 9229,
      "vumelana": 9230,
      "well": 9231,
      "Ġobungunaphakade": 9232,
      "ast": 9233,
      "Ġusebenza": 9234,
      "Ġida": 9235,
      "Ġesebenzisa": 9236,
      "hagamsh": 9237,
      "phen": 9238,
      "ĠBlue": 9239,
      "dition": 9240,
      "holo": 9241,
      "ĠNoku": 9242,
      "Ġneqela": 9243,
      "ĠMan": 9244,
      "rosi": 9245,
      "Ġngogonyamelo": 9246,
      "bhaliwe": 9247,
      "Ġwesa": 9248,
      "esolar": 9249,
      "Ġiingqayi": 9250,
      "Ġsokukhetha": 9251,
      "Ġkunika": 9252,
      "sindisi": 9253,
      "sasaza": 9254,
      "lungelelan": 9255,
      "hlukahlukeneyo": 9256,
      "MYS": 9257,
      "Sama": 9258,
      "Ye": 9259,
      "Ñģ": 9260,
      "Ġunit": 9261,
      "qhele": 9262,
      "Ġintle": 9263,
      "Moto": 9264,
      "thunga": 9265,
      "ELA": 9266,
      "Ġyabathengi": 9267,
      "ĠPanels": 9268,
      "Ġokwangoku": 9269,
      "thungelwano": 9270,
      "Ġiadaptha": 9271,
      "VW": 9272,
      "You": 9273,
      "Ġikhonkco": 9274,
      "thiso": 9275,
      "Ġyobungcali": 9276,
      "tyum": 9277,
      "khululwa": 9278,
      "wili": 9279,
      "Ġlixesha": 9280,
      "ĠMagnet": 9281,
      "Ġimithombo": 9282,
      "pala": 9283,
      "mkeli": 9284,
      "ĠFaka": 9285,
      "Ġzinc": 9286,
      "Ġuhlale": 9287,
      "dityaniswa": 9288,
      "Ġlilixa": 9289,
      "Rosari": 9290,
      "kakhe": 9291,
      "ĠAthi": 9292,
[...]
