<pad>	0
<unk>	0
<s>	0
</s>	0
ku	-0
▁U	-1
an	-2
in	-3
el	-4
▁n	-5
en	-6
▁u	-7
is	-8
▁UY	-9
ba	-10
la	-11
▁i	-12
▁I	-13
th	-14
wa	-15
on	-16
▁k	-17
ye	-18
zi	-19
yo	-20
▁e	-21
▁ku	-22
ha	-23
ga	-24
ma	-25
le	-26
ts	-27
lo	-28
li	-29
▁a	-30
kh	-31
ya	-32
we	-33
lu	-34
▁uku	-35
UY	-36
ph	-37
ka	-38
oku	-39
▁ng	-40
ze	-41
si	-42
ela	-43
za	-44
se	-45
tsh	-46
▁o	-47
▁kw	-48
mb	-49
▁kun	-50
▁(	-51
zin	-52
▁UA	-53
un	-54
iso	-55
and	-56
thi	-57
ele	-58
ko	-59
▁Uku	-60
▁B	-61
bo	-62
▁S	-63
▁kunye	-64
▁IT	-65
er	-66
isa	-67
▁C	-68
▁yo	-69
▁in	-70
▁kwi	-71
or	-72
di	-73
es	-74
da	-75
hla	-76
▁z	-77
yi	-78
isi	-79
um	-80
ana	-81
ho	-82
▁um	-83
bu	-84
ini	-85
▁na	-86
ing	-87
ke	-88
ti	-89
eni	-90
om	-91
be	-92
elo	-93
▁Ukuze	-94
▁F	-95
ang	-96
mi	-97
▁kwa	-98
kho	-99
▁N	-100
eng	-101
pha	-102
eli	-103
▁wa	-104
ulu	-105
▁ba	-106
▁K	-107
tsha	-108
mba	-109
▁ne	-110
▁s	-111
ben	-112
tshin	-113
ile	-114
▁yoku	-115
▁lo	-116
to	-117
al	-118
▁A	-119
▁ya	-120
tha	-121
anga	-122
ina	-123
ani	-124
ise	-125
▁P	-126
▁ukuba	-127
▁ye	-128
▁L	-129
▁E	-130
▁1	-131
va	-132
hu	-133
do	-134
▁ezi	-135
▁nga	-136
de	-137
▁M	-138
xa	-139
the	-140
mali	-141
ane	-142
▁2	-143
ro	-144
▁l	-145
wo	-146
wu	-147
▁en	-148
qu	-149
▁Ba	-150
▁ngoku	-151
ri	-152
ra	-153
phe	-154
ch	-155
te	-156
ona	-157
▁IB	-158
vel	-159
▁ama	-160
ex	-161
▁/	-162
ng	-163
mbi	-164
▁zon	-165
re	-166
ta	-167
wan	-168
tu	-169
zo	-170
▁m	-171
▁Y	-172
fun	-173
ban	-174
sa	-175
ty	-176
kwa	-177
thu	-178
ileyo	-179
ca	-180
▁D	-181
khe	-182
▁T	-183
hi	-184
wen	-185
kan	-186
seben	-187
hlala	-188
▁ka	-189
▁ze	-190
▁y	-191
▁ii	-192
mbali	-193
▁aba	-194
isel	-195
mp	-196
▁kwaye	-197
▁For	-198
zinga	-199
tshintsha	-200
▁zi	-201
▁,	-202
wano	-203
▁kwe	-204
aniso	-205
qa	-206
▁Imali	-207
ce	-208
▁W	-209
▁yokutshintsha	-210
▁Forex	-211
hl	-212
fa	-213
▁nj	-214
gu	-215
▁isi	-216
▁ngo	-217
ong	-218
▁zonaniso	-219
us	-220
phez	-221
tshintsh	-222
▁Bahlala	-223
▁nge	-224
he	-225
khulu	-226
▁ezin	-227
▁no	-228
veliso	-229
tho	-230
ine	-231
▁UYN	-232
▁UYI	-233
onke	-234
fi	-235
kha	-236
▁UYT	-237
▁G	-238
iselwano	-239
▁H	-240
tshintshiselwano	-241
▁imbali	-242
kanye	-243
iswa	-244
00	-245
▁noku	-246
xo	-247
▁le	-248
▁iin	-249
bi	-250
▁za	-251
tsi	-252
lar	-253
▁okanye	-254
▁Z	-255
▁UYH	-256
gq	-257
phu	-258
ki	-259
▁eli	-260
ol	-261
▁un	-262
▁b	-263
▁O	-264
lela	-265
▁si	-266
hina	-267
kileyo	-268
et	-269
▁UYU	-270
▁UYX	-271
▁c	-272
▁izi	-273
▁-	-274
▁IY	-275
▁In	-276
su	-277
ci	-278
man	-279
▁la	-280
okuba	-281
▁UYA	-282
weni	-283
▁UYO	-284
mo	-285
▁UYY	-286
▁UYS	-287
ish	-288
▁UYF	-289
lung	-290
▁UYJ	-291
▁UYR	-292
▁UYQ	-293
▁R	-294
ar	-295
ene	-296
▁em	-297
▁UYD	-298
▁lwe	-299
bha	-300
▁UYB	-301
phezulu	-302
▁UYW	-303
wi	-304
▁UAY	-305
andla	-306
▁ITQ	-307
▁izinga	-308
▁we	-309
bon	-310
kela	-311
lwa	-312
▁be	-313
ur	-314
vi	-315
theng	-316
▁ko	-317
shu	-318
▁UAQ	-319
▁UM	-320
▁el	-321
▁IYO	-322
gc	-323
..	-324
▁w	-325
xho	-326
esha	-327
hlu	-328
▁li	-329
mveliso	-330
▁3	-331
sh	-332
▁ndi	-333
▁ke	-334
phaka	-335
qo	-336
hlo	-337
▁Ng	-338
ct	-339
▁loku	-340
me	-341
ib	-342
gama	-343
pho	-344
▁China	-345
-1	-346
▁UYK	-347
dlela	-348
ena	-349
enz	-350
fum	-351
▁UYL	-352
XUY	-353
dawo	-354
▁ma	-355
eho	-356
▁|	-357
▁oku	-358
dwa	-359
anda	-360
▁20	-361
▁do	-362
ji	-363
tya	-364
ehova	-365
▁UYZ	-366
kwen	-367
ni	-368
antsi	-369
du	-370
▁Ma	-371
▁UYG	-372
▁imi	-373
ent	-374
▁p	-375
▁ITY	-376
fu	-377
inga	-378
weyo	-379
▁ITZ	-380
bun	-381
zinto	-382
ange	-383
▁kuba	-384
▁ubu	-385
phi	-386
▁ngen	-387
▁njeng	-388
llar	-389
oni	-390
▁olu	-391
▁dollar	-392
▁UMQ	-393
bho	-394
dla	-395
Yehova	-396
▁on	-397
zisa	-398
phambi	-399
ter	-400
kel	-401
▁esi	-402
▁Isi	-403
▁se	-404
▁eku	-405
yana	-406
vu	-407
so	-408
yu	-409
co	-410
xesha	-411
eleyo	-412
khu	-413
▁201	-414
mandla	-415
inzi	-416
▁sa	-417
▁IBY	-418
▁f	-419
st	-420
cu	-421
hixo	-422
mn	-423
▁lu	-424
go	-425
tyenz	-426
▁UAV	-427
andle	-428
UO	-429
▁zo	-430
▁UAX	-431
kqu	-432
guqu	-433
▁IW	-434
mbo	-435
bona	-436
▁zoku	-437
▁Ku	-438
Thixo	-439
sin	-440
bh	-441
kwe	-442
bantu	-443
xhobo	-444
int	-445
▁IR	-446
kqubo	-447
▁is	-448
▁X	-449
nga	-450
UUY	-451
pa	-452
KUY	-453
eka	-454
IB	-455
ZX	-456
Si	-457
hle	-458
▁ukusu	-459
▁ITN	-460
qala	-461
-2	-462
khi	-463
ve	-464
oko	-465
zwe	-466
leyo	-467
phakathi	-468
las	-469
ran	-470
▁UAO	-471
gh	-472
ge	-473
pp	-474
tshini	-475
▁naba	-476
▁Co	-477
IT	-478
▁UYC	-479
sebenza	-480
ja	-481
gi	-482
bhu	-483
lawu	-484
▁Ca	-485
wana	-486
ZUY	-487
mk	-488
▁4	-489
cha	-490
▁kakhulu	-491
tion	-492
sebenzi	-493
▁Wa	-494
UA	-495
phandle	-496
ir	-497
elekileyo	-498
▁wen	-499
YY	-500
phantsi	-501
▁yakho	-502
▁5	-503
▁ex	-504
▁im	-505
ango	-506
ganga	-507
elwa	-508
▁Su	-509
ntu	-510
qon	-511
wele	-512
▁es	-513
▁ez	-514
benzi	-515
enza	-516
ente	-517
▁Um	-518
kile	-519
khus	-520
▁ukuze	-521
▁xa	-522
hlaba	-523
▁UYV	-524
ren	-525
▁Ip	-526
line	-527
qin	-528
▁Li	-529
▁Le	-530
tan	-531
bhe	-532
elwe	-533
▁ITF	-534
change	-535
▁zonke	-536
matshini	-537
mpa	-538
kon	-539
▁kude	-540
phel	-541
cy	-542
ron	-543
tyenziswa	-544
dlu	-545
land	-546
▁wase	-547
▁ngu	-548
▁yi	-549
▁aku	-550
fe	-551
zu	-552
na	-553
biso	-554
elela	-555
yaka	-556
YS	-557
▁nen	-558
1-	-559
▁izinto	-560
elana	-561
manzi	-562
▁exchange	-563
ling	-564
phum	-565
▁uya	-566
cin	-567
▁Bo	-568
▁online	-569
pe	-570
...	-571
gangatho	-572
enzi	-573
▁V	-574
▁kodwa	-575
fan	-576
tshathi	-577
▁Ii	-578
▁ni	-579
phezu	-580
▁2017	-581
funeka	-582
▁6	-583
bini	-584
ctor	-585
shushu	-586
mkani	-587
khan	-588
▁UUY	-589
▁kum	-590
phela	-591
tic	-592
wun	-593
je	-594
▁J	-595
▁uguqu	-596
ers	-597
▁lwemali	-598
▁ZUO	-599
tye	-600
eso	-601
▁ukusukela	-602
phambili	-603
▁IBQ	-604
Pro	-605
enze	-606
urren	-607
omo	-608
ono	-609
▁En	-610
LW	-611
▁lwa	-612
urrency	-613
elelo	-614
fana	-615
▁itshathi	-616
▁Izi	-617
okubala	-618
▁uguqulo	-619
mbe	-620
▁kwimbali	-621
hlobo	-622
qh	-623
▁currency	-624
▁Cal	-625
il	-626
qhu	-627
xabiso	-628
▁kuku	-629
Profi	-630
▁nom	-631
▁Calc	-632
▁CalcProfi	-633
▁Sokubala	-634
WUY	-635
▁ngenxa	-636
▁La	-637
▁eng	-638
yeli	-639
sebenzisa	-640
qinise	-641
OS	-642
ongo	-643
▁Fa	-644
kwenza	-645
dala	-646
ck	-647
fo	-648
kwazi	-649
ranc	-650
mbu	-651
QS	-652
po	-653
▁Ama	-654
▁nto	-655
hamba	-656
▁...	-657
▁uYehova	-658
▁UYE	-659
thengisi	-660
lw	-661
▁"	-662
QUY	-663
▁Supp	-664
▁amazinga	-665
bala	-666
▁ing	-667
eloo	-668
▁mveliso	-669
UM	-670
▁Yeloo	-671
▁and	-672
OI	-673
▁&	-674
zela	-675
▁wo	-676
▁eza	-677
tor	-678
setyenziswa	-679
kis	-680
▁kwin	-681
▁yase	-682
fumana	-683
lelo	-684
konzo	-685
▁19	-686
inar	-687
eneyo	-688
▁Pa	-689
tshi	-690
ver	-691
funa	-692
▁Suppli	-693
doda	-694
vela	-695
▁Ukuba	-696
anu	-697
onga	-698
▁IWF	-699
▁Aba	-700
▁nd	-701
▁into	-702
▁Dinar	-703
ru	-704
IR	-705
kele	-706
▁bu	-707
jalo	-708
yan	-709
enye	-710
khon	-711
kun	-712
lisa	-713
▁nama	-714
▁yonke	-715
IZ	-716
▁aban	-717
iseben	-718
thetha	-719
ea	-720
kayo	-721
kelo	-722
▁ngokuba	-723
thanda	-724
TI	-725
gqi	-726
▁2017.	-727
thwa	-728
LI	-729
velisi	-730
em	-731
▁ngoko	-732
vum	-733
kisa	-734
one	-735
wule	-736
▁iing	-737
shi	-738
▁Ke	-739
▁kufuneka	-740
kulu	-741
hluk	-742
▁IBZ	-743
▁Sa	-744
rayeli	-745
yile	-746
onyana	-747
iswe	-748
tri	-749
▁woku	-750
ble	-751
bonaka	-752
▁9	-753
yithi	-754
Sirayeli	-755
JS	-756
dle	-757
rh	-758
pheleleyo	-759
▁ukuya	-760
ctory	-761
▁ab	-762
KU	-763
▁int	-764
beni	-765
iya	-766
oo	-767
▁nda	-768
uku	-769
▁Pro	-770
eleli	-771
▁abantu	-772
kamp	-773
pu	-774
▁ili	-775
min	-776
umi	-777
gqomo	-778
hamb	-779
lawulo	-780
isela	-781
▁ixesha	-782
▁ngaphandle	-783
etes	-784
zinye	-785
Zetes	-786
hlukeneyo	-787
▁Factory	-788
▁umgqomo	-789
▁So	-790
▁koku	-791
▁bonke	-792
tsimbi	-793
▁wam	-794
બિ	-795
બિન	-796
▁બિન	-797
▁ubun	-798
kampani	-799
▁phakathi	-800
ul	-801
lasi	-802
▁yen	-803
ry	-804
khanya	-805
ed	-806
▁Kwa	-807
▁uThixo	-808
ishini	-809
thile	-810
▁isa	-811
bomi	-812
ser	-813
anian	-814
zwi	-815
mini	-816
UK	-817
lide	-818
thengi	-819
ED	-820
wang	-821
xha	-822
iselo	-823
mnye	-824
hlang	-825
▁om	-826
▁ngum	-827
ess	-828
▁apho	-829
▁Na	-830
NG	-831
anti	-832
▁UAH	-833
pro	-834
mbane	-835
▁IBK	-836
▁nezi	-837
leni	-838
qha	-839
elel	-840
inye	-841
▁amandla	-842
beka	-843
IW	-844
loko	-845
▁ITJ	-846
▁UAJ	-847
qi	-848
MD	-849
ino	-850
▁bo	-851
▁Ipeso	-852
▁kom	-853
▁Q	-854
▁iya	-855
KR	-856
yin	-857
van	-858
▁oko	-859
ght	-860
▁kuma	-861
gcina	-862
khona	-863
UYO	-864
▁yakhe	-865
sebenz	-866
▁ben	-867
mm	-868
bhi	-869
▁emva	-870
▁IRF	-871
GY	-872
banzi	-873
▁nje	-874
TD	-875
mbini	-876
▁soku	-877
onge	-878
▁Nga	-879
▁UAW	-880
▁njengoko	-881
▁kuye	-882
▁t	-883
eri	-884
tile	-885
gqib	-886
▁7	-887
▁entsha	-888
▁indlela	-889
Mo	-890
eleko	-891
▁ngom	-892
enga	-893
golide	-894
▁Ch	-895
UR	-896
lunga	-897
▁iimveliso	-898
zal	-899
IY	-900
vian	-901
▁wakho	-902
▁200	-903
▁8	-904
▁10	-905
▁yaye	-906
CU	-907
▁zin	-908
▁199	-909
▁eya	-910
▁imveliso	-911
▁nam	-912
cwa	-913
hlan	-914
IK	-915
xi	-916
▁uY	-917
UD	-918
era	-919
zima	-920
▁Ne	-921
▁>	-922
zulu	-923
OL	-924
vo	-925
tsho	-926
QY	-927
UV	-928
it	-929
layo	-930
anye	-931
zimba	-932
yama	-933
ung	-934
China	-935
▁izixhobo	-936
▁ngama	-937
▁ngayo	-938
les	-939
andi	-940
kumbi	-941
fumane	-942
UZ	-943
kisi	-944
khawule	-945
xu	-946
mva	-947
meko	-948
webhu	-949
ceda	-950
▁unga	-951
▁Ndi	-952
lule	-953
VC	-954
▁phambi	-955
tt	-956
ER	-957
▁0	-958
mente	-959
▁nabathengisi	-960
▁enga	-961
▁neen	-962
UQ	-963
▁aman	-964
MZ	-965
enxa	-966
fanelekileyo	-967
WI	-968
▁iint	-969
zantsi	-970
▁umntu	-971
▁Ta	-972
nye	-973
sha	-974
phepha	-975
▁Iin	-976
-3	-977
kr	-978
▁yesi	-979
▁yin	-980
▁ukun	-981
xal	-982
kw	-983
xalenye	-984
▁ca	-985
celo	-986
MR	-987
▁baka	-988
kelela	-989
▁ezininzi	-990
WD	-991
▁yam	-992
▁leyo	-993
▁Iron	-994
▁inkqubo	-995
▁“	-996
onti	-997
olo	-998
▁Si	-999
lingan	-1000
bushushu	-1001
▁kuphela	-1002
phawu	-1003
IX	-1004
▁umsebenzi	-1005
▁r	-1006
▁anga	-1007
▁franc	-1008
▁wathi	-1009
esu	-1010
zwa	-1011
langa	-1012
▁yethu	-1013
ZD	-1014
am	-1015
▁ezahlukeneyo	-1016
▁Is	-1017
▁umb	-1018
▁nee	-1019
lula	-1020
▁UAL	-1021
▁phezu	-1022
QR	-1023
▁wakhe	-1024
lizi	-1025
▁eliphezulu	-1026
UL	-1027
qela	-1028
cinci	-1029
zini	-1030
kiso	-1031
thetho	-1032
UI	-1033
ond	-1034
yise	-1035
▁Dol	-1036
kosi	-1037
▁bakhe	-1038
▁Mach	-1039
tur	-1040
khiwo	-1041
anethi	-1042
▁indawo	-1043
▁of	-1044
▁Xa	-1045
DR	-1046
▁Dollar	-1047
XY	-1048
bonisa	-1049
▁njenge	-1050
XZ	-1051
DY	-1052
gcwele	-1053
zayo	-1054
hen	-1055
▁ip	-1056
▁njl	-1057
MY	-1058
HR	-1059
▁IYY	-1060
▁12	-1061
vavan	-1062
kelayo	-1063
wangc	-1064
▁so	-1065
▁Ngoku	-1066
mpawu	-1067
▁yom	-1068
UE	-1069
BR	-1070
qhelekileyo	-1071
der	-1072
SR	-1073
XN	-1074
UG	-1075
hlabathi	-1076
riyo	-1077
funo	-1078
MW	-1079
XR	-1080
cala	-1081
▁kwen	-1082
thela	-1083
▁lokuqala	-1084
BD	-1085
glasi	-1086
▁Ya	-1087
▁Lo	-1088
▁Kuba	-1089
sino	-1090
mpahla	-1091
▁ele	-1092
ding	-1093
ula	-1094
XO	-1095
▁ngqo	-1096
ft	-1097
▁kubo	-1098
▁malunga	-1099
Yu	-1100
jeng	-1101
twana	-1102
CR	-1103
XA	-1104
loo	-1105
lin	-1106
▁Iponti	-1107
QZ	-1108
JI	-1109
TN	-1110
▁ibho	-1111
cinane	-1112
phuma	-1113
lwini	-1114
CD	-1115
qondo	-1116
▁nemi	-1117
ic	-1118
▁unyana	-1119
yilo	-1120
wundi	-1121
SD	-1122
IM	-1123
dena	-1124
esh	-1125
▁Gu	-1126
denariyo	-1127
),	-1128
TR	-1129
▁Supplier	-1130
phucu	-1131
alo	-1132
sika	-1133
XF	-1134
ne	-1135
xe	-1136
dum	-1137
andelo	-1138
ml	-1139
cing	-1140
▁umgangatho	-1141
thaba	-1142
▁zakho	-1143
yango	-1144
tiki	-1145
endu	-1146
ham	-1147
kcu	-1148
▁akukho	-1149
ondo	-1150
lomo	-1151
UF	-1152
UYG	-1153
cwangc	-1154
▁ey	-1155
banda	-1156
khuseleko	-1157
onic	-1158
▁nang	-1159
-4	-1160
usa	-1161
▁nokuba	-1162
misa	-1163
qana	-1164
UYK	-1165
UW	-1166
▁kaku	-1167
▁Yi	-1168
▁abe	-1169
ziwa	-1170
▁igama	-1171
).	-1172
UYY	-1173
▁ayi	-1174
UYN	-1175
XH	-1176
▁IRY	-1177
LY	-1178
▁zen	-1179
.,	-1180
▁Pre	-1181
IN	-1182
▁ase	-1183
bane	-1184
UYW	-1185
okwa	-1186
▁Produ	-1187
est	-1188
zelo	-1189
▁Po	-1190
OY	-1191
QD	-1192
▁bakho	-1193
LR	-1194
SA	-1195
XJ	-1196
UYZ	-1197
ous	-1198
thun	-1199
▁enye	-1200
ome	-1201
ishino	-1202
zenze	-1203
▁inga	-1204
ard	-1205
khaya	-1206
yanga	-1207
ible	-1208
▁ung	-1209
fane	-1210
thuba	-1211
exesha	-1212
▁Se	-1213
▁de	-1214
MK	-1215
▁mi	-1216
wimi	-1217
▁kuyo	-1218
UYP	-1219
bani	-1220
▁phantsi	-1221
hona	-1222
▁kwii	-1223
TY	-1224
▁d	-1225
Ma	-1226
rin	-1227
▁ezifana	-1228
▁XUY	-1229
EM	-1230
▁kukho	-1231
50	-1232
UYJ	-1233
hlawu	-1234
cinga	-1235
▁ibe	-1236
OR	-1237
angela	-1238
WG	-1239
ywa	-1240
thum	-1241
KY	-1242
lwazi	-1243
UYF	-1244
lise	-1245
TZ	-1246
XG	-1247
▁ise	-1248
5-	-1249
SY	-1250
una	-1251
000	-1252
EL	-1253
chi	-1254
VR	-1255
end	-1256
ris	-1257
QI	-1258
QC	-1259
▁.	-1260
▁ukwenza	-1261
lobo	-1262
▁mo	-1263
faka	-1264
gca	-1265
etal	-1266
▁ize	-1267
UYR	-1268
cal	-1269
thengisa	-1270
▁Ezin	-1271
▁waba	-1272
WY	-1273
qinisekisa	-1274
bing	-1275
fazi	-1276
khawuleza	-1277
ando	-1278
▁nase	-1279
Yi	-1280
QL	-1281
▁baya	-1282
▁nabenzi	-1283
▁IJS	-1284
TL	-1285
▁Ho	-1286
bhalo	-1287
▁kwiin	-1288
▁pha	-1289
▁Som	-1290
CL	-1291
▁An	-1292
isebenzi	-1293
TH	-1294
hosa	-1295
elele	-1296
▁yokuba	-1297
phin	-1298
sebenzisi	-1299
enziwe	-1300
▁abo	-1301
mbulu	-1302
▁amanzi	-1303
candelo	-1304
:1	-1305
▁kakuhle	-1306
ON	-1307
QG	-1308
jikele	-1309
velisa	-1310
EW	-1311
CZ	-1312
teel	-1313
zenzekelayo	-1314
mpu	-1315
▁kuya	-1316
UB	-1317
▁emi	-1318
wane	-1319
diban	-1320
elayo	-1321
UN	-1322
phuhl	-1323
iseko	-1324
lwe	-1325
▁yoM	-1326
▁ulu	-1327
▁ITU	-1328
lastiki	-1329
▁am	-1330
MA	-1331
▁ukusuka	-1332
XL	-1333
dlalo	-1334
OD	-1335
zana	-1336
KZ	-1337
suku	-1338
thathu	-1339
UJ	-1340
▁Oku	-1341
fune	-1342
QA	-1343
▁ngakumbi	-1344
ll	-1345
XV	-1346
▁umn	-1347
mon	-1348
So	-1349
UYB	-1350
▁zabo	-1351
▁nesi	-1352
gam	-1353
▁ukusebenza	-1354
Da	-1355
MB	-1356
okware	-1357
▁Cookware	-1358
IJ	-1359
IC	-1360
ore	-1361
yili	-1362
▁Bu	-1363
cac	-1364
QJ	-1365
ram	-1366
UYH	-1367
▁IWZ	-1368
▁Con	-1369
▁oo	-1370
▁UAB	-1371
OC	-1372
QV	-1373
lungisa	-1374
OB	-1375
▁ophezulu	-1376
▁Franc	-1377
phefum	-1378
In	-1379
▁kwisi	-1380
vious	-1381
QN	-1382
OZ	-1383
lungu	-1384
EY	-1385
▁Previous	-1386
▁Hi	-1387
▁To	-1388
20	-1389
ord	-1390
▁an	-1391
▁ngokwe	-1392
▁kuni	-1393
xin	-1394
shumi	-1395
▁njalo	-1396
▁namhlan	-1397
MF	-1398
▁bam	-1399
▁obu	-1400
-20	-1401
QK	-1402
▁iza	-1403
▁St	-1404
▁Machine	-1405
QH	-1406
WF	-1407
TM	-1408
▁ema	-1409
hlwa	-1410
▁UYP	-1411
omp	-1412
umba	-1413
iselwa	-1414
esi	-1415
OK	-1416
chwe	-1417
▁US	-1418
▁zethu	-1419
ctur	-1420
dini	-1421
▁Imi	-1422
thamb	-1423
▁wom	-1424
US	-1425
▁ukumkani	-1426
WZ	-1427
ext	-1428
lay	-1429
▁ubomi	-1430
lungileyo	-1431
ced	-1432
▁ezinga	-1433
QF	-1434
at	-1435
▁for	-1436
CB	-1437
▁g	-1438
yam	-1439
▁kuthi	-1440
▁Ele	-1441
ump	-1442
▁nges	-1443
▁ent	-1444
MN	-1445
buy	-1446
Bha	-1447
oya	-1448
▁ngexesha	-1449
ction	-1450
fanele	-1451
▁umatshini	-1452
kxa	-1453
▁Manu	-1454
isebenzisa	-1455
▁elide	-1456
XK	-1457
▁kuwe	-1458
2-	-1459
▁kokuba	-1460
ronic	-1461
ys	-1462
▁Wathi	-1463
ZY	-1464
SL	-1465
▁Ko	-1466
kacha	-1467
▁phawundi	-1468
ET	-1469
puta	-1470
ciph	-1471
eleni	-1472
OA	-1473
kcukacha	-1474
▁kwama	-1475
▁ngokwa	-1476
EU	-1477
Yiputa	-1478
▁ukukhanya	-1479
▁Next	-1480
▁khona	-1481
ZH	-1482
sayithi	-1483
▁enkulu	-1484
Yuda	-1485
tamente	-1486
UH	-1487
▁yoMvelisi	-1488
▁Xhosa	-1489
thatha	-1490
ire	-1491
▁Suppliers	-1492
▁laser	-1493
▁Bible	-1494
▁Ezingcwele	-1495
kanani	-1496
▁ezine	-1497
▁aka	-1498
oniso	-1499
lan	-1500
▁Endala	-1501
lala	-1502
▁Ri	-1503
minyaka	-1504
ly	-1505
UT	-1506
▁2018	-1507
vavanyo	-1508
▁Izibhalo	-1509
tanente	-1510
▁neZetes	-1511
▁izeZetes	-1512
▁neZetestamente	-1513
▁izeZetestanente	-1514
▁yabo	-1515
tyi	-1516
ging	-1517
▁uphawu	-1518
CUY	-1519
▁nezinye	-1520
▁High	-1521
▁lula	-1522
fanekiso	-1523
▁15	-1524
qe	-1525
▁ese	-1526
OP	-1527
▁end	-1528
GB	-1529
▁onke	-1530
leka	-1531
WR	-1532
▁New	-1533
hambelana	-1534
uni	-1535
QB	-1536
funda	-1537
lumini	-1538
gy	-1539
GA	-1540
▁wena	-1541
▁Ezi	-1542
▁ziya	-1543
▁Flo	-1544
▁ebu	-1545
▁elin	-1546
▁Umatshini	-1547
rhwe	-1548
ungu	-1549
▁kwakhe	-1550
balule	-1551
XD	-1552
ama	-1553
▁ubushushu	-1554
▁Mo	-1555
omen	-1556
SI	-1557
MI	-1558
lian	-1559
▁2006	-1560
isiweyo	-1561
gwe	-1562
▁ngokukhawuleza	-1563
▁IBO	-1564
▁pro	-1565
SH	-1566
bili	-1567
▁UMZ	-1568
kwakha	-1569
▁ndiya	-1570
fund	-1571
lwimi	-1572
shishini	-1573
ber	-1574
▁elect	-1575
▁lakho	-1576
zele	-1577
khosi	-1578
▁Af	-1579
CY	-1580
inyaka	-1581
engiso	-1582
kwi	-1583
KK	-1584
▁loo	-1585
QT	-1586
elanga	-1587
▁phambili	-1588
QO	-1589
qal	-1590
▁nobu	-1591
yiphi	-1592
mileyo	-1593
▁Sc	-1594
▁ban	-1595
▁ITB	-1596
XI	-1597
GR	-1598
ment	-1599
▁lom	-1600
▁Ha	-1601
han	-1602
plastiki	-1603
wer	-1604
id	-1605
LIB	-1606
phula	-1607
XB	-1608
▁uzi	-1609
EN	-1610
tra	-1611
ristu	-1612
▁ITH	-1613
qho	-1614
▁kube	-1615
antya	-1616
GI	-1617
men	-1618
ther	-1619
onaka	-1620
nika	-1621
qwen	-1622
▁kwakho	-1623
liziyo	-1624
UYA	-1625
OH	-1626
9-	-1627
cingo	-1628
lilo	-1629
NY	-1630
ZI	-1631
kxaso	-1632
qanaba	-1633
isele	-1634
suka	-1635
VI	-1636
▁uhlobo	-1637
nolo	-1638
▁kulo	-1639
YYZ	-1640
KUUY	-1641
ZXX	-1642
▁lonke	-1643
QE	-1644
UYD	-1645
NC	-1646
WH	-1647
▁iindawo	-1648
chu	-1649
riya	-1650
▁abanga	-1651
XE	-1652
▁ube	-1653
OJ	-1654
VY	-1655
▁koko	-1656
XC	-1657
phumo	-1658
ZR	-1659
factur	-1660
qua	-1661
ciphisa	-1662
GH	-1663
ande	-1664
shishino	-1665
lungisel	-1666
shici	-1667
phendu	-1668
FY	-1669
▁11	-1670
▁babe	-1671
XT	-1672
▁ngokupheleleyo	-1673
▁umoya	-1674
WL	-1675
ZL	-1676
phucula	-1677
theth	-1678
khethe	-1679
FR	-1680
lileyo	-1681
▁kwaba	-1682
▁omnye	-1683
UYS	-1684
▁kalo	-1685
NI	-1686
▁1998	-1687
XS	-1688
▁kwabo	-1689
gakanani	-1690
lass	-1691
▁h	-1692
▁Inxalenye	-1693
ako	-1694
▁Kanga	-1695
KD	-1696
▁waye	-1697
thethi	-1698
zekelo	-1699
▁100	-1700
UYU	-1701
▁Of	-1702
cts	-1703
▁Manufactur	-1704
thini	-1705
ses	-1706
▁imali	-1707
▁'	-1708
lic	-1709
dleko	-1710
dalo	-1711
Nkosi	-1712
hambo	-1713
▁Boli	-1714
-9	-1715
KI	-1716
▁yena	-1717
BY	-1718
lastic	-1719
▁kwakhona	-1720
xib	-1721
quka	-1722
▁zom	-1723
eshe	-1724
tshane	-1725
ad	-1726
▁ezimbini	-1727
GN	-1728
UYT	-1729
lle	-1730
▁+	-1731
lue	-1732
ime	-1733
bra	-1734
ZN	-1735
▁iz	-1736
gcisa	-1737
ted	-1738
lands	-1739
▁elu	-1740
futshane	-1741
yeni	-1742
▁Ngo	-1743
▁ingq	-1744
cwangciso	-1745
JY	-1746
MH	-1747
▁Light	-1748
thelo	-1749
sus	-1750
bonakala	-1751
VL	-1752
ut	-1753
▁mna	-1754
▁Zi	-1755
angaphandle	-1756
vide	-1757
gamsh	-1758
phefumlo	-1759
▁imp	-1760
fundi	-1761
▁zase	-1762
LWU	-1763
kanga	-1764
KG	-1765
▁Uni	-1766
tyala	-1767
tsa	-1768
zeka	-1769
moto	-1770
enge	-1771
fikelela	-1772
▁yama	-1773
ML	-1774
▁Sta	-1775
BH	-1776
-5	-1777
AS	-1778
kelele	-1779
funeko	-1780
waka	-1781
cwadi	-1782
vumela	-1783
boneleli	-1784
XW	-1785
UYE	-1786
▁Bea	-1787
▁iglasi	-1788
▁Pi	-1789
CH	-1790
▁Tur	-1791
▁ngaba	-1792
MV	-1793
pi	-1794
hlangan	-1795
▁ra	-1796
phumelela	-1797
-6	-1798
yim	-1799
▁nes	-1800
OV	-1801
rt	-1802
UYI	-1803
ere	-1804
▁13	-1805
▁ngaphezulu	-1806
▁ezinye	-1807
▁ukusika	-1808
GD	-1809
▁yaba	-1810
QW	-1811
tywa	-1812
ep	-1813
▁Ro	-1814
andleni	-1815
gqibela	-1816
lele	-1817
▁ngaphezu	-1818
▁uYesu	-1819
KS	-1820
▁Ngoko	-1821
bonelela	-1822
ND	-1823
jongo	-1824
▁naku	-1825
NL	-1826
xaki	-1827
▁base	-1828
▁UAZ	-1829
▁siya	-1830
ike	-1831
kazi	-1832
▁lowo	-1833
Le	-1834
ompo	-1835
▁ngaphakathi	-1836
▁Nge	-1837
▁apha	-1838
▁uma	-1839
anel	-1840
▁*	-1841
cedo	-1842
kistan	-1843
KA	-1844
sta	-1845
▁asi	-1846
▁oonyana	-1847
khetha	-1848
ZZ	-1849
qonda	-1850
gian	-1851
enziwa	-1852
▁ixabiso	-1853
bisi	-1854
▁awa	-1855
▁De	-1856
lawula	-1857
mu	-1858
▁16	-1859
elwano	-1860
bandakan	-1861
▁Manufacturers	-1862
FJ	-1863
KH	-1864
MQ	-1865
tse	-1866
dge	-1867
tr	-1868
▁iintlobo	-1869
WS	-1870
krele	-1871
OT	-1872
▁kwezi	-1873
▁owa	-1874
Davide	-1875
▁Ngokuba	-1876
webhusayithi	-1877
▁Bra	-1878
10	-1879
▁Aku	-1880
▁Elect	-1881
phakamileyo	-1882
ANG	-1883
diyo	-1884
uri	-1885
MJ	-1886
lang	-1887
com	-1888
▁ukusetyenziswa	-1889
gn	-1890
vaka	-1891
▁ukutya	-1892
und	-1893
▁Ka	-1894
▁Cast	-1895
▁14	-1896
bela	-1897
▁Umb	-1898
eleleyo	-1899
KL	-1900
NA	-1901
▁ukuthi	-1902
thint	-1903
▁Kodwa	-1904
▁kwizi	-1905
▁ib	-1906
rone	-1907
▁Me	-1908
▁re	-1909
.5	-1910
tem	-1911
mntu	-1912
hlabeni	-1913
BW	-1914
ES	-1915
gcin	-1916
tro	-1917
PC	-1918
▁Turk	-1919
entla	-1920
▁kaloku	-1921
▁Dir	-1922
hleli	-1923
CQ	-1924
fika	-1925
less	-1926
dlala	-1927
ress	-1928
▁Dirham	-1929
▁yayo	-1930
6-	-1931
▁uze	-1932
EG	-1933
tch	-1934
she	-1935
khasino	-1936
ric	-1937
▁namhlanje	-1938
TG	-1939
sen	-1940
zer	-1941
▁ulawulo	-1942
▁Products	-1943
hlalo	-1944
▁Ing	-1945
▁kaYehova	-1946
NR	-1947
xolo	-1948
khadi	-1949
▁Solar	-1950
ker	-1951
WJ	-1952
yini	-1953
tical	-1954
qong	-1955
▁Islands	-1956
▁phezulu	-1957
▁30	-1958
▁yaseM	-1959
OG	-1960
rans	-1961
▁co	-1962
:2	-1963
sion	-1964
qhagamsh	-1965
▁25	-1966
thumela	-1967
diya	-1968
▁uM	-1969
reen	-1970
▁kuzo	-1971
▁Idenariyo	-1972
lem	-1973
▁nganye	-1974
zile	-1975
▁Mala	-1976
ishishini	-1977
MT	-1978
umelelo	-1979
OF	-1980
khonzi	-1981
nia	-1982
▁eling	-1983
▁Njeng	-1984
▁ngeen	-1985
▁ibhe	-1986
wini	-1987
Sa	-1988
▁Zonke	-1989
▁Car	-1990
PY	-1991
▁CO	-1992
xhen	-1993
intanethi	-1994
UC	-1995
▁ngokubanzi	-1996
HY	-1997
BI	-1998
▁Un	-1999
xholo	-2000
zalwana	-2001
kelwe	-2002
melana	-2003
▁ilizwe	-2004
gaqo	-2005
▁Bal	-2006
▁sakho	-2007
▁abenzi	-2008
▁electronic	-2009
ktri	-2010
thand	-2011
fanayo	-2012
KV	-2013
ant	-2014
qaku	-2015
▁ezo	-2016
kelwa	-2017
▁lika	-2018
sian	-2019
kanti	-2020
▁Pump	-2021
▁yobu	-2022
TV	-2023
sing	-2024
erusa	-2025
erusalem	-2026
anama	-2027
PI	-2028
▁kunga	-2029
▁Ga	-2030
▁zakhe	-2031
unga	-2032
tting	-2033
▁konke	-2034
▁Led	-2035
khumba	-2036
tsuku	-2037
ZF	-2038
OW	-2039
khomp	-2040
cess	-2041
of	-2042
ust	-2043
QQ	-2044
▁Cu	-2045
▁ifa	-2046
mihla	-2047
thele	-2048
LL	-2049
zala	-2050
KF	-2051
wel	-2052
mele	-2053
yisa	-2054
gen	-2055
TF	-2056
khompyu	-2057
gesi	-2058
▁Mauri	-2059
▁kaThixo	-2060
▁sen	-2061
▁yezi	-2062
engqondo	-2063
OE	-2064
▁Nor	-2065
▁azi	-2066
yona	-2067
▁Kwi	-2068
gqina	-2069
lahle	-2070
fektri	-2071
▁ngendlela	-2072
▁lobushushu	-2073
xhenxe	-2074
Ni	-2075
▁kule	-2076
▁Emva	-2077
▁ezintsha	-2078
▁Ngenxa	-2079
▁ukanti	-2080
▁Imveliso	-2081
▁wesi	-2082
nike	-2083
hlanga	-2084
Yerusalem	-2085
▁Ubu	-2086
▁kwindawo	-2087
BS	-2088
MC	-2089
thembe	-2090
gua	-2091
den	-2092
bian	-2093
anese	-2094
ZJ	-2095
uro	-2096
VE	-2097
kra	-2098
▁sisi	-2099
XX	-2100
rani	-2101
▁IWQ	-2102
qhuba	-2103
daba	-2104
light	-2105
gazi	-2106
wuni	-2107
▁isixhobo	-2108
xelo	-2109
▁te	-2110
TA	-2111
▁uA	-2112
▁ukwa	-2113
▁iim	-2114
▁boku	-2115
khusela	-2116
IH	-2117
-10	-2118
kisha	-2119
UU	-2120
MG	-2121
▁24	-2122
▁kwimi	-2123
landelayo	-2124
KJ	-2125
anat	-2126
▁ity	-2127
▁ufuna	-2128
eniso	-2129
▁izin	-2130
▁kwam	-2131
▁elinye	-2132
▁wethu	-2133
▁Bolivian	-2134
▁bethu	-2135
▁Pha	-2136
UYC	-2137
rea	-2138
banye	-2139
vula	-2140
qwa	-2141
ss	-2142
qini	-2143
▁kwel	-2144
▁zesi	-2145
tambo	-2146
rha	-2147
manye	-2148
per	-2149
pheshe	-2150
liver	-2151
BA	-2152
dad	-2153
bhile	-2154
eza	-2155
balulekileyo	-2156
▁iimpawu	-2157
▁Da	-2158
▁Re	-2159
mpi	-2160
▁No	-2161
dian	-2162
lelwa	-2163
mbian	-2164
oh	-2165
▁nabo	-2166
▁18	-2167
▁Al	-2168
khoyo	-2169
mbululo	-2170
fundo	-2171
▁Somlomo	-2172
▁intsimbi	-2173
▁abathengi	-2174
WA	-2175
Kristu	-2176
▁Chile	-2177
dong	-2178
▁kunjalo	-2179
kwacha	-2180
xh	-2181
livere	-2182
sy	-2183
hoqo	-2184
liso	-2185
BF	-2186
▁–	-2187
BL	-2188
ori	-2189
▁Sur	-2190
▁Lib	-2191
ZC	-2192
tal	-2193
▁len	-2194
WV	-2195
▁Tu	-2196
cwele	-2197
liweyo	-2198
ID	-2199
TS	-2200
mani	-2201
▁1.	-2202
ican	-2203
▁elung	-2204
fes	-2205
olon	-2206
▁ch	-2207
jini	-2208
▁emhlabeni	-2209
xowa	-2210
yina	-2211
▁lakhe	-2212
thengiswa	-2213
ano	-2214
▁zama	-2215
▁unoku	-2216
▁Ru	-2217
qond	-2218
▁ITO	-2219
▁Chilean	-2220
▁Nang	-2221
kumkani	-2222
bum	-2223
▁nger	-2224
▁nayiphi	-2225
isayo	-2226
ZG	-2227
qeq	-2228
▁Umboniso	-2229
▁ndawo	-2230
▁Qu	-2231
JF	-2232
gumbi	-2233
phathe	-2234
▁17	-2235
▁€	-2236
▁iphepha	-2237
lon	-2238
tathu	-2239
▁ezint	-2240
▁eziphambili	-2241
▁ngeranti	-2242
QM	-2243
angen	-2244
▁uhla	-2245
▁ITX	-2246
▁tro	-2247
fumaneka	-2248
khethekileyo	-2249
Pa	-2250
phos	-2251
ying	-2252
yuka	-2253
ystem	-2254
eria	-2255
vidiyo	-2256
▁amadoda	-2257
oth	-2258
KN	-2259
WN	-2260
gs	-2261
▁kuwo	-2262
JR	-2263
LN	-2264
phakade	-2265
▁kwesi	-2266
SE	-2267
XM	-2268
▁Ind	-2269
kweni	-2270
▁idenariyo	-2271
thabatha	-2272
▁troy	-2273
khulule	-2274
mpumelelo	-2275
kuba	-2276
▁wonke	-2277
daweni	-2278
isetyenziswa	-2279
FC	-2280
TC	-2281
zim	-2282
lweni	-2283
▁endlwini	-2284
▁naye	-2285
que	-2286
▁LEU	-2287
.+	-2288
ali	-2289
ZV	-2290
yalelo	-2291
▁iminyaka	-2292
▁isicelo	-2293
bula	-2294
▁umzimba	-2295
▁ukuqinisekisa	-2296
▁Colo	-2297
▁inkampani	-2298
▁ukufumana	-2299
hobho	-2300
isombululo	-2301
td	-2302
EI	-2303
▁rhoqo	-2304
ip	-2305
▁Women	-2306
▁zeplastiki	-2307
▁umbala	-2308
▁EN	-2309
▁to	-2310
LS	-2311
iseni	-2312
zweni	-2313
ishumi	-2314
isana	-2315
phuhliso	-2316
▁°	-2317
▁Te	-2318
komo	-2319
leko	-2320
▁inkonzo	-2321
YZUY	-2322
dolo	-2323
▁kan	-2324
bhala	-2325
hlanu	-2326
▁Entsha	-2327
can	-2328
▁ong	-2329
ZS	-2330
Moses	-2331
▁Nangona	-2332
LB	-2333
omoya	-2334
hai	-2335
▁Ser	-2336
tyalo	-2337
unda	-2338
thombo	-2339
▁uba	-2340
▁PVC	-2341
OM	-2342
▁IBW	-2343
AR	-2344
KC	-2345
▁UDY	-2346
▁Ltd	-2347
lel	-2348
kunye	-2349
KW	-2350
tter	-2351
susela	-2352
▁Ea	-2353
▁“”	-2354
inam	-2355
▁kuYehova	-2356
▁kwayo	-2357
KQ	-2358
iti	-2359
xuma	-2360
▁eliphantsi	-2361
jonga	-2362
XQ	-2363
xibelel	-2364
▁imisebenzi	-2365
zithi	-2366
▁ilizwi	-2367
▁Plastic	-2368
zise	-2369
▁ipeso	-2370
▁zinto	-2371
phendula	-2372
fice	-2373
yibhile	-2374
▁ngobu	-2375
iko	-2376
ven	-2377
▁Pol	-2378
khutha	-2379
TJ	-2380
▁Home	-2381
▁pa	-2382
▁kwee	-2383
▁zibe	-2384
▁Up	-2385
▁di	-2386
▁uye	-2387
EZ	-2388
son	-2389
▁22	-2390
mbeni	-2391
▁imihla	-2392
khompyutha	-2393
VD	-2394
coca	-2395
cono	-2396
sem	-2397
logi	-2398
inless	-2399
kca	-2400
fowuni	-2401
zelelo	-2402
▁Kwaye	-2403
cacileyo	-2404
▁Nda	-2405
▁ene	-2406
▁ZUOZ	-2407
ircu	-2408
▁Gi	-2409
▁Ndiya	-2410
▁iye	-2411
▁anti	-2412
phando	-2413
▁umthetho	-2414
-100	-2415
▁LED	-2416
En	-2417
howu	-2418
▁ezinkulu	-2419
▁Steel	-2420
LD	-2421
▁ngokwen	-2422
lum	-2423
liya	-2424
▁kukuba	-2425
▁th	-2426
▁ulwazi	-2427
ou	-2428
rand	-2429
▁Eyo	-2430
andisa	-2431
80	-2432
phan	-2433
▁esin	-2434
keni	-2435
FI	-2436
sithi	-2437
▁uthe	-2438
FD	-2439
gubo	-2440
▁uyi	-2441
ircuit	-2442
WC	-2443
lelwe	-2444
KB	-2445
indo	-2446
▁Office	-2447
▁amagama	-2448
YR	-2449
bel	-2450
▁Hot	-2451
gun	-2452
qhube	-2453
▁babo	-2454
dibanisa	-2455
▁ngesi	-2456
cam	-2457
MM	-2458
Ti	-2459
▁ubungakanani	-2460
▁ZUOQ	-2461
tyenziselwa	-2462
istan	-2463
lwan	-2464
Ne	-2465
▁non	-2466
XU	-2467
▁uthi	-2468
tar	-2469
▁Di	-2470
▁ngeli	-2471
▁baba	-2472
▁Metal	-2473
ceba	-2474
▁elo	-2475
▁esithi	-2476
cine	-2477
saba	-2478
LC	-2479
zelwa	-2480
▁Euro	-2481
▁ufumane	-2482
profe	-2483
▁zaba	-2484
▁oluzenzekelayo	-2485
OO	-2486
▁ukhuseleko	-2487
PS	-2488
XXUY	-2489
khula	-2490
ika	-2491
▁inoku	-2492
▁neeng	-2493
iyal	-2494
theni	-2495
IG	-2496
log	-2497
▁ezipheleleyo	-2498
let	-2499
liswa	-2500
▁Riyal	-2501
▁kween	-2502
hala	-2503
for	-2504
chane	-2505
▁yoko	-2506
▁Circuit	-2507
IZZ	-2508
▁Ge	-2509
ree	-2510
Sihlalo	-2511
▁Power	-2512
ket	-2513
▁kung	-2514
▁efanelekileyo	-2515
▁uyilo	-2516
▁v	-2517
▁We	-2518
sind	-2519
▁lwen	-2520
▁EyoM	-2521
sasa	-2522
lungele	-2523
,+	-2524
▁yegama	-2525
FP	-2526
DD	-2527
mv	-2528
gx	-2529
▁ezweni	-2530
liwe	-2531
hlophe	-2532
NH	-2533
iswano	-2534
teri	-2535
ok	-2536
howulise	-2537
howuliseyili	-2538
phila	-2539
▁Ihowuliseyili	-2540
KT	-2541
▁lam	-2542
mera	-2543
khawun	-2544
kwenziwa	-2545
▁bakaSirayeli	-2546
▁Per	-2547
▁Ababoneleli	-2548
FH	-2549
▁Swe	-2550
▁steel	-2551
khawunti	-2552
0-	-2553
▁Im	-2554
Ca	-2555
VH	-2556
bandakanya	-2557
EJI	-2558
▁ha	-2559
▁uza	-2560
▁alumini	-2561
khonk	-2562
zibu	-2563
▁zinga	-2564
table	-2565
▁sele	-2566
phathi	-2567
OQ	-2568
WB	-2569
isu	-2570
▁sin	-2571
▁zee	-2572
banga	-2573
por	-2574
▁nt	-2575
ost	-2576
khwe	-2577
ductor	-2578
▁sakhe	-2579
LTD	-2580
ulti	-2581
phathekayo	-2582
FE	-2583
▁ngeenxa	-2584
ork	-2585
datha	-2586
khiwa	-2587
phinda	-2588
enzelwe	-2589
khangela	-2590
jwa	-2591
▁kwelinye	-2592
▁elungileyo	-2593
oli	-2594
zon	-2595
GS	-2596
bile	-2597
▁Eku	-2598
indow	-2599
yibha	-2600
▁endi	-2601
▁Abavelisi	-2602
uba	-2603
▁2.	-2604
inese	-2605
▁NEW	-2606
singa	-2607
hlangu	-2608
chule	-2609
▁bathi	-2610
hubhu	-2611
yl	-2612
▁abaninzi	-2613
KE	-2614
bhodi	-2615
isebenza	-2616
▁IRZ	-2617
thenga	-2618
▁ishishini	-2619
ral	-2620
▁Sh	-2621
biza	-2622
mod	-2623
mbalwa	-2624
▁ho	-2625
▁emn	-2626
anisa	-2627
▁zobu	-2628
▁50	-2629
ines	-2630
donga	-2631
gqiba	-2632
key	-2633
ongeza	-2634
lungelo	-2635
▁UD	-2636
thuthu	-2637
yaniso	-2638
▁kwaku	-2639
▁abanini	-2640
▁ibhokisi	-2641
▁awu	-2642
▁xesha	-2643
jani	-2644
▁FIZZ	-2645
emfuno	-2646
ERGY	-2647
gaba	-2648
EJIANG	-2649
▁ENERGY	-2650
FN	-2651
rhwebo	-2652
▁Glass	-2653
▁isakhiwo	-2654
▁banga	-2655
ME	-2656
▁Ye	-2657
.”	-2658
UYL	-2659
▁yinto	-2660
thembekileyo	-2661
sho	-2662
WUUY	-2663
uth	-2664
rike	-2665
tswana	-2666
▁•	-2667
▁nanga	-2668
▁uluhlu	-2669
BC	-2670
jin	-2671
▁lesi	-2672
▁ndlela	-2673
jek	-2674
ongez	-2675
yathelo	-2676
xinzelelo	-2677
FS	-2678
QU	-2679
▁The	-2680
YD	-2681
mehlo	-2682
▁Izixhobo	-2683
bone	-2684
▁Bah	-2685
xube	-2686
VZ	-2687
▁Com	-2688
tooth	-2689
khumbu	-2690
▁System	-2691
bonelelo	-2692
▁iindlela	-2693
fom	-2694
sini	-2695
kro	-2696
▁Ze	-2697
VJ	-2698
mer	-2699
bhokisi	-2700
GT	-2701
tsing	-2702
LA	-2703
yenza	-2704
thwalo	-2705
▁ngokuthe	-2706
tsingiselo	-2707
▁wama	-2708
▁indlu	-2709
▁singa	-2710
▁iNkosi	-2711
bonakalayo	-2712
IWUY	-2713
ordan	-2714
▁ro	-2715
luetooth	-2716
▁nina	-2717
▁usebenzisa	-2718
cial	-2719
yani	-2720
▁sesi	-2721
qula	-2722
▁oomatshini	-2723
oma	-2724
mise	-2725
yure	-2726
phosa	-2727
▁abaxho	-2728
jong	-2729
hlazi	-2730
mahla	-2731
▁akho	-2732
▁yee	-2733
▁nayo	-2734
▁uvavanyo	-2735
FZ	-2736
▁IS	-2737
▁QUY	-2738
▁23	-2739
hloko	-2740
▁ngase	-2741
xulu	-2742
▁Cat	-2743
wanga	-2744
sebenzayo	-2745
TT	-2746
bele	-2747
▁lase	-2748
▁Wu	-2749
ingeleli	-2750
▁Laphumelela	-2751
GZ	-2752
YH	-2753
pan	-2754
kholo	-2755
qhosha	-2756
▁ngokun	-2757
dy	-2758
yd	-2759
cka	-2760
bizwa	-2761
▁iindleko	-2762
▁zam	-2763
qhubeka	-2764
▁omkhulu	-2765
LH	-2766
ingu	-2767
xhome	-2768
▁1992	-2769
bantwana	-2770
linganisa	-2771
gra	-2772
hlaza	-2773
PA	-2774
onakalo	-2775
tes	-2776
khiqi	-2777
▁Afgh	-2778
▁njengom	-2779
▁eyi	-2780
UX	-2781
kana	-2782
qungu	-2783
thintela	-2784
kiswa	-2785
▁zezi	-2786
BJ	-2787
▁EyoMqungu	-2788
▁wel	-2789
intoni	-2790
▁ngezi	-2791
LJ	-2792
didi	-2793
▁Laser	-2794
▁ZUOB	-2795
▁iqela	-2796
▁Cutting	-2797
oc	-2798
fudum	-2799
▁fi	-2800
qayi	-2801
▁OEM	-2802
▁Uya	-2803
yela	-2804
yisi	-2805
▁Her	-2806
phatha	-2807
▁abaxhobisi	-2808
YA	-2809
▁Bar	-2810
ware	-2811
▁Par	-2812
ei	-2813
ngena	-2814
bana	-2815
▁Anti	-2816
▁ngamnye	-2817
▁ubukhulu	-2818
CA	-2819
YI	-2820
luntu	-2821
▁wabo	-2822
VN	-2823
bisa	-2824
▁ela	-2825
▁26	-2826
:3	-2827
QX	-2828
▁ana	-2829
▁iingu	-2830
▁ukugcina	-2831
▁impahla	-2832
tive	-2833
themb	-2834
Ba	-2835
lex	-2836
UYIT	-2837
chel	-2838
kethe	-2839
▁neneniso	-2840
▁zegolide	-2841
hana	-2842
ishi	-2843
▁ibh	-2844
▁mini	-2845
▁onga	-2846
thiweyo	-2847
lwanyana	-2848
ue	-2849
che	-2850
zeli	-2851
▁aya	-2852
▁obun	-2853
pakisha	-2854
gcinwa	-2855
-0	-2856
▁ukuyi	-2857
▁21	-2858
▁oyi	-2859
▁YZUY	-2860
themba	-2861
kwenzeka	-2862
BZ	-2863
fer	-2864
res	-2865
ence	-2866
nikela	-2867
Fa	-2868
GJ	-2869
WT	-2870
▁yokusebenza	-2871
▁Ar	-2872
▁Siya	-2873
uch	-2874
▁kabini	-2875
▁yokuqala	-2876
▁amaninzi	-2877
GL	-2878
chnolo	-2879
▁inductor	-2880
mal	-2881
bhedu	-2882
thuny	-2883
jekthi	-2884
linganiselo	-2885
mvu	-2886
▁Sal	-2887
▁Ukwa	-2888
chwear	-2889
▁njani	-2890
▁ukuphucula	-2891
VS	-2892
udi	-2893
zathu	-2894
▁unako	-2895
▁Beachwear	-2896
▁kanye	-2897
▁metal	-2898
gov	-2899
IZUY	-2900
▁IJ	-2901
xhomeke	-2902
meni	-2903
rho	-2904
▁ibha	-2905
kwaYuda	-2906
▁som	-2907
gcine	-2908
obu	-2909
▁Fi	-2910
▁ga	-2911
▁Lira	-2912
▁Akukho	-2913
▁ezivela	-2914
rian	-2915
angoku	-2916
▁zifektri	-2917
enzo	-2918
▁Eye	-2919
kwan	-2920
khupha	-2921
velaphi	-2922
gri	-2923
uto	-2924
-200	-2925
▁Fib	-2926
▁IRW	-2927
vator	-2928
▁Bos	-2929
ratch	-2930
▁sika	-2931
EH	-2932
▁ziji	-2933
ulumente	-2934
cebo	-2935
▁ika	-2936
▁3.	-2937
ingxuma	-2938
OX	-2939
Zi	-2940
uan	-2941
lini	-2942
zegov	-2943
zegovina	-2944
zileyo	-2945
hlawula	-2946
FF	-2947
▁Prin	-2948
UQUY	-2949
▁KUUY	-2950
▁Loku	-2951
▁waya	-2952
▁Herzegovina	-2953
▁andi	-2954
▁Bosnia	-2955
buya	-2956
▁kaY	-2957
kwaSirayeli	-2958
by	-2959
▁sol	-2960
▁Riel	-2961
▁Wire	-2962
▁eziphathekayo	-2963
ratcher	-2964
EJ	-2965
WW	-2966
▁zijikwe	-2967
▁Scratcher	-2968
YJ	-2969
▁inani	-2970
▁angama	-2971
▁Surinam	-2972
▁abangama	-2973
KM	-2974
▁:	-2975
▁Cha	-2976
▁ninga	-2977
▁endaweni	-2978
Mveliso	-2979
▁ukuvelisa	-2980
lisi	-2981
hambodiya	-2982
lind	-2983
jikeleza	-2984
▁Khambodiya	-2985
phoseni	-2986
▁kulula	-2987
akhawunti	-2988
▁bazi	-2989
chnology	-2990
¬†	-2991
pla	-2992
inch	-2993
thamo	-2994
hlweni	-2995
ruba	-2996
ziko	-2997
▁XXUY	-2998
onyaka	-2999
▁Ir	-3000
zama	-3001
thuthi	-3002
▁Kukho	-3003
▁isixa	-3004
BV	-3005
▁bona	-3006
▁evela	-3007
gging	-3008
▁nomgangatho	-3009
bang	-3010
▁ukuzi	-3011
fakwa	-3012
▁omhle	-3013
▁wi	-3014
He	-3015
taba	-3016
leyi	-3017
thweni	-3018
red	-3019
tyo	-3020
▁Len	-3021
▁Yen	-3022
▁Afri	-3023
Int	-3024
▁Wuphoseni	-3025
OU	-3026
▁#	-3027
▁Cor	-3028
olisa	-3029
Entsha	-3030
wandle	-3031
LZ	-3032
hambisa	-3033
FA	-3034
kani	-3035
sefu	-3036
▁Bir	-3037
▁Qa	-3038
▁Bhu	-3039
▁27	-3040
esho	-3041
▁nan	-3042
makhi	-3043
HD	-3044
NZ	-3045
kum	-3046
ranite	-3047
imeyile	-3048
▁Florin	-3049
▁lin	-3050
▁Inkqubo	-3051
runa	-3052
▁lwakho	-3053
hili	-3054
▁abi	-3055
ikoruna	-3056
▁Ac	-3057
UYIB	-3058
yuli	-3059
▁Eng	-3060
▁okung	-3061
dwe	-3062
khuph	-3063
▁wenze	-3064
bangela	-3065
▁Sao	-3066
▁amaxesha	-3067
▁Vi	-3068
▁eyo	-3069
▁Hong	-3070
ps	-3071
ltr	-3072
▁Nd	-3073
▁iimfuno	-3074
onasi	-3075
noloji	-3076
hlabathini	-3077
▁nguSihlalo	-3078
cah	-3079
gqibeleleyo	-3080
ondolo	-3081
▁Bhutan	-3082
ltrum	-3083
▁wendlela	-3084
chwepheshe	-3085
MX	-3086
mis	-3087
vun	-3088
IXUY	-3089
TE	-3090
dor	-3091
jiswa	-3092
profeti	-3093
BE	-3094
▁ja	-3095
▁ji	-3096
-201	-3097
▁Floor	-3098
▁amakhulu	-3099
UYUA	-3100
wayo	-3101
jwe	-3102
▁kuse	-3103
ries	-3104
thwe	-3105
Solar	-3106
xhasi	-3107
▁lama	-3108
yibili	-3109
SS	-3110
wela	-3111
yawo	-3112
▁igolide	-3113
yen	-3114
▁sta	-3115
▁legging	-3116
gidi	-3117
khono	-3118
fayile	-3119
qweno	-3120
qinileyo	-3121
▁kunokuba	-3122
▁ngaphantsi	-3123
HI	-3124
KO	-3125
▁nangona	-3126
lile	-3127
mkele	-3128
khelo	-3129
lumko	-3130
▁Badge	-3131
▁utsho	-3132
▁Uhlobo	-3133
▁abanye	-3134
▁me	-3135
▁Mal	-3136
futha	-3137
luhlu	-3138
ustom	-3139
▁zombane	-3140
FV	-3141
▁uS	-3142
Host	-3143
▁Njengoko	-3144
▁leggings	-3145
▁esandleni	-3146
▁nawe	-3147
▁imeko	-3148
khonkco	-3149
▁ehamba	-3150
Ha	-3151
▁Th	-3152
CI	-3153
gne	-3154
▁wazi	-3155
▁Brazi	-3156
bingeleli	-3157
xibelelwano	-3158
manga	-3159
▁Pakistan	-3160
JD	-3161
fri	-3162
alve	-3163
▁kunge	-3164
doba	-3165
▁esa	-3166
lingana	-3167
▁umenzi	-3168
▁Int	-3169
▁con	-3170
▁tu	-3171
thisa	-3172
▁inkxaso	-3173
▁ezintathu	-3174
khuselekileyo	-3175
BG	-3176
▁akhe	-3177
▁nathi	-3178
▁Granite	-3179
oroc	-3180
▁Set	-3181
thsaba	-3182
FT	-3183
kolo	-3184
▁x	-3185
▁‘	-3186
cedi	-3187
▁okun	-3188
file	-3189
moya	-3190
▁Ja	-3191
▁WUUY	-3192
▁Packa	-3193
▁amabini	-3194
Intanethi	-3195
▁Gol	-3196
▁ukunciphisa	-3197
HA	-3198
sindo	-3199
MS	-3200
xhasa	-3201
NV	-3202
tas	-3203
doqo	-3204
▁thina	-3205
▁uP	-3206
etro	-3207
▁ezing	-3208
misebenzi	-3209
▁kwizinga	-3210
▁umphefumlo	-3211
YZ	-3212
mene	-3213
▁baku	-3214
lawuli	-3215
Mi	-3216
Thu	-3217
▁ang	-3218
▁lwaba	-3219
▁isandla	-3220
-7	-3221
▁Kwathi	-3222
▁Malawi	-3223
hole	-3224
▁ubunzima	-3225
▁ukumelana	-3226
We	-3227
rium	-3228
orocco	-3229
▁ngokusebenzisa	-3230
FL	-3231
ms	-3232
▁28	-3233
dity	-3234
▁engena	-3235
▁kwenza	-3236
▁ukusebenzisa	-3237
▁Mar	-3238
▁East	-3239
▁yenza	-3240
▁Brazilian	-3241
,000	-3242
▁Krone	-3243
▁wenza	-3244
hlangabe	-3245
hlulo	-3246
MO	-3247
▁po	-3248
▁Kun	-3249
▁eme	-3250
▁intloko	-3251
cel	-3252
cedisi	-3253
pheleni	-3254
▁yaseMorocco	-3255
WE	-3256
lezo	-3257
elweyo	-3258
elelweyo	-3259
▁$	-3260
wesi	-3261
▁ebe	-3262
khang	-3263
▁indoda	-3264
▁ngathi	-3265
▁iikwacha	-3266
Rom	-3267
homb	-3268
zimbeni	-3269
▁umYiputa	-3270
BT	-3271
GG	-3272
▁Contro	-3273
▁abicah	-3274
IKUY	-3275
zuku	-3276
▁fa	-3277
loty	-3278
ting	-3279
wulo	-3280
▁Indian	-3281
menistan	-3282
▁ulw	-3283
▁elingum	-3284
ezi	-3285
▁Lenene	-3286
▁Iimpawu	-3287
▁Fu	-3288
veni	-3289
mbela	-3290
▁Peru	-3291
▁manat	-3292
▁ubuso	-3293
thunywa	-3294
▁Turkmenistan	-3295
uevo	-3296
▁isantya	-3297
▁welding	-3298
cipe	-3299
kise	-3300
▁kwemi	-3301
▁iba	-3302
elelana	-3303
leki	-3304
▁Ngu	-3305
▁mach	-3306
hlukileyo	-3307
eter	-3308
welo	-3309
▁Tome	-3310
▁nomakhi	-3311
99	-3312
ture	-3313
anjalo	-3314
wegian	-3315
▁Nuevo	-3316
▁Peruvian	-3317
▁[	-3318
▁da	-3319
kaThixo	-3320
▁Norwegian	-3321
Gu	-3322
SJ	-3323
veki	-3324
▁Rand	-3325
enzeka	-3326
mpompo	-3327
▁ngalo	-3328
igolide	-3329
okubamba	-3330
VA	-3331
YC	-3332
lwayo	-3333
▁Principe	-3334
▁kwiindawo	-3335
koku	-3336
mala	-3337
▁zenu	-3338
londolo	-3339
xoxo	-3340
yuni	-3341
WU	-3342
kunzi	-3343
▁dobra	-3344
YE	-3345
qam	-3346
thetheli	-3347
▁iilwimi	-3348
▁ukufikelela	-3349
zuzu	-3350
▁olun	-3351
FG	-3352
jen	-3353
dlali	-3354
marike	-3355
▁Lu	-3356
▁nk	-3357
sale	-3358
▁Tai	-3359
▁ZUOH	-3360
▁ZUOX	-3361
leyiti	-3362
▁Zloty	-3363
hishino	-3364
hlawumbi	-3365
orea	-3366
qaqa	-3367
▁elincinci	-3368
Ka	-3369
▁cu	-3370
▁Sey	-3371
andlela	-3372
zilebhu	-3373
wn	-3374
▁Uz	-3375
Press	-3376
bikho	-3377
▁Iizilebhu	-3378
▁epheleleyo	-3379
▁zombini	-3380
Li	-3381
laphu	-3382
chelles	-3383
emingxuma	-3384
▁Ra	-3385
▁Ban	-3386
▁ehlabathini	-3387
lia	-3388
▁Olu	-3389
▁kuquka	-3390
▁Seychelles	-3391
▁ukuthengiswa	-3392
HZ	-3393
zodwa	-3394
▁Electric	-3395
▁ityhubhu	-3396
DA	-3397
gqa	-3398
qongileyo	-3399
IS	-3400
zech	-3401
mas	-3402
eliswa	-3403
qanawa	-3404
▁elula	-3405
▁bahlala	-3406
ller	-3407
▁usi	-3408
ganda	-3409
▁Ubun	-3410
▁emin	-3411
▁ezise	-3412
kwandisa	-3413
os	-3414
fakelo	-3415
▁waseC	-3416
RR	-3417
LED	-3418
▁kwenu	-3419
tshabala	-3420
chiza	-3421
qhamo	-3422
tombi	-3423
▁Aruba	-3424
▁elise	-3425
▁ezingama	-3426
ULA	-3427
▁Isa	-3428
▁aphezulu	-3429
▁imvelaphi	-3430
▁ICQ	-3431
▁unyango	-3432
CJ	-3433
VV	-3434
khali	-3435
Somali	-3436
wayini	-3437
▁Serbian	-3438
qhe	-3439
▁athi	-3440
won	-3441
gent	-3442
sond	-3443
▁Packaging	-3444
▁ngesandla	-3445
▁Water	-3446
zulwini	-3447
▁waseCuba	-3448
esa	-3449
ood	-3450
▁gama	-3451
jineli	-3452
quarium	-3453
▁ngenyanga	-3454
60	-3455
La	-3456
▁Sol	-3457
bhobho	-3458
enille	-3459
▁Bluetooth	-3460
vule	-3461
▁njenga	-3462
UYX	-3463
bbe	-3464
▁va	-3465
qwalas	-3466
▁kweli	-3467
▁nokupa	-3468
▁Indlela	-3469
▁Br	-3470
fike	-3471
stani	-3472
▁kang	-3473
▁ezilungileyo	-3474
▁Bur	-3475
▁lethu	-3476
▁ekhaya	-3477
tius	-3478
tshe	-3479
gunya	-3480
▁zayo	-3481
bhotile	-3482
▁abangamaSomali	-3483
any	-3484
vange	-3485
▁ethile	-3486
▁encinane	-3487
YN	-3488
▁Sud	-3489
midlalo	-3490
xubevange	-3491
UYQ	-3492
▁noM	-3493
endawo	-3494
tseben	-3495
▁Singa	-3496
sia	-3497
angqa	-3498
zinyo	-3499
khuselo	-3500
qondiso	-3501
▁ngegama	-3502
▁ezizodwa	-3503
thambo	-3504
▁amazwe	-3505
bekistan	-3506
dia	-3507
fic	-3508
endulo	-3509
▁ababe	-3510
▁Chenille	-3511
▁ifayibha	-3512
▁Uzbekistan	-3513
bwe	-3514
ila	-3515
sel	-3516
▁sam	-3517
up	-3518
▁4.	-3519
▁CFC	-3520
tshintsho	-3521
Se	-3522
undi	-3523
mbabwe	-3524
▁ibhotile	-3525
▁Tan	-3526
▁nazo	-3527
dongwe	-3528
holesale	-3529
▁abasebenzi	-3530
GK	-3531
anish	-3532
▁ulwimi	-3533
▁jikelele	-3534
WM	-3535
weli	-3536
bingelelo	-3537
projekthi	-3538
lad	-3539
▁ad	-3540
khululekile	-3541
▁isha	-3542
▁Ghana	-3543
nam	-3544
buzo	-3545
▁UAE	-3546
bbean	-3547
▁Birr	-3548
pecial	-3549
ribbean	-3550
▁ngultrum	-3551
The	-3552
pore	-3553
wudi	-3554
bileyo	-3555
▁elikhulu	-3556
▁ukususela	-3557
▁~	-3558
fiya	-3559
kalo	-3560
khetho	-3561
▁ngako	-3562
▁iinkqubo	-3563
-8	-3564
ZE	-3565
piya	-3566
andard	-3567
amandla	-3568
angenwa	-3569
II	-3570
▁KWI	-3571
umana	-3572
▁Panel	-3573
▁Sudanese	-3574
cango	-3575
Thupha	-3576
▁yaseP	-3577
▁Mauritius	-3578
▁Ex	-3579
▁ebo	-3580
chapha	-3581
▁ngaphambi	-3582
Tiyo	-3583
lwana	-3584
Tiyopiya	-3585
▁Turkish	-3586
▁Maldi	-3587
ziwe	-3588
▁Pipe	-3589
▁Indawo	-3590
▁abantwana	-3591
▁su	-3592
qale	-3593
creen	-3594
sting	-3595
▁wayo	-3596
landela	-3597
▁Amanzi	-3598
▁Gambian	-3599
phakamisa	-3600
▁Maldivian	-3601
▁elingumTiyopiya	-3602
Na	-3603
WQ	-3604
UYV	-3605
tshwa	-3606
▁Do	-3607
▁op	-3608
engu	-3609
▁Hea	-3610
▁Caribbean	-3611
cro	-3612
▁Iing	-3613
▁trans	-3614
▁neemfuno	-3615
▁umbhobho	-3616
ary	-3617
iss	-3618
▁EyeThupha	-3619
▁lokugqibela	-3620
langeni	-3621
▁iinkcukacha	-3622
lun	-3623
▁waseChina	-3624
▁enemingxuma	-3625
lat	-3626
yusa	-3627
▁nez	-3628
▁IsiRom	-3629
▁emehlweni	-3630
HS	-3631
NE	-3632
Ra	-3633
rugua	-3634
▁ZUYO	-3635
▁elina	-3636
▁ingxowa	-3637
▁abasebenzisi	-3638
sse	-3639
▁60	-3640
▁wayi	-3641
▁umveliso	-3642
Ch	-3643
NT	-3644
-15	-3645
cwe	-3646
uti	-3647
▁Lat	-3648
qatha	-3649
▁ngomhla	-3650
ati	-3651
fiyaa	-3652
▁Brea	-3653
dityan	-3654
iselwe	-3655
▁Rufiyaa	-3656
▁Botswana	-3657
▁abavelisi	-3658
UKUY	-3659
▁cedi	-3660
▁Dalasi	-3661
▁Urugua	-3662
▁ukunga	-3663
hlamba	-3664
▁yokun	-3665
▁Zimbabwe	-3666
tek	-3667
bhin	-3668
gcwa	-3669
sela	-3670
▁yaku	-3671
▁ngemi	-3672
▁eziphezulu	-3673
▁Mol	-3674
▁Bang	-3675
terial	-3676
▁imoto	-3677
▁umxholo	-3678
▁Gro	-3679
bhonasi	-3680
thambileyo	-3681
gqu	-3682
ugu	-3683
dium	-3684
▁rate	-3685
▁ingxubevange	-3686
boa	-3687
▁IBL	-3688
zikhe	-3689
▁Ubushushu	-3690
con	-3691
▁Kwe	-3692
phelo	-3693
▁series	-3694
isha	-3695
daka	-3696
▁Balboa	-3697
▁ngamanzi	-3698
MU	-3699
vus	-3700
coce	-3701
phinde	-3702
▁uDavide	-3703
PULA	-3704
yika	-3705
ustri	-3706
▁KWIPULA	-3707
ist	-3708
▁man	-3709
▁kwegama	-3710
▁Uruguayan	-3711
ongezelelweyo	-3712
ingle	-3713
▁yemi	-3714
cebiso	-3715
▁yanga	-3716
▁Fumana	-3717
▁yokugcina	-3718
WK	-3719
▁kuqala	-3720
▁et	-3721
mbewu	-3722
omento	-3723
khokelo	-3724
▁Ngokwe	-3725
▁Unidad	-3726
cinezelo	-3727
▁Fomento	-3728
▁Iranian	-3729
kala	-3730
wina	-3731
▁baye	-3732
xulumene	-3733
▁nangoku	-3734
mpe	-3735
alelo	-3736
▁zeen	-3737
▁Breaker	-3738
Yuro	-3739
mela	-3740
gxina	-3741
▁ndiku	-3742
zamo	-3743
HL	-3744
top	-3745
▁Tr	-3746
andu	-3747
▁car	-3748
▁yasePanama	-3749
CG	-3750
qing	-3751
▁Lithu	-3752
okwenzeka	-3753
▁IP	-3754
▁Air	-3755
lishumi	-3756
tyenziswe	-3757
▁abafundi	-3758
hlula	-3759
▁South	-3760
YL	-3761
val	-3762
▁liya	-3763
▁Polish	-3764
▁Uganda	-3765
▁namhlanj	-3766
1,	-3767
ZT	-3768
qina	-3769
▁mntu	-3770
▁athile	-3771
JJ	-3772
xhomekeke	-3773
▁amalungelo	-3774
-24	-3775
▁29	-3776
Levi	-3777
▁nako	-3778
▁Ngaba	-3779
qinisekiso	-3780
tyhi	-3781
▁Sma	-3782
lando	-3783
thambisa	-3784
▁ishampu	-3785
cs	-3786
▁mm	-3787
lack	-3788
▁Litas	-3789
▁Lithuanian	-3790
FB	-3791
▁j	-3792
▁PCB	-3793
lanzi	-3794
▁umbingeleli	-3795
paji	-3796
gital	-3797
qulu	-3798
▁ali	-3799
▁yeen	-3800
▁Czech	-3801
▁Jordan	-3802
▁efanayo	-3803
his	-3804
stru	-3805
omini	-3806
▁Product	-3807
▁umhlaba	-3808
▁koonyana	-3809
rhulumente	-3810
zikhethela	-3811
yon	-3812
▁Cro	-3813
gasy	-3814
funde	-3815
onisa	-3816
hou	-3817
isweni	-3818
xelela	-3819
▁ubude	-3820
▁uko	-3821
phume	-3822
▁Mini	-3823
▁Tanz	-3824
Yurophu	-3825
YV	-3826
▁ubha	-3827
omatshini	-3828
▁Tanzanian	-3829
chanekileyo	-3830
▁kaSirayeli	-3831
▁Mex	-3832
▁nazi	-3833
ladesh	-3834
khuthaza	-3835
▁Boliviano	-3836
PH	-3837
AWG	-3838
thuli	-3839
▁esis	-3840
tshala	-3841
▁iqhosha	-3842
▁iinkonzo	-3843
fakwe	-3844
▁Taka	-3845
khowudi	-3846
▁uziphu	-3847
▁ngelixa	-3848
fili	-3849
▁lat	-3850
▁ukup	-3851
▁Salva	-3852
▁ingqondo	-3853
NS	-3854
photo	-3855
qaleni	-3856
▁njengokuba	-3857
30	-3858
net	-3859
ZXXUY	-3860
lutyo	-3861
▁nzima	-3862
▁Custom	-3863
akobi	-3864
allet	-3865
▁labo	-3866
▁wemi	-3867
▁Solve	-3868
▁waseB	-3869
lungile	-3870
DM	-3871
ler	-3872
▁0.	-3873
bber	-3874
khun	-3875
▁SPC	-3876
tanian	-3877
▁Salvador	-3878
▁Bangladesh	-3879
▁Ougu	-3880
▁Ouguiya	-3881
▁Mauritanian	-3882
Tsha	-3883
▁iku	-3884
▁bayi	-3885
phulaphu	-3886
▁eqhelekileyo	-3887
ate	-3888
▁imb	-3889
▁umlilo	-3890
▁Burundi	-3891
▁ngamandla	-3892
▁Eziikoruna	-3893
ind	-3894
hlale	-3895
▁umva	-3896
ftware	-3897
▁ngazo	-3898
▁umlando	-3899
▁Kwakhona	-3900
▁Mongo	-3901
▁nokun	-3902
▁eYerusalem	-3903
DC	-3904
keza	-3905
kuma	-3906
▁Bed	-3907
rabha	-3908
▁Colon	-3909
yunithi	-3910
▁Engange	-3911
▁ukubonisa	-3912
▁Korea	-3913
GV	-3914
-30	-3915
zambi	-3916
▁bayo	-3917
aquarium	-3918
qinisekileyo	-3919
▁nokusebenza	-3920
▁ngempumelelo	-3921
cali	-3922
▁IMB	-3923
caleni	-3924
Mozambi	-3925
cara	-3926
zeni	-3927
khiqizi	-3928
▁kuThixo	-3929
Mozambique	-3930
▁ani	-3931
▁eni	-3932
hluko	-3933
▁noko	-3934
hlangabezana	-3935
singqongileyo	-3936
phahla	-3937
▁Metical	-3938
▁waseMozambique	-3939
KX	-3940
▁Geor	-3941
kongeza	-3942
eshi	-3943
▁kwan	-3944
▁Domini	-3945
ordPress	-3946
HC	-3947
cama	-3948
lunye	-3949
▁ukusi	-3950
▁umgca	-3951
▁intliziyo	-3952
WO	-3953
WX	-3954
▁Go	-3955
tshu	-3956
Siriya	-3957
venkile	-3958
rain	-3959
site	-3960
YYZUY	-3961
▁Safe	-3962
▁Yehova	-3963
▁Yimani	-3964
▁aluminiyam	-3965
▁IsiRomanian	-3966
bene	-3967
▁ukwen	-3968
gangathweni	-3969
chas	-3970
▁kuza	-3971
▁Phili	-3972
Tshayina	-3973
qoph	-3974
wanda	-3975
dlulileyo	-3976
▁Sp	-3977
gqibo	-3978
thixo	-3979
wonye	-3980
▁yona	-3981
▁Mongolian	-3982
▁ethembekileyo	-3983
▁Ji	-3984
▁ukung	-3985
NN	-3986
BTN	-3987
keli	-3988
kodwa	-3989
▁nezixhobo	-3990
Ii	-3991
etnam	-3992
lungiswa	-3993
▁Iimveliso	-3994
elf	-3995
bheli	-3996
▁ithe	-3997
ld	-3998
grik	-3999
heet	-4000
vili	-4001
khonza	-4002
▁Tugrik	-4003
ozi	-4004
ensi	-4005
▁Pin	-4006
shiya	-4007
▁Danish	-4008
▁CNC	-4009
▁ikh	-4010
twini	-4011
▁Solo	-4012
beko	-4013
omba	-4014
qwelo	-4015
tyebi	-4016
galelo	-4017
▁Mexican	-4018
▁Dominican	-4019
enya	-4020
▁icala	-4021
cessing	-4022
struction	-4023
▁uqhagamsh	-4024
LQ	-4025
▁ine	-4026
▁Kong	-4027
mashumi	-4028
▁ukwazi	-4029
▁nezinto	-4030
Ira	-4031
▁Ari	-4032
▁Ball	-4033
▁kubalule	-4034
IV	-4035
bung	-4036
▁UAT	-4037
mbala	-4038
tetho	-4039
Nicara	-4040
Nicaragua	-4041
▁kwinqanaba	-4042
low	-4043
owa	-4044
elisa	-4045
mitha	-4046
thango	-4047
▁Ukunikela	-4048
JZ	-4049
▁besi	-4050
▁Cordoba	-4051
sebenzise	-4052
▁ngemihla	-4053
▁kwis	-4054
qeqesho	-4055
▁Taiwan	-4056
▁nokupasa	-4057
▁yolawulo	-4058
fra	-4059
thathe	-4060
veliswa	-4061
GC	-4062
swa	-4063
▁kuthetha	-4064
▁ukupeliswa	-4065
DH	-4066
TB	-4067
▁Bags	-4068
▁jama	-4069
funekayo	-4070
▁Solomon	-4071
▁Isithsaba	-4072
▁ekupheleni	-4073
cela	-4074
pper	-4075
qonga	-4076
zange	-4077
▁ulusu	-4078
▁jamaican	-4079
ky	-4080
rew	-4081
▁Ni	-4082
▁Saudi	-4083
thandayo	-4084
entengiso	-4085
thandathu	-4086
▁AmaNicaragua	-4087
yer	-4088
▁noY	-4089
fudumeza	-4090
▁iinwele	-4091
qongqo	-4092
TU	-4093
bai	-4094
▁idi	-4095
▁bani	-4096
▁Libyan	-4097
▁Singapore	-4098
▁kusetyenziswa	-4099
▁It	-4100
Iraq	-4101
Moya	-4102
ongwane	-4103
▁waseSiriya	-4104
elize	-4105
rhweba	-4106
▁Ariary	-4107
▁Malagasy	-4108
▁ephezulu	-4109
▁ezithile	-4110
▁us	-4111
stal	-4112
▁Dire	-4113
angena	-4114
▁kwezinye	-4115
wusi	-4116
zing	-4117
tshol	-4118
zerbai	-4119
camango	-4120
lungelel	-4121
▁Ukukhanya	-4122
FK	-4123
▁ngee	-4124
RS	-4125
Za	-4126
1.	-4127
Ga	-4128
ciko	-4129
▁Tun	-4130
ppines	-4131
▁nakwi	-4132
▁Ukwaleka	-4133
tsholongwane	-4134
▁Ph	-4135
LWUUY	-4136
▁ring	-4137
▁amazwi	-4138
khanyisa	-4139
▁zesilivere	-4140
engq	-4141
hambe	-4142
ustrial	-4143
▁Latvian	-4144
▁aseIraq	-4145
LV	-4146
sinyithi	-4147
▁Georgian	-4148
▁ukuhambelana	-4149
luka	-4150
rench	-4151
▁umthamo	-4152
cho	-4153
thiwe	-4154
▁Belize	-4155
zerbaijani	-4156
lee	-4157
wuli	-4158
zoba	-4159
▁sis	-4160
▁kubu	-4161
▁zika	-4162
dumiso	-4163
ort	-4164
deni	-4165
ster	-4166
shini	-4167
▁Valve	-4168
RY	-4169
▁Kha	-4170
▁Elizi	-4171
▁likaYehova	-4172
SRD	-4173
feze	-4174
▁lwee	-4175
▁yombane	-4176
▁ukuhamba	-4177
web	-4178
▁Buy	-4179
▁oma	-4180
phele	-4181
▁Stone	-4182
rd	-4183
late	-4184
▁ngaloo	-4185
cb	-4186
fani	-4187
betha	-4188
ctile	-4189
tabeni	-4190
▁imini	-4191
▁isebenzisa	-4192
▁iw	-4193
hami	-4194
▁Thina	-4195
▁iinguqu	-4196
▁ngekhompyutha	-4197
rg	-4198
dos	-4199
ilari	-4200
phala	-4201
▁ezili	-4202
▁Eliziilari	-4203
yame	-4204
leleni	-4205
▁enoku	-4206
▁ndinga	-4207
entliziyo	-4208
▁ngokunga	-4209
XHV	-4210
ell	-4211
▁Unga	-4212
bulala	-4213
hlanje	-4214
kcubeko	-4215
-12	-4216
▁31	-4217
hite	-4218
temp	-4219
urma	-4220
phaza	-4221
quare	-4222
▁Amagama	-4223
dova	-4224
isian	-4225
▁as	-4226
manzini	-4227
▁nkqubo	-4228
▁uMoses	-4229
40	-4230
ZB	-4231
▁waza	-4232
▁Ixesha	-4233
▁kusuka	-4234
teknoloji	-4235
▁Tunisian	-4236
yat	-4237
▁5.	-4238
thabathela	-4239
▁iiMveliso	-4240
▁processing	-4241
tele	-4242
▁Kyat	-4243
khatha	-4244
miselo	-4245
cry	-4246
jol	-4247
yeza	-4248
▁ukunika	-4249
▁namandla	-4250
▁mhlawumbi	-4251
▁okungangenwa	-4252
no	-4253
▁ayo	-4254
zenza	-4255
qalisa	-4256
DI	-4257
tsal	-4258
▁wenu	-4259
▁ilitye	-4260
▁â	-4261
hwe	-4262
bago	-4263
qambi	-4264
inidad	-4265
▁Direct	-4266
CE	-4267
aland	-4268
guqula	-4269
▁umbane	-4270
phozithi	-4271
SCR	-4272
inea	-4273
▁ISO	-4274
kcazo	-4275
▁Funda	-4276
▁Tobago	-4277
▁njengo	-4278
gxa	-4279
ush	-4280
anka	-4281
blogi	-4282
etter	-4283
▁Abenzi	-4284
▁Moldova	-4285
▁Trinidad	-4286
▁ndawonye	-4287
dli	-4288
▁40	-4289
▁Cle	-4290
▁Ver	-4291
▁lobu	-4292
▁mihla	-4293
▁uhambo	-4294
zukulwana	-4295
qolo	-4296
omdla	-4297
kiweyo	-4298
tshaba	-4299
mhlanje	-4300
▁waseBurma	-4301
gcali	-4302
ories	-4303
▁yenu	-4304
▁lokuba	-4305
WordPress	-4306
▁uyakwazi	-4307
indi	-4308
▁eyona	-4309
▁nabantu	-4310
▁emzimbeni	-4311
ont	-4312
▁32	-4313
▁Tra	-4314
▁Dram	-4315
cation	-4316
menian	-4317
sie	-4318
dish	-4319
▁kufa	-4320
thethe	-4321
zelayo	-4322
▁ingqalelo	-4323
▁zokubamba	-4324
NOK	-4325
▁Be	-4326
lahlwa	-4327
modyuli	-4328
Kha	-4329
ining	-4330
▁bama	-4331
mbutho	-4332
▁kumazwe	-4333
▁Material	-4334
vuma	-4335
▁Box	-4336
cid	-4337
zuzo	-4338
▁iimeko	-4339
▁Philippines	-4340
▁yaseMzantsi	-4341
GF	-4342
dlula	-4343
▁Enye	-4344
Rwanda	-4345
belana	-4346
▁amehlo	-4347
cei	-4348
▁uE	-4349
mnyama	-4350
▁eyayise	-4351
shicilelo	-4352
12	-4353
▁Du	-4354
enti	-4355
wula	-4356
mbono	-4357
▁eChina	-4358
▁stainless	-4359
▁st	-4360
▁Ber	-4361
▁iso	-4362
ohane	-4363
qanda	-4364
▁unike	-4365
inyithi	-4366
▁Indone	-4367
▁Armenian	-4368
▁Colombian	-4369
NO	-4370
Isa	-4371
gle	-4372
▁Case	-4373
▁Inter	-4374
▁abaza	-4375
bandayo	-4376
▁kushishino	-4377
op	-4378
qoqo	-4379
mbolo	-4380
▁Long	-4381
▁beku	-4382
▁Construction	-4383
atsh	-4384
▁ekun	-4385
▁Omani	-4386
▁ombane	-4387
▁ihlabathi	-4388
geria	-4389
ishwa	-4390
qinga	-4391
▁ibhetri	-4392
▁Iintsingiselo	-4393
anto	-4394
isti	-4395
▁aye	-4396
▁okwa	-4397
▁Vietnam	-4398
▁ebalulekileyo	-4399
▁Pho	-4400
▁kunoku	-4401
sity	-4402
gqith	-4403
mpilo	-4404
▁nani	-4405
yukayo	-4406
▁Liberia	-4407
loni	-4408
▁Hel	-4409
▁Thai	-4410
undoqo	-4411
▁2018.	-4412
okumkani	-4413
Bh	-4414
ira	-4415
bhan	-4416
▁Fiji	-4417
▁yayi	-4418
▁UYehova	-4419
▁Zealand	-4420
””	-4421
posi	-4422
▁sibe	-4423
▁eyayiseRwanda	-4424
MUR	-4425
SOS	-4426
fake	-4427
fundisa	-4428
wangoku	-4429
▁Access	-4430
Bho	-4431
esse	-4432
▁Gib	-4433
▁ane	-4434
isiwe	-4435
▁Esi	-4436
▁cap	-4437
qhubi	-4438
▁HXHV	-4439
▁njengen	-4440
▁ipleyiti	-4441
▁yorhwebo	-4442
▁02	-4443
▁Kw	-4444
feni	-4445
▁Ukun	-4446
▁wire	-4447
thando	-4448
▁kwamandla	-4449
YB	-4450
MVR	-4451
liyo	-4452
atshir	-4453
qophiso	-4454
▁Bonisa	-4455
Uku	-4456
tso	-4457
linye	-4458
chitha	-4459
raltar	-4460
zindlu	-4461
▁Guinea	-4462
jikeleze	-4463
sal	-4464
cudo	-4465
onto	-4466
bados	-4467
KHR	-4468
▁Rica	-4469
▁Tube	-4470
▁laba	-4471
▁nceda	-4472
thethweni	-4473
▁Gibraltar	-4474
GE	-4475
ywe	-4476
rimp	-4477
tani	-4478
yinto	-4479
▁kuyi	-4480
▁neng	-4481
AT	-4482
An	-4483
▁Lev	-4484
wenza	-4485
▁maka	-4486
▁siza	-4487
▁Motor	-4488
▁ntoni	-4489
▁Letter	-4490
▁Barbados	-4491
▁zokwakha	-4492
HH	-4493
▁mn	-4494
dlel	-4495
kiyo	-4496
▁Sri	-4497
▁Kenya	-4498
▁onoku	-4499
▁Guyana	-4500
FO	-4501
lam	-4502
yli	-4503
sweni	-4504
▁French	-4505
▁intshi	-4506
▁Phawundi	-4507
▁ngaphambili	-4508
IRR	-4509
▁Brun	-4510
▁Kuya	-4511
zandla	-4512
▁Busie	-4513
▁iintsuku	-4514
▁yodongwe	-4515
CV	-4516
MAD	-4517
MWK	-4518
hali	-4519
high	-4520
▁HNA	-4521
lango	-4522
▁ezim	-4523
indows	-4524
benzisa	-4525
▁yaseLe	-4526
▁Indonesian	-4527
▁Ngaphandle	-4528
SZ	-4529
▁Bi	-4530
▁ok	-4531
dana	-4532
elizwe	-4533
▁Lanka	-4534
▁Ad	-4535
pholisa	-4536
▁aqhelekileyo	-4537
▁ophakamileyo	-4538
git	-4539
face	-4540
onka	-4541
dlebe	-4542
Casino	-4543
▁ZUY	-4544
angweni	-4545
dlul	-4546
▁Nami	-4547
funyan	-4548
tyibili	-4549
▁ngolwa	-4550
▁komhlaba	-4551
mvo	-4552
▁Wo	-4553
▁he	-4554
▁Kip	-4555
▁Lao	-4556
zalwa	-4557
angoko	-4558
mbelelo	-4559
▁Brunei	-4560
▁Namibian	-4561
fudu	-4562
▁IMZ	-4563
jonge	-4564
thiwa	-4565
▁Bela	-4566
yalezo	-4567
▁Kristu	-4568
▁kwethu	-4569
yimfuneko	-4570
▁Stainless	-4571
BAM	-4572
XCD	-4573
▁Iib	-4574
fileyo	-4575
▁ngelo	-4576
Chinese	-4577
▁yangaphandle	-4578
Ta	-4579
lowo	-4580
▁Baht	-4581
▁Costa	-4582
▁Malay	-4583
3-	-4584
Co	-4585
mbia	-4586
▁yes	-4587
▁zizi	-4588
▁Icandelo	-4589
▁ephantsi	-4590
ins	-4591
leeve	-4592
yweni	-4593
wendwe	-4594
▁Manat	-4595
▁colon	-4596
▁Azerbaijani	-4597
atu	-4598
ttle	-4599
tywe	-4600
▁Bul	-4601
nikelo	-4602
zalise	-4603
▁Kr	-4604
ciki	-4605
zobo	-4606
▁Shi	-4607
▁UShishino	-4608
xhe	-4609
entloko	-4610
valo	-4611
vume	-4612
▁siye	-4613
Special	-4614
▁inyama	-4615
-$	-4616
▁Op	-4617
tari	-4618
banoni	-4619
ombazana	-4620
lungiselela	-4621
atch	-4622
krini	-4623
▁ukulawula	-4624
▁kumaxabiso	-4625
▁yaseLebanoni	-4626
buye	-4627
chaza	-4628
▁Giga	-4629
Nigeria	-4630
▁abafazi	-4631
▁Accessories	-4632
zakh	-4633
▁Ooo	-4634
ilder	-4635
tshuku	-4636
▁Haiti	-4637
▁North	-4638
fanelekile	-4639
▁Saint	-4640
▁ndithi	-4641
lima	-4642
dinga	-4643
▁Paci	-4644
▁kuka	-4645
keleyo	-4646
▁White	-4647
▁sleeve	-4648
▁amawaka	-4649
▁iP	-4650
laba	-4651
filimu	-4652
rusian	-4653
▁Forint	-4654
buyisela	-4655
▁Flooring	-4656
{_	-4657
▁SDR	-4658
▁kwawo	-4659
▁ngolwaa	-4660
▁ngokuzoba	-4661
ume	-4662
ngen	-4663
sila	-4664
esign	-4665
hluka	-4666
isile	-4667
▁izibane	-4668
▁ezingena	-4669
inyl	-4670
phaya	-4671
▁mnye	-4672
▁neza	-4673
shekele	-4674
bungcali	-4675
▁Belarusian	-4676
hlangana	-4677
▁emininzi	-4678
▁sentsimbi	-4679
DJ	-4680
FQ	-4681
fuma	-4682
wazi	-4683
▁Bag	-4684
▁Naira	-4685
▁engama	-4686
elekanga	-4687
▁kwinkqubo	-4688
BQ	-4689
RJ	-4690
beke	-4691
qaba	-4692
▁Dis	-4693
kwane	-4694
▁dong	-4695
▁ulwelo	-4696
3}	-4697
Bhe	-4698
RSD	-4699
phon	-4700
▁Low	-4701
▁aze	-4702
andela	-4703
anuatu	-4704
▁Cable	-4705
▁negama	-4706
▁wocingo	-4707
wholesale	-4708
▁ebusweni	-4709
▁kwakunye	-4710
▁Gigalight	-4711
▁waseNigeria	-4712
ff	-4713
▁ow	-4714
▁iwhis	-4715
▁ucingo	-4716
tshukumo	-4717
:4	-4718
jeni	-4719
khwa	-4720
mkela	-4721
celand	-4722
imeyli	-4723
▁panel	-4724
kcazelo	-4725
▁amaSirayeli	-4726
FU	-4727
PEN	-4728
dlo	-4729
eed	-4730
▁uN	-4731
olomon	-4732
▁Vanuatu	-4733
▁Lokurhweba	-4734
▁Vietnamesse	-4735
CO	-4736
-50	-4737
▁EP	-4738
▁ikakhulu	-4739
GO	-4740
Th	-4741
PKR	-4742
ydra	-4743
▁Yem	-4744
hamian	-4745
▁Bahamian	-4746
▁kwexesha	-4747
▁umboniso	-4748
▁wemikhosi	-4749
DZ	-4750
▁Sw	-4751
kuni	-4752
Congo	-4753
▁iimpahla	-4754
▁ukuhlangabezana	-4755
PR	-4756
ym	-4757
-{_	-4758
CZK	-4759
▁ZH	-4760
urde	-4761
wanka	-4762
▁Kuna	-4763
▁nabe	-4764
▁Tenge	-4765
▁Gourde	-4766
▁isipho	-4767
▁ngokulula	-4768
▁»	-4769
▁iN	-4770
Guate	-4771
▁Croati	-4772
▁Single	-4773
▁ububanzi	-4774
▁njengexabiso	-4775
LT	-4776
TZS	-4777
IBUY	-4778
▁cha	-4779
▁band	-4780
▁vatu	-4781
phantse	-4782
Guatemala	-4783
Iimveliso	-4784
ud	-4785
oogle	-4786
▁Bank	-4787
▁hayi	-4788
▁Croatian	-4789
▁nendlela	-4790
2,	-4791
▁※	-4792
INR	-4793
▁Mi	-4794
▁Quet	-4795
festile	-4796
ZHEJIANG	-4797
▁ingxelo	-4798
▁uphando	-4799
▁ZHEJIANG	-4800
yisebenzisa	-4801
▁amashishini	-4802
▁nabakhiqizi	-4803
CLF	-4804
▁You	-4805
▁data	-4806
lisayo	-4807
▁Quetzal	-4808
unaphakade	-4809
▁uhlalutyo	-4810
BRL	-4811
lath	-4812
▁Malaysin	-4813
enkcukacha	-4814
▁angamaxabiso	-4815
gram	-4816
thin	-4817
qhelo	-4818
▁Amandla	-4819
▁kwihlabathi	-4820
▁noA	-4821
bhozo	-4822
khath	-4823
▁ngezinye	-4824
gin	-4825
muda	-4826
buyela	-4827
tyibilika	-4828
UZS	-4829
ove	-4830
▁ed	-4831
▁2019	-4832
▁Yase	-4833
▁Swedish	-4834
▁kwiminyaka	-4835
▁waseGuatemala	-4836
▁the	-4837
orean	-4838
shion	-4839
▁Tala	-4840
▁inike	-4841
▁Design	-4842
▁ringgit	-4843
shicilela	-4844
▁umntwana	-4845
▁utshintsho	-4846
▁uxinzelelo	-4847
▁=	-4848
▁(1	-4849
▁He	-4850
▁Eli	-4851
▁kuloo	-4852
▁Helena	-4853
▁udonga	-4854
▁Bermuda	-4855
▁yeglasi	-4856
qhubekayo	-4857
▁umthwalo	-4858
Bhayibhile	-4859
UGX	-4860
▁35	-4861
▁Abantu	-4862
▁ikhadi	-4863
▁naseku	-4864
▁aseCongo	-4865
DV	-4866
YT	-4867
▁bra	-4868
khusele	-4869
▁mabini	-4870
▁ithetha	-4871
mgangathweni	-4872
▁Kwan	-4873
thwala	-4874
▁Pacific	-4875
▁izihlangu	-4876
able	-4877
sekethe	-4878
cwangcisa	-4879
gon	-4880
xinin	-4881
▁lili	-4882
▁nenkqubo	-4883
▁noonyana	-4884
CT	-4885
▁Krona	-4886
tsebenz	-4887
▁ukhetho	-4888
▁Sebenzisa	-4889
Zambia	-4890
liziyweni	-4891
▁ngamazwe	-4892
▁yenzelwe	-4893
angaphambili	-4894
▁isisombululo	-4895
meli	-4896
▁umzi	-4897
▁ziin	-4898
XP	-4899
qun	-4900
Yesu	-4901
sentla	-4902
▁Korean	-4903
khonkwane	-4904
EV	-4905
YUA	-4906
lesi	-4907
bumba	-4908
erian	-4909
▁Cape	-4910
▁Yima	-4911
▁Iikwacha	-4912
▁umphezulu	-4913
▁yokubamba	-4914
▁zaseZambia	-4915
tsebenziswano	-4916
EB	-4917
NB	-4918
work	-4919
aneko	-4920
▁libe	-4921
▁Proje	-4922
qoqosho	-4923
khangele	-4924
▁ngokukodwa	-4925
IQ	-4926
LYD	-4927
UYUY	-4928
▁lyu	-4929
▁IsiS	-4930
▁Yoku	-4931
▁ngabo	-4932
philayo	-4933
▁isipaji	-4934
thunyelwa	-4935
▁ngokwenene	-4936
HJ	-4937
onian	-4938
▁uzin	-4939
diliya	-4940
▁nange	-4941
gqibeleni	-4942
▁iwebhusayithi	-4943
EGP	-4944
eries	-4945
pheli	-4946
elelwa	-4947
elwane	-4948
▁kwezo	-4949
▁multi	-4950
▁Iceland	-4951
▁ukwenzela	-4952
▁ezincinane	-4953
FW	-4954
ger	-4955
▁nem	-4956
elane	-4957
▁oyile	-4958
▁Qatari	-4959
BWP	-4960
ETB	-4961
▁layo	-4962
▁nokwa	-4963
▁Yemeni	-4964
▁simahla	-4965
▁umthengisi	-4966
GMD	-4967
ryv	-4968
▁Alb	-4969
fihla	-4970
ryvnia	-4971
sional	-4972
▁micro	-4973
alumini	-4974
phakama	-4975
LO	-4976
xibelelana	-4977
lis	-4978
▁bom	-4979
▁Clear	-4980
▁motor	-4981
▁ngawo	-4982
▁inkulu	-4983
PAB	-4984
axi	-4985
vers	-4986
▁Pata	-4987
▁ziye	-4988
yanise	-4989
lexible	-4990
▁ezinoku	-4991
▁ukukhusela	-4992
4-	-4993
HV	-4994
▁lun	-4995
phone	-4996
thulu	-4997
mnandi	-4998
▁Verde	-4999
atshirt	-5000
▁Somoni	-5001
▁besithi	-5002
▁kwelanga	-5003
nu	-5004
GHS	-5005
room	-5006
▁uYo	-5007
▁Swiss	-5008
▁Afghan	-5009
▁Guilder	-5010
▁ekubeni	-5011
nikezelwa	-5012
FM	-5013
yila	-5014
▁Yabona	-5015
-40	-5016
rive	-5017
hwebo	-5018
isithi	-5019
ziwayo	-5020
▁krone	-5021
kunceda	-5022
laseleyo	-5023
▁ngokuse	-5024
▁ekhethekileyo	-5025
xheba	-5026
babini	-5027
jenjalo	-5028
thandaza	-5029
▁ebonisa	-5030
▁Albanian	-5031
▁intanethi	-5032
▁IMQ	-5033
▁ther	-5034
lawulwa	-5035
▁womntu	-5036
Bhabheli	-5037
▁matshini	-5038
▁wayesebenzisa	-5039
ww	-5040
gxo	-5041
▁IJX	-5042
▁pump	-5043
▁hlobo	-5044
▁Izinto	-5045
▁ityala	-5046
▁ngcono	-5047
din	-5048
fele	-5049
▁ipa	-5050
axial	-5051
ganeko	-5052
▁ibhodi	-5053
▁Afghani	-5054
fessional	-5055
philileyo	-5056
wankathelo	-5057
▁ezimbalwa	-5058
BOB	-5059
▁una	-5060
▁ioli	-5061
tional	-5062
▁Amaleki	-5063
SC	-5064
BDT	-5065
sis	-5066
dima	-5067
▁500	-5068
khuni	-5069
▁Leli	-5070
kelelo	-5071
▁lwama	-5072
hryvnia	-5073
▁Chinese	-5074
▁umzekelo	-5075
▁ezifanelekileyo	-5076
GU	-5077
sisi	-5078
uran	-5079
▁Bel	-5080
▁etc	-5081
▁ire	-5082
Sawule	-5083
phethe	-5084
ui	-5085
LTL	-5086
▁sh	-5087
vuka	-5088
▁eso	-5089
▁uli	-5090
matic	-5091
tyeni	-5092
▁ukum	-5093
▁wawu	-5094
gxinin	-5095
xwebhu	-5096
▁umhla	-5097
chasene	-5098
▁ezineeng	-5099
GBP	-5100
sun	-5101
▁bee	-5102
▁eba	-5103
▁nobun	-5104
▁Series	-5105
▁Umbala	-5106
qingatha	-5107
-19	-5108
caka	-5109
than	-5110
▁com	-5111
engoku	-5112
▁iziphumo	-5113
▁ngabantu	-5114
▁Umgangatho	-5115
OLV	-5116
▁eno	-5117
gerian	-5118
▁eshushu	-5119
▁nabanye	-5120
▁Isithethi	-5121
fumene	-5122
▁elowo	-5123
▁igesi	-5124
▁ngokung	-5125
▁ukutyibilika	-5126
ZO	-5127
zwana	-5128
▁Small	-5129
▁eninzi	-5130
lood	-5131
▁Ena	-5132
▁Isra	-5133
▁wawa	-5134
angeni	-5135
▁ngomn	-5136
▁escudo	-5137
▁ebusuku	-5138
▁ezenziwe	-5139
ishwankathelo	-5140
oly	-5141
belo	-5142
khala	-5143
thuma	-5144
▁kobu	-5145
xaxheba	-5146
▁yentsimbi	-5147
AED	-5148
use	-5149
hlwe	-5150
sonde	-5151
▁isebenza	-5152
kubhi	-5153
▁sama	-5154
zibuthe	-5155
▁esiphezulu	-5156
▁ezineengqayi	-5157
16	-5158
JA	-5159
xy	-5160
▁Bath	-5161
▁Algerian	-5162
Re	-5163
ering	-5164
natha	-5165
▁musa	-5166
▁kubakho	-5167
hashe	-5168
gubung	-5169
soloko	-5170
tshixo	-5171
▁benza	-5172
▁kanga	-5173
▁Israeli	-5174
▁mac	-5175
qengq	-5176
umiso	-5177
▁Bahrain	-5178
zisebenzisa	-5179
18	-5180
YIB	-5181
▁Ti	-5182
hlola	-5183
simbi	-5184
gentine	-5185
▁umyalelo	-5186
▁—	-5187
KRW	-5188
ces	-5189
lock	-5190
▁Thixo	-5191
▁izicelo	-5192
STD	-5193
ality	-5194
fikelele	-5195
▁ezisetyenziswa	-5196
IQD	-5197
foto	-5198
wder	-5199
tafile	-5200
phesheya	-5201
▁ufakelo	-5202
▁IZUY	-5203
▁linga	-5204
khundla	-5205
-25	-5206
▁IV	-5207
dibana	-5208
wisela	-5209
▁Kwanza	-5210
▁ngokuthi	-5211
▁ngonyaka	-5212
▁Technology	-5213
▁Ngokweshekele	-5214
GM	-5215
GQ	-5216
xoki	-5217
yiki	-5218
▁Den	-5219
▁zii	-5220
▁elinga	-5221
▁ihamba	-5222
▁screen	-5223
thabathe	-5224
baba	-5225
ziyo	-5226
▁Kuwa	-5227
▁entle	-5228
mbhobho	-5229
▁okulungileyo	-5230
orha	-5231
reet	-5232
zhou	-5233
hushu	-5234
▁Yuan	-5235
pozithi	-5236
FX	-5237
▁kubun	-5238
▁kuyilo	-5239
▁inxalenye	-5240
hlungu	-5241
▁Fiber	-5242
▁ngubani	-5243
qobo	-5244
▁zazo	-5245
garian	-5246
kwenene	-5247
luncedo	-5248
▁ibhegi	-5249
▁Kuwaiti	-5250
del	-5251
tyh	-5252
yis	-5253
QSFP	-5254
debe	-5255
▁Ezinye	-5256
▁rgentine	-5257
SV	-5258
▁Auto	-5259
▁carbon	-5260
▁ecacileyo	-5261
▁ukwandisa	-5262
OLAS	-5263
▁Sengoku	-5264
▁eyenziwe	-5265
PLN	-5266
yiwe	-5267
▁zise	-5268
▁Khawu	-5269
▁Siyazikhethela	-5270
",	-5271
PHP	-5272
lip	-5273
▁Pie	-5274
▁uno	-5275
cimbi	-5276
▁100%	-5277
▁UQUY	-5278
▁cuke	-5279
▁ezisi	-5280
▁Pataca	-5281
DOP	-5282
coko	-5283
▁inter	-5284
▁kwazo	-5285
kubhite	-5286
▁zwi	-5287
mpira	-5288
thotho	-5289
▁brand	-5290
▁nezin	-5291
▁Lempira	-5292
▁intambo	-5293
▁macanese	-5294
▁umthengi	-5295
Di	-5296
NU	-5297
YIT	-5298
alk	-5299
ton	-5300
▁Es	-5301
xibe	-5302
wuphi	-5303
▁ndin	-5304
khongo	-5305
▁ngokom	-5306
▁ezikhoyo	-5307
▁eb	-5308
lambo	-5309
▁Abafazi	-5310
▁emanzini	-5311
▁45	-5312
gwen	-5313
gqibe	-5314
▁umda	-5315
bhetri	-5316
Ze	-5317
UYM	-5318
base	-5319
iner	-5320
▁alu	-5321
chuku	-5322
▁Hond	-5323
▁lwes	-5324
▁Fibre	-5325
▁uPatch	-5326
▁Honduran	-5327
KP	-5328
Faro	-5329
leli	-5330
mboo	-5331
zona	-5332
aliti	-5333
lator	-5334
mveli	-5335
▁bezi	-5336
guquli	-5337
kwenkwe	-5338
▁ezantsi	-5339
▁koYehova	-5340
Gi	-5341
▁ta	-5342
vice	-5343
▁bag	-5344
usani	-5345
▁Best	-5346
▁nkqo	-5347
▁ithuba	-5348
▁ephakamileyo	-5349
▁kubalulekile	-5350
qum	-5351
quip	-5352
yint	-5353
▁Gym	-5354
▁Utsho	-5355
▁Afrika	-5356
▁umng	-5357
braham	-5358
dileyo	-5359
funayo	-5360
▁ngosuku	-5361
▁iingxaki	-5362
BZD	-5363
▁Jo	-5364
▁bi	-5365
xenye	-5366
▁ubum	-5367
▁abang	-5368
▁ngaye	-5369
▁zokusebenza	-5370
RD	-5371
NIO	-5372
ner	-5373
▁acid	-5374
zemidlalo	-5375
JH	-5376
quba	-5377
▁tye	-5378
▁ibhola	-5379
as	-5380
Fil	-5381
enk	-5382
ergy	-5383
fama	-5384
xesh	-5385
▁Net	-5386
▁bhe	-5387
▁iip	-5388
▁iqa	-5389
▁ekwa	-5390
▁ukudla	-5391
▁isiseko	-5392
IU	-5393
boni	-5394
mpuma	-5395
dibene	-5396
ombolo	-5397
OLASOLV	-5398
▁Umzekelo	-5399
var	-5400
wabo	-5401
tyana	-5402
▁amava	-5403
entetho	-5404
▁iintlanga	-5405
▁yesikhumba	-5406
▁isetyenziswa	-5407
MZN	-5408
SYP	-5409
xeko	-5410
jenge	-5411
▁Test	-5412
▁athe	-5413
dibano	-5414
▁Igama	-5415
▁yintoni	-5416
thelekiswa	-5417
▁iibhotile	-5418
9.	-5419
JL	-5420
buza	-5421
▁akayi	-5422
▁igazi	-5423
▁ingxaki	-5424
GW	-5425
VP	-5426
mar	-5427
peed	-5428
liphi	-5429
▁Loti	-5430
▁yedi	-5431
▁zawo	-5432
▁machine	-5433
IO	-5434
Sh	-5435
col	-5436
lwen	-5437
▁Lin	-5438
▁YIB	-5439
elani	-5440
tshan	-5441
▁sase	-5442
entlalo	-5443
vavanya	-5444
▁ukufunda	-5445
RL	-5446
all	-5447
bhaka	-5448
eremi	-5449
BX	-5450
ZQ	-5451
ream	-5452
xobo	-5453
▁iphi	-5454
▁Antil	-5455
▁eliseN	-5456
▁Iphepha	-5457
▁yenziwe	-5458
RA	-5459
▁KUY	-5460
▁Sho	-5461
▁tube	-5462
▁zentsimbi	-5463
epal	-5464
liti	-5465
oran	-5466
▁Gul	-5467
▁Uze	-5468
▁ikha	-5469
▁kuzi	-5470
▁kwing	-5471
▁lwesi	-5472
▁manzi	-5473
ZU	-5474
sti	-5475
ishe	-5476
▁Oli	-5477
▁Musa	-5478
orhwebo	-5479
▁Africa	-5480
omi	-5481
anse	-5482
mile	-5483
▁eban	-5484
▁ndim	-5485
▁uyise	-5486
thandwa	-5487
▁namadoda	-5488
khuphiswano	-5489
▁eliseNepal	-5490
▁ukubonelela	-5491
Ja	-5492
001	-5493
▁LCD	-5494
thoba	-5495
▁ekho	-5496
▁Label	-5497
▁imilo	-5498
▁umfazi	-5499
▁impompo	-5500
EUR	-5501
lizwe	-5502
▁IXUY	-5503
▁Lift	-5504
▁saba	-5505
Google	-5506
kunene	-5507
modeli	-5508
▁nding	-5509
▁Comoran	-5510
▁incwadi	-5511
▁izakhiwo	-5512
pr	-5513
MXN	-5514
ents	-5515
▁niya	-5516
liaanse	-5517
lwandle	-5518
▁Gulden	-5519
▁ecaleni	-5520
▁phantse	-5521
▁nkampani	-5522
vulekileyo	-5523
▁Antilliaanse	-5524
15	-5525
NQ	-5526
▁Am	-5527
luvo	-5528
zeki	-5529
▁Han	-5530
magne	-5531
sinye	-5532
▁ithi	-5533
▁undi	-5534
khathal	-5535
qhubeke	-5536
▁Bottle	-5537
▁aluminium	-5538
▁Jet	-5539
▁Kit	-5540
lenza	-5541
▁okwe	-5542
antoni	-5543
phambu	-5544
thembeka	-5545
▁kwimeko	-5546
▁amalungu	-5547
▁kwixesha	-5548
▁yemveliso	-5549
GX	-5550
BIF	-5551
CUP	-5552
JOD	-5553
sic	-5554
▁use	-5555
oyise	-5556
thali	-5557
▁luya	-5558
▁IVinyl	-5559
▁umlomo	-5560
▁ibandla	-5561
▁iindaba	-5562
28	-5563
PZ	-5564
TO	-5565
tyle	-5566
etros	-5567
glass	-5568
hombisa	-5569
khuphela	-5570
▁namanye	-5571
▁kwamanzi	-5572
▁ngalinye	-5573
▁Sweatshirt	-5574
▁umfanekiso	-5575
▁imifanekiso	-5576
SAR	-5577
ness	-5578
▁YIT	-5579
Ngesi	-5580
▁zendalo	-5581
sebenzini	-5582
phulaphuli	-5583
▁pi	-5584
jithali	-5585
▁omtsha	-5586
hlambulu	-5587
▁kukuthi	-5588
ks	-5589
ide	-5590
pti	-5591
bouti	-5592
▁ezis	-5593
Ngqina	-5594
▁kwela	-5595
dongeni	-5596
▁kufumana	-5597
TRY	-5598
ohn	-5599
boya	-5600
▁IJQ	-5601
▁fil	-5602
bonwa	-5603
bhetye	-5604
▁Digital	-5605
▁kwicala	-5606
RWF	-5607
YUY	-5608
engo	-5609
kali	-5610
▁Sub	-5611
lwane	-5612
onaphakade	-5613
SBD	-5614
nge	-5615
yele	-5616
futhe	-5617
fayili	-5618
alkland	-5619
jibouti	-5620
shicilelwe	-5621
YO	-5622
▁On	-5623
bamb	-5624
gcini	-5625
▁Cana	-5626
▁Isefu	-5627
▁esing	-5628
entlanga	-5629
▁yendalo	-5630
▁Djibouti	-5631
▁kwenzeka	-5632
BM	-5633
▁Gold	-5634
hangela	-5635
▁Bulgarian	-5636
▁zobugcisa	-5637
ZM	-5638
MMK	-5639
doma	-5640
lanu	-5641
▁yawo	-5642
boniso	-5643
gwenxa	-5644
▁bantu	-5645
▁Izibane	-5646
▁izandla	-5647
▁ukwakha	-5648
BO	-5649
▁rh	-5650
xeba	-5651
▁khe	-5652
tsala	-5653
▁baza	-5654
▁abayi	-5655
vakalelo	-5656
▁Falkland	-5657
▁emhlophe	-5658
XAU	-5659
▁Mna	-5660
bheja	-5661
shuwa	-5662
vumba	-5663
▁okunga	-5664
▁ndizayo	-5665
▁kunokwenzeka	-5666
BU	-5667
Me	-5668
▁(2	-5669
lani	-5670
▁pre	-5671
bukhulu	-5672
dwendwe	-5673
mfuneko	-5674
thumele	-5675
singatha	-5676
vuzo	-5677
▁Ewe	-5678
▁YUA	-5679
▁yamanzi	-5680
▁Electronic	-5681
Jam	-5682
jika	-5683
qengqele	-5684
MNT	-5685
SVC	-5686
▁33	-5687
erti	-5688
▁elizayo	-5689
▁kuhlala	-5690
bhaliweyo	-5691
▁yokwakha	-5692
JV	-5693
Funda	-5694
uches	-5695
▁yalo	-5696
▁Leone	-5697
thiwekhi	-5698
▁Pouches	-5699
);	-5700
TND	-5701
eld	-5702
ghts	-5703
sebe	-5704
▁And	-5705
▁yeN	-5706
▁Deep	-5707
▁kwalo	-5708
▁Controller	-5709
yman	-5710
zuko	-5711
▁yazo	-5712
▁Screw	-5713
mpendulo	-5714
yisekile	-5715
krelekrele	-5716
ls	-5717
RON	-5718
▁34	-5719
▁Multi	-5720
▁wazala	-5721
bungqina	-5722
dlelwane	-5723
▁Elevator	-5724
ot	-5725
loba	-5726
seva	-5727
▁Rol	-5728
▁mzi	-5729
engubo	-5730
verter	-5731
▁uyazi	-5732
▁ebomini	-5733
▁ngezinto	-5734
NK	-5735
▁Fan	-5736
▁Head	-5737
tywina	-5738
▁amafutha	-5739
▁ukuthetha	-5740
▁by	-5741
siko	-5742
▁Non	-5743
puter	-5744
▁wona	-5745
▁anama	-5746
Filisti	-5747
▁rhanga	-5748
▁ekuqaleni	-5749
13	-5750
8,	-5751
CS	-5752
WP	-5753
WDM	-5754
pcs	-5755
▁CA	-5756
liswe	-5757
▁edfa	-5758
tsapho	-5759
▁ubuchule	-5760
▁yokwenza	-5761
▁ngeendlela	-5762
▁ukuthintela	-5763
AMD	-5764
TMT	-5765
tate	-5766
ssero	-5767
tsimi	-5768
keliso	-5769
▁Equip	-5770
▁lwezi	-5771
▁ukufa	-5772
MRO	-5773
cang	-5774
licon	-5775
phile	-5776
▁Izin	-5777
ziweyo	-5778
▁Youko	-5779
▁abazi	-5780
▁ngesantya	-5781
▁ngonaphakade	-5782
board	-5783
enezu	-5784
mpuli	-5785
wulos	-5786
▁Eyona	-5787
tshanje	-5788
enezuela	-5789
funyanwa	-5790
▁Ishicilelwe	-5791
▁ekhuselekileyo	-5792
kom	-5793
lori	-5794
yenze	-5795
▁Gear	-5796
▁IKUY	-5797
yiweyo	-5798
▁Hunga	-5799
▁Kazakh	-5800
▁banoku	-5801
khawulezayo	-5802
▁Industrial	-5803
LE	-5804
way	-5805
▁ti	-5806
erte	-5807
▁emo	-5808
▁ind	-5809
gwebu	-5810
▁UYUA	-5811
Ngcwele	-5812
▁lwethu	-5813
hanjiswa	-5814
▁emfutshane	-5815
▁IN	-5816
iler	-5817
▁oya	-5818
hland	-5819
▁olung	-5820
fanekis	-5821
RH	-5822
RV	-5823
▁CE	-5824
▁kha	-5825
butho	-5826
sserole	-5827
▁uninzi	-5828
▁zitsha	-5829
fumanisa	-5830
vumelwano	-5831
▁amanqaku	-5832
NM	-5833
DKK	-5834
SGD	-5835
vuza	-5836
▁iseti	-5837
▁Cayman	-5838
▁iiyure	-5839
▁esebenzayo	-5840
NF	-5841
ZK	-5842
cer	-5843
mart	-5844
sele	-5845
then	-5846
▁Res	-5847
▁ezu	-5848
mvelo	-5849
qhubu	-5850
▁lwam	-5851
▁ungum	-5852
▁isakhelo	-5853
▁kwabantu	-5854
▁zonyango	-5855
JE	-5856
BSD	-5857
THB	-5858
▁Key	-5859
mbula	-5860
▁kuna	-5861
zuzwana	-5862
▁ingubo	-5863
qabileyo	-5864
▁kungekho	-5865
phulaphula	-5866
▁ingakumbi	-5867
BK	-5868
Lu	-5869
vol	-5870
milo	-5871
fazwe	-5872
kethi	-5873
troni	-5874
▁Aman	-5875
Jamani	-5876
▁Hungarian	-5877
NW	-5878
JMD	-5879
cle	-5880
rade	-5881
sign	-5882
vala	-5883
zila	-5884
▁ona	-5885
▁ying	-5886
bucala	-5887
▁imibuzo	-5888
▁ukubona	-5889
▁isiguquli	-5890
GEL	-5891
LVL	-5892
benza	-5893
▁brace	-5894
▁Hosting	-5895
▁zehlabathi	-5896
Yo	-5897
MDL	-5898
icro	-5899
▁Door	-5900
▁lawo	-5901
▁ezizi	-5902
▁iliso	-5903
▁ndiba	-5904
▁kunene	-5905
▁ukudala	-5906
▁njengesi	-5907
▁emsebenzini	-5908
Ro	-5909
CLP	-5910
ether	-5911
▁esisi	-5912
mpazamo	-5913
phathwa	-5914
qhutywa	-5915
simahla	-5916
Venezuela	-5917
▁amacandelo	-5918
LKR	-5919
MGA	-5920
rami	-5921
▁300	-5922
diweyo	-5923
▁Nkosi	-5924
▁umkhonzi	-5925
▁Umfanekiso	-5926
▁kweminyaka	-5927
NX	-5928
COP	-5929
▁fra	-5930
krola	-5931
phunga	-5932
ziselo	-5933
▁isiphumo	-5934
▁Okulandelayo	-5935
▁PC	-5936
elika	-5937
luphi	-5938
sibini	-5939
troniki	-5940
▁yabantu	-5941
▁Ibhokisi	-5942
cocekileyo	-5943
▁ngukumkani	-5944
▁zoshishino	-5945
zis	-5946
reyi	-5947
ydrau	-5948
▁ziza	-5949
▁ndiyi	-5950
▁Iqhubu	-5951
▁sokuba	-5952
▁icandelo	-5953
TX	-5954
▁usa	-5955
▁Yiba	-5956
▁buka	-5957
phumelele	-5958
▁Ikhasino	-5959
ZMW	-5960
bawo	-5961
▁une	-5962
▁benu	-5963
▁ethu	-5964
anduva	-5965
▁camera	-5966
khumbula	-5967
▁Bolivar	-5968
▁Imisela	-5969
TK	-5970
yr	-5971
hon	-5972
▁DC	-5973
cket	-5974
enera	-5975
▁leen	-5976
hlandlo	-5977
▁esinye	-5978
▁Control	-5979
▁ebandayo	-5980
▁lentetho	-5981
▁Casserole	-5982
kumgangatho	-5983
▁iteknoloji	-5984
▁ukupakisha	-5985
▁zokhuseleko	-5986
▁al	-5987
▁Into	-5988
▁ububi	-5989
▁isibane	-5990
▁Itshathi	-5991
▁umahluko	-5992
11	-5993
UAH	-5994
VUV	-5995
ges	-5996
▁Yo	-5997
▁Por	-5998
mbuzo	-5999
▁iwhisky	-6000
▁Kazakhstani	-6001
OMR	-6002
USD	-6003
esis	-6004
mbon	-6005
▁imo	-6006
▁ling	-6007
misonto	-6008
qhekeza	-6009
▁Street	-6010
▁nexesha	-6011
thunyelwe	-6012
TQ	-6013
AUD	-6014
Neon	-6015
qesh	-6016
▁Var	-6017
kondla	-6018
▁Photo	-6019
▁eline	-6020
▁ilifa	-6021
▁ofisi	-6022
▁Lilangeni	-6023
▁inkcubeko	-6024
▁nokumelana	-6025
▁elifutshane	-6026
25	-6027
Go	-6028
IDR	-6029
▁enze	-6030
▁nesa	-6031
honasi	-6032
tshisa	-6033
▁Ngako	-6034
▁Yonke	-6035
khankan	-6036
▁Fuerte	-6037
▁izityalo	-6038
▁YaseVenezuela	-6039
MYR	-6040
ency	-6041
sari	-6042
▁iziko	-6043
▁yokwa	-6044
ktroniki	-6045
▁amazinyo	-6046
yus	-6047
reat	-6048
▁eye	-6049
peyin	-6050
▁MUYO	-6051
thanga	-6052
▁Flood	-6053
▁Yenza	-6054
▁neent	-6055
lindele	-6056
▁igumbi	-6057
kwaneleyo	-6058
▁eM	-6059
xham	-6060
mpulu	-6061
▁Poly	-6062
▁yeng	-6063
▁ikhaya	-6064
▁umkhosi	-6065
▁isikhumba	-6066
▁ubungqina	-6067
▁technology	-6068
▁eziqhelekileyo	-6069
Ru	-6070
nc	-6071
BBD	-6072
▁End	-6073
▁Wena	-6074
phumla	-6075
thethayo	-6076
▁Colored	-6077
▁ukhuselo	-6078
ZW	-6079
100	-6080
▁ac	-6081
ento	-6082
ving	-6083
xumi	-6084
vutha	-6085
yihlo	-6086
kezela	-6087
▁Casino	-6088
ydraulic	-6089
▁Elastic	-6090
khethiweyo	-6091
▁ukusifaka	-6092
BUY	-6093
XOF	-6094
dis	-6095
ydro	-6096
ester	-6097
▁Idolo	-6098
▁photo	-6099
▁Projectile	-6100
▁lihambelana	-6101
dom	-6102
gozi	-6103
susa	-6104
wada	-6105
bamba	-6106
hlela	-6107
inako	-6108
▁ekhoyo	-6109
▁ilanga	-6110
mpembelelo	-6111
▁kukumkani	-6112
▁ngexabiso	-6113
▁eN	-6114
▁Top	-6115
▁siko	-6116
▁inika	-6117
▁nento	-6118
▁ndingu	-6119
▁amancinci	-6120
▁nemveliso	-6121
▁ukwenziwa	-6122
JC	-6123
▁uni	-6124
bhali	-6125
▁Black	-6126
▁akuyi	-6127
▁nguye	-6128
Pawulos	-6129
landeli	-6130
sebenze	-6131
▁lwakhe	-6132
▁iwayini	-6133
▁Bathroom	-6134
▁ngokwemi	-6135
▁ebantwini	-6136
9,	-6137
95	-6138
IP	-6139
LBP	-6140
ssa	-6141
▁Ani	-6142
▁YUY	-6143
manci	-6144
yathela	-6145
▁kwizinto	-6146
▁ikhandlela	-6147
BYR	-6148
ora	-6149
taka	-6150
zanga	-6151
phumeza	-6152
▁bephosa	-6153
▁Isixhobo	-6154
▁umphathi	-6155
▁inxaxheba	-6156
".	-6157
NAD	-6158
ileta	-6159
▁iibh	-6160
▁waku	-6161
▁ayina	-6162
▁sheet	-6163
▁yenye	-6164
xanduva	-6165
phuhlisa	-6166
▁Varsity	-6167
▁usebenzise	-6168
BGN	-6169
▁bes	-6170
tyiswa	-6171
▁sonke	-6172
qwenela	-6173
▁namnye	-6174
▁sinoku	-6175
qengqeleki	-6176
▁ngezantsi	-6177
▁iinkampani	-6178
qule	-6179
zane	-6180
omlomo	-6181
▁Golden	-6182
▁uncedo	-6183
khutshwa	-6184
▁kananjalo	-6185
bandakanywa	-6186
▁kwimveliso	-6187
Ar	-6188
DL	-6189
HTG	-6190
TTD	-6191
jus	-6192
mium	-6193
onde	-6194
khany	-6195
nceda	-6196
ulula	-6197
▁Play	-6198
bhenge	-6199
kholwa	-6200
kholelwa	-6201
▁zitshajwe	-6202
▁ebonakalayo	-6203
▁umsebenzisi	-6204
cm	-6205
LAK	-6206
tton	-6207
suswa	-6208
phakhe	-6209
isebenze	-6210
▁olubanzi	-6211
▁Inkampani	-6212
▁kwishishini	-6213
YQ	-6214
YU	-6215
Asi	-6216
QAR	-6217
She	-6218
gyz	-6219
▁El	-6220
tloko	-6221
yrgyz	-6222
zelwe	-6223
▁Maced	-6224
▁emnyango	-6225
▁isithuba	-6226
mber	-6227
zenz	-6228
sonic	-6229
ziswa	-6230
bandla	-6231
▁enesi	-6232
▁naziphi	-6233
km	-6234
XDR	-6235
umo	-6236
▁TM	-6237
yeke	-6238
bande	-6239
▁Hair	-6240
▁Iint	-6241
▁akwa	-6242
tshiza	-6243
▁Denar	-6244
▁Bamboo	-6245
qathango	-6246
▁kubantu	-6247
langaniso	-6248
▁Macedonian	-6249
▁ekugqibeleni	-6250
-16	-6251
▁Loo	-6252
▁Woo	-6253
▁zeB	-6254
funxa	-6255
gwebo	-6256
songa	-6257
trans	-6258
gcinwe	-6259
qinile	-6260
▁Ukuzi	-6261
▁ukuqonda	-6262
▁ephambili	-6263
▁imithetho	-6264
TW	-6265
OUY	-6266
YER	-6267
xwe	-6268
njalo	-6269
▁Fence	-6270
▁wakwa	-6271
fundiso	-6272
▁Kyrgyz	-6273
▁Kyrgyzstani	-6274
▁isicwangciso	-6275
Aron	-6276
bali	-6277
▁UDT	-6278
ketho	-6279
qonde	-6280
▁Coin	-6281
▁UKUY	-6282
▁kusi	-6283
▁zing	-6284
baluleke	-6285
▁ngokucacileyo	-6286
KES	-6287
ings	-6288
kwin	-6289
zali	-6290
cangca	-6291
misela	-6292
tshato	-6293
▁Model	-6294
zakhiwo	-6295
wesileyo	-6296
▁Yintoni	-6297
▁kubonakala	-6298
jelo	-6299
unge	-6300
▁ekr	-6301
▁ozi	-6302
▁Baya	-6303
elaphu	-6304
sikweni	-6305
▁begama	-6306
hlaziywa	-6307
▁kubathengi	-6308
▁mqengqeleki	-6309
ala	-6310
boka	-6311
shin	-6312
tsika	-6313
▁siku	-6314
phonon	-6315
▁lizwe	-6316
▁ezulwini	-6317
▁ngaphaya	-6318
mpumalanga	-6319
▁endleleni	-6320
jo	-6321
▁Ok	-6322
▁lw	-6323
cima	-6324
▁Gri	-6325
ingxobo	-6326
▁yeyona	-6327
▁zinoku	-6328
thambiso	-6329
▁yangoku	-6330
▁36	-6331
thole	-6332
tyatya	-6333
▁uhamb	-6334
▁Umsebenzi	-6335
▁entliziyweni	-6336
EE	-6337
sor	-6338
qubu	-6339
▁Ang	-6340
▁Slo	-6341
▁oba	-6342
bhinq	-6343
jikis	-6344
tshiswa	-6345
sixhenxe	-6346
thandazo	-6347
▁elinyukayo	-6348
MP	-6349
ids	-6350
▁mb	-6351
▁Ita	-6352
▁Back	-6353
▁wobu	-6354
▁yint	-6355
jikelo	-6356
▁abane	-6357
▁Tajikis	-6358
▁standard	-6359
▁ngentsimbi	-6360
▁Tajikistani	-6361
TOP	-6362
sayi	-6363
hlolo	-6364
▁live	-6365
gqitha	-6366
qiweyo	-6367
vumele	-6368
▁Nokuba	-6369
▁emveni	-6370
▁nabesi	-6371
▁namhla	-6372
anasonic	-6373
justable	-6374
▁ezintle	-6375
▁njengoku	-6376
zel	-6377
tary	-6378
vuya	-6379
▁iko	-6380
phose	-6381
ramidi	-6382
▁param	-6383
▁kumatshini	-6384
▁oyiNgcwele	-6385
▁ngokwaneleyo	-6386
▁kwiwebhusayithi	-6387
Khu	-6388
Web	-6389
win	-6390
bise	-6391
prin	-6392
hhala	-6393
▁Uyilo	-6394
▁benze	-6395
lwakhiwo	-6396
▁iingubo	-6397
▁umaleko	-6398
▁uphuhliso	-6399
pt	-6400
Bhen	-6401
tamo	-6402
ukuba	-6403
▁touch	-6404
lonyeni	-6405
▁Energy	-6406
▁ngokunjalo	-6407
Uni	-6408
port	-6409
▁sing	-6410
enzhen	-6411
esenti	-6412
qwenga	-6413
mbulula	-6414
zalwane	-6415
qokelela	-6416
▁wokuqala	-6417
▁ababingeleli	-6418
▁izicwangciso	-6419
lom	-6420
ments	-6421
▁baby	-6422
▁epho	-6423
▁isin	-6424
▁Trans	-6425
▁kuthe	-6426
zimeleyo	-6427
▁elevator	-6428
khongozeli	-6429
▁nabesilisa	-6430
RI	-6431
VPS	-6432
gqo	-6433
OCKS	-6434
band	-6435
▁ser	-6436
phath	-6437
▁benga	-6438
▁Ukongeza	-6439
▁ukutshintsha	-6440
▁kuzisebenzisa	-6441
ah	-6442
oz	-6443
car	-6444
▁Fo	-6445
▁RF	-6446
vuyo	-6447
▁USB	-6448
bhola	-6449
gusha	-6450
▁logo	-6451
▁injongo	-6452
CP	-6453
tors	-6454
yazi	-6455
▁ndo	-6456
fakam	-6457
sango	-6458
▁Brand	-6459
▁Phaka	-6460
eremiya	-6461
kunkuma	-6462
phelisa	-6463
▁Groove	-6464
▁engcono	-6465
fakamfele	-6466
▁nguThixo	-6467
anamhlanje	-6468
▁eludongeni	-6469
▁kubandakanya	-6470
JO	-6471
LRD	-6472
arh	-6473
hanya	-6474
place	-6475
▁Umntu	-6476
▁efana	-6477
qan	-6478
hlali	-6479
▁enge	-6480
▁wasi	-6481
bonani	-6482
khululo	-6483
▁neengxa	-6484
anan	-6485
cola	-6486
ziso	-6487
▁Bit	-6488
zinda	-6489
▁Easy	-6490
▁Bonke	-6491
▁imizi	-6492
▁zobun	-6493
▁mkhulu	-6494
bandakanye	-6495
isebenzise	-6496
▁ukuthengisa	-6497
HUF	-6498
ero	-6499
▁wan	-6500
danga	-6501
nyama	-6502
▁iisa	-6503
▁izwi	-6504
caciso	-6505
▁Bathi	-6506
fundisi	-6507
Bawo	-6508
quku	-6509
gorha	-6510
shisa	-6511
▁nawo	-6512
endele	-6513
▁lokucoca	-6514
▁amaxabiso	-6515
):	-6516
.0	-6517
:5	-6518
Ge	-6519
TP	-6520
ii	-6521
TWD	-6522
onwa	-6523
qiqo	-6524
tyho	-6525
zisi	-6526
inika	-6527
mvaka	-6528
▁modu	-6529
ilding	-6530
▁Screen	-6531
▁kwenye	-6532
▁intombi	-6533
▁entlango	-6534
CHF	-6535
▁fu	-6536
▁omn	-6537
▁ose	-6538
ofisi	-6539
tshon	-6540
▁bubu	-6541
▁nango	-6542
bangelwa	-6543
dumileyo	-6544
▁zeglasi	-6545
▁Flexible	-6546
▁amathathu	-6547
▁engundoqo	-6548
CRC	-6549
amu	-6550
rhu	-6551
funi	-6552
▁Nak	-6553
yiswa	-6554
catshu	-6555
kokuqala	-6556
▁nophuhliso	-6557
HRK	-6558
▁AC	-6559
fono	-6560
▁web	-6561
▁mali	-6562
▁test	-6563
▁Arani	-6564
▁Board	-6565
▁Parts	-6566
melwane	-6567
▁uzinzo	-6568
▁eYiputa	-6569
▁ividiyo	-6570
londolozo	-6571
▁Canadian	-6572
▁entabeni	-6573
▁olukhulu	-6574
▁neengxakana	-6575
▁yokuthengisa	-6576
3,	-6577
YF	-6578
DZD	-6579
papa	-6580
▁WUY	-6581
▁ingaba	-6582
xeshanye	-6583
▁ukhethe	-6584
singathwa	-6585
▁imfuneko	-6586
▁iphiramidi	-6587
."	-6588
JPY	-6589
NZD	-6590
SEK	-6591
▁eS	-6592
coin	-6593
ontelo	-6594
▁esinga	-6595
▁ukufaka	-6596
▁kubunzulu	-6597
qadi	-6598
▁BUY	-6599
▁Oko	-6600
▁een	-6601
▁bali	-6602
▁iise	-6603
▁Nakfa	-6604
hlwempu	-6605
▁kwezinto	-6606
BND	-6607
ese	-6608
uwa	-6609
▁Za	-6610
▁Line	-6611
▁lona	-6612
▁ungu	-6613
▁SOCKS	-6614
hombiso	-6615
▁encinci	-6616
▁nenceba	-6617
▁Ihryvnia	-6618
▁ukunceda	-6619
4,	-6620
RZ	-6621
HKD	-6622
tis	-6623
dili	-6624
▁amatye	-6625
▁inzuzo	-6626
▁thermal	-6627
▁yenziwa	-6628
▁esisangqa	-6629
▁yoshicilelo	-6630
BHD	-6631
GTQ	-6632
ZWL	-6633
sono	-6634
▁best	-6635
phupha	-6636
▁lakwa	-6637
luminium	-6638
▁Ixabiso	-6639
▁kubekho	-6640
▁uKristu	-6641
▁Imidlalo	-6642
▁kaDavide	-6643
▁sebenzisa	-6644
▁kuthelekiswa	-6645
AZN	-6646
GYD	-6647
KMF	-6648
put	-6649
ones	-6650
▁auto	-6651
khuphe	-6652
qinisa	-6653
▁ndiza	-6654
▁ngeng	-6655
cturing	-6656
▁square	-6657
▁imibala	-6658
▁kwenziwa	-6659
▁asixhenxe	-6660
▁emlonyeni	-6661
▁ezikumgangatho	-6662
YX	-6663
KWD	-6664
VND	-6665
eno	-6666
▁sp	-6667
ququ	-6668
xiba	-6669
meled	-6670
▁kune	-6671
▁yezo	-6672
onyama	-6673
khoboka	-6674
▁yomntu	-6675
tsontelo	-6676
▁ingxolo	-6677
▁nantoni	-6678
▁Enameled	-6679
▁okukhulu	-6680
▁amakhonkco	-6681
▁ukuthambisa	-6682
▁×	-6683
FJD	-6684
XPF	-6685
kang	-6686
vele	-6687
▁Kan	-6688
Bhodi	-6689
▁eyin	-6690
▁wali	-6691
▁zine	-6692
▁naman	-6693
hlabayo	-6694
▁enzima	-6695
▁kutheni	-6696
mvakalelo	-6697
Fi	-6698
IUY	-6699
cede	-6700
▁Gift	-6701
zation	-6702
▁Uluhlu	-6703
▁design	-6704
chaphazela	-6705
▁ajikeleze	-6706
▁baphantsi	-6707
▁elifanelekileyo	-6708
Lo	-6709
age	-6710
cum	-6711
dalwa	-6712
mbiza	-6713
▁Gard	-6714
landele	-6715
▁eyenza	-6716
▁ihlala	-6717
▁inkosi	-6718
gudileyo	-6719
mbathisa	-6720
tshisayo	-6721
▁fashion	-6722
▁ubudala	-6723
▁ikhowudi	-6724
▁kwalenza	-6725
aluminiyam	-6726
bonakaliyo	-6727
▁ukudibanisa	-6728
0%	-6729
dus	-6730
▁PP	-6731
cina	-6732
▁EPQ	-6733
▁IKQ	-6734
▁ena	-6735
▁sha	-6736
▁zis	-6737
▁nemin	-6738
▁ukubeka	-6739
▁umsindo	-6740
▁iifayile	-6741
▁Ukusetyenziswa	-6742
EX	-6743
CNY	-6744
lus	-6745
▁ar	-6746
▁Yin	-6747
qulun	-6748
▁Baby	-6749
▁imin	-6750
▁self	-6751
▁yuan	-6752
▁itsho	-6753
tyebhetye	-6754
▁intengiso	-6755
▁kwimarike	-6756
Bu	-6757
md	-6758
KGS	-6759
dola	-6760
rekho	-6761
▁kwiint	-6762
▁kungena	-6763
▁Amazinga	-6764
hlanganisa	-6765
qhelekanga	-6766
qingqiweyo	-6767
YG	-6768
YK	-6769
CDF	-6770
SDG	-6771
pati	-6772
yoku	-6773
▁Ning	-6774
▁nibe	-6775
▁umbono	-6776
▁Inkcazo	-6777
▁replace	-6778
thuthuthu	-6779
▁neenkonzo	-6780
nel	-6781
▁it	-6782
bomvu	-6783
ision	-6784
▁kuso	-6785
▁enama	-6786
▁zabantu	-6787
linganisi	-6788
zinzileyo	-6789
▁software	-6790
▁fracturing	-6791
▁ubukumkani	-6792
VPN	-6793
ziva	-6794
aneni	-6795
iseli	-6796
tweni	-6797
▁Andi	-6798
Yordan	-6799
▁ndibe	-6800
▁ndiye	-6801
▁imitha	-6802
▁iingxoxo	-6803
▁Iinkcukacha	-6804
BMD	-6805
NGN	-6806
cks	-6807
▁embi	-6808
▁Kunye	-6809
▁Round	-6810
makisha	-6811
phaneli	-6812
▁ukholo	-6813
▁yindlela	-6814
EO	-6815
PP	-6816
dap	-6817
entri	-6818
khund	-6819
▁ifom	-6820
nkqubo	-6821
tifike	-6822
▁injini	-6823
▁olunye	-6824
▁window	-6825
khundleni	-6826
kwenkwezi	-6827
▁imichiza	-6828
▁ezilishumi	-6829
▁laseYiputa	-6830
▁bhetyebhetye	-6831
via	-6832
fuyo	-6833
julu	-6834
ttery	-6835
▁Comp	-6836
▁enom	-6837
▁sabo	-6838
▁weza	-6839
gonyam	-6840
hlaleni	-6841
khulula	-6842
yibilika	-6843
▁teether	-6844
▁nenkxaso	-6845
▁oluphezulu	-6846
▁umazibuthe	-6847
lol	-6848
qwe	-6849
tyeya	-6850
▁Info	-6851
▁nalo	-6852
khelwe	-6853
sijini	-6854
▁baben	-6855
▁lwabo	-6856
fuziselo	-6857
▁amayeza	-6858
▁eluhlaza	-6859
▁esikhulu	-6860
▁zabathengi	-6861
zz	-6862
ALL	-6863
dade	-6864
ofer	-6865
tali	-6866
▁Chi	-6867
▁Sha	-6868
bekwa	-6869
ngoku	-6870
okanye	-6871
▁idatha	-6872
hlambela	-6873
▁Standard	-6874
▁ubugcisa	-6875
▁imbonakalo	-6876
YM	-6877
ARS	-6878
▁..	-6879
bhlo	-6880
▁API	-6881
dical	-6882
ceiver	-6883
khiqizo	-6884
lathisi	-6885
dibeneyo	-6886
▁phandle	-6887
bonakalisa	-6888
▁umonakalo	-6889
▁uhambelwano	-6890
TJS	-6891
kla	-6892
huma	-6893
▁All	-6894
▁Ide	-6895
▁lee	-6896
▁vana	-6897
umkani	-6898
▁umtya	-6899
mbileyo	-6900
▁Surface	-6901
▁ukuqala	-6902
catshulwa	-6903
▁eluqhuba	-6904
▁ukukhula	-6905
45	-6906
KZT	-6907
org	-6908
dada	-6909
vana	-6910
woku	-6911
wabhi	-6912
▁IBUY	-6913
▁enda	-6914
▁zemi	-6915
xelele	-6916
▁Ukwenza	-6917
▁ezinxulumene	-6918
buko	-6919
foma	-6920
▁uMa	-6921
▁wee	-6922
▁drive	-6923
▁esebenza	-6924
CM	-6925
GIP	-6926
GNF	-6927
SZL	-6928
▁iy	-6929
▁xi	-6930
kude	-6931
webu	-6932
bhere	-6933
thunzi	-6934
▁kwisa	-6935
▁imbewu	-6936
lahlwayo	-6937
▁Qaphela	-6938
▁ngumntu	-6939
qinisekisi	-6940
▁izithambiso	-6941
6,	-6942
gaya	-6943
▁IsiC	-6944
▁high	-6945
khohlo	-6946
isileyo	-6947
▁izimvo	-6948
▁ngamanye	-6949
▁ucinezelo	-6950
Hi	-6951
Ph	-6952
irha	-6953
batha	-6954
gcono	-6955
gweba	-6956
▁ethe	-6957
▁ning	-6958
anghai	-6959
khamera	-6960
qulathe	-6961
To	-6962
AFN	-6963
ZAR	-6964
loy	-6965
sey	-6966
gquma	-6967
lenze	-6968
▁beza	-6969
hlolwa	-6970
jolise	-6971
mnyango	-6972
▁Coaxial	-6973
▁Italian	-6974
▁amaYuda	-6975
-18	-6976
HNL	-6977
ILS	-6978
SHP	-6979
mori	-6980
▁ibi	-6981
proof	-6982
▁Ngom	-6983
▁UYUY	-6984
▁Uthe	-6985
▁Chain	-6986
Mowabhi	-6987
▁Ngokom	-6988
phendule	-6989
▁ekrwada	-6990
▁mathathu	-6991
▁bukaThixo	-6992
▁eyahlukileyo	-6993
▁zangaphandle	-6994
NJ	-6995
WST	-6996
zed	-6997
▁Kni	-6998
tures	-6999
▁engu	-7000
▁sine	-7001
gameni	-7002
▁iinkuni	-7003
▁yokuhlangana	-7004
21	-7005
ity	-7006
▁37	-7007
▁nel	-7008
▁Nceda	-7009
omileyo	-7010
▁ngelaphu	-7011
YW	-7012
uh	-7013
lumk	-7014
▁250	-7015
▁sho	-7016
hleni	-7017
▁Prote	-7018
▁ziquka	-7019
▁ufumana	-7020
gxininisa	-7021
▁isigqibo	-7022
▁machining	-7023
lungiselelo	-7024
▁Floodlight	-7025
ISK	-7026
pot	-7027
ITUY	-7028
halo	-7029
lity	-7030
dlule	-7031
▁Flat	-7032
▁IsiT	-7033
▁itha	-7034
mbande	-7035
▁ilo	-7036
fuphi	-7037
khiwe	-7038
▁Base	-7039
▁iika	-7040
▁Group	-7041
hlaziya	-7042
▁elihle	-7043
▁uthuli	-7044
▁okunene	-7045
▁umnqophiso	-7046
▁.:	-7047
very	-7048
enaku	-7049
esuka	-7050
rgani	-7051
cebook	-7052
khethwa	-7053
▁Izinki	-7054
▁izindlu	-7055
▁iingxowa	-7056
▁umthombo	-7057
▁ukutyabeka	-7058
LX	-7059
LSL	-7060
yeka	-7061
▁deg	-7062
▁meko	-7063
▁yomn	-7064
bhalwe	-7065
▁ndini	-7066
▁Ingaba	-7067
phuculwa	-7068
▁abatsha	-7069
▁enokuba	-7070
fanekiswana	-7071
henyu	-7072
xande	-7073
inethi	-7074
▁ukuza	-7075
▁zanga	-7076
▁Uphawu	-7077
▁ugcine	-7078
▁ukufuma	-7079
diphozithi	-7080
▁Umthengisi	-7081
▁GG	-7082
chni	-7083
▁dis	-7084
onike	-7085
▁kula	-7086
phondo	-7087
wabisa	-7088
▁2001.	-7089
▁isonka	-7090
▁ufunde	-7091
linganayo	-7092
▁Ukunikezelwa	-7093
▁kwangaphambili	-7094
19	-7095
LG	-7096
swe	-7097
kona	-7098
play	-7099
▁Fit	-7100
khemi	-7101
terior	-7102
zeleka	-7103
▁baseM	-7104
guqulwa	-7105
▁irabha	-7106
▁nabani	-7107
stalline	-7108
▁ezinama	-7109
▁iindidi	-7110
▁naluphi	-7111
5,	-7112
▁1,	-7113
tics	-7114
▁Rus	-7115
mbasa	-7116
▁sayo	-7117
mfundo	-7118
▁esweni	-7119
magnethi	-7120
▁Machines	-7121
▁nenkonzo	-7122
▁ubuncinane	-7123
▁intsebenziswano	-7124
KPW	-7125
oney	-7126
jenga	-7127
mical	-7128
▁John	-7129
▁bawa	-7130
▁yimi	-7131
funyen	-7132
changeable	-7133
▁impendulo	-7134
kg	-7135
luid	-7136
▁Ren	-7137
▁way	-7138
Xhosa	-7139
klasi	-7140
tanki	-7141
▁walo	-7142
bonise	-7143
▁Ameri	-7144
▁Unoku	-7145
▁shushu	-7146
▁umhlwa	-7147
vuselela	-7148
▁urhwebo	-7149
▁yesibini	-7150
dityaniswe	-7151
▁iingcango	-7152
▁ngokobukhulu	-7153
DB	-7154
HU	-7155
Ya	-7156
chain	-7157
▁Cent	-7158
▁neli	-7159
▁esise	-7160
endlela	-7161
▁komnye	-7162
▁elithile	-7163
▁izincedisi	-7164
od	-7165
culo	-7166
ekayo	-7167
mbiwa	-7168
▁inko	-7169
andulu	-7170
▁Iileta	-7171
phefumla	-7172
▁Ibhonasi	-7173
▁kuthatha	-7174
▁nolawulo	-7175
▁ekufuneka	-7176
▁evulekileyo	-7177
▁ezibalulekileyo	-7178
AOA	-7179
▁pu	-7180
sket	-7181
▁yeC	-7182
hlunu	-7183
▁Kule	-7184
▁ende	-7185
bulela	-7186
thutho	-7187
▁emoyeni	-7188
▁umprofeti	-7189
zh	-7190
DJF	-7191
dro	-7192
kuku	-7193
thel	-7194
▁Sun	-7195
▁awo	-7196
ertifi	-7197
hlathi	-7198
thutha	-7199
bugcisa	-7200
▁Service	-7201
▁kuMoses	-7202
▁enamandla	-7203
▁IiN	-7204
▁Out	-7205
▁bar	-7206
busika	-7207
▁lwase	-7208
▁umgubo	-7209
yanisweni	-7210
▁ukwakhiwa	-7211
▁ahlukeneyo	-7212
▁okuphezulu	-7213
▁ukuphakama	-7214
▁umlinganiselo	-7215
4.	-7216
SU	-7217
elu	-7218
siki	-7219
kishwa	-7220
thande	-7221
▁ngale	-7222
bhalisa	-7223
▁olunga	-7224
xhathisa	-7225
▁Ubungakanani	-7226
Fe	-7227
JG	-7228
CVE	-7229
Sur	-7230
mesi	-7231
▁fan	-7232
Kanan	-7233
anisi	-7234
▁baze	-7235
▁iiPC	-7236
▁kaSi	-7237
hlwele	-7238
kwanda	-7239
qhaphu	-7240
lilweni	-7241
setyenz	-7242
elelweni	-7243
chukumisa	-7244
▁msebenzi	-7245
cangcazela	-7246
gqwesileyo	-7247
▁400	-7248
cinge	-7249
▁CATV	-7250
khwele	-7251
phanda	-7252
▁Ofisi	-7253
▁emele	-7254
▁Animal	-7255
▁elithi	-7256
▁estate	-7257
ukumkani	-7258
▁inyaniso	-7259
▁ukungena	-7260
▁yesicelo	-7261
khemikhali	-7262
linganiswa	-7263
▁kwindlela	-7264
2.	-7265
MOP	-7266
dio	-7267
vak	-7268
▁shi	-7269
bhoni	-7270
cambu	-7271
inery	-7272
▁Belt	-7273
▁Wood	-7274
▁kuko	-7275
▁zona	-7276
tywala	-7277
▁ndizi	-7278
▁inwebu	-7279
▁uNyana	-7280
▁Oonyana	-7281
▁zokulwa	-7282
isebenzayo	-7283
EQ	-7284
▁ay	-7285
lane	-7286
ouble	-7287
rhumo	-7288
▁1000	-7289
▁Noko	-7290
tation	-7291
entrifu	-7292
▁ibonisa	-7293
▁inaliti	-7294
▁ngasentla	-7295
88	-7296
ray	-7297
cate	-7298
hlon	-7299
▁emp	-7300
mpula	-7301
phulo	-7302
▁QSFP	-7303
thwele	-7304
▁iqondo	-7305
qaqawuli	-7306
▁yoluntu	-7307
tyatyambo	-7308
▁Kananjalo	-7309
▁modulator	-7310
▁izibonelelo	-7311
▁kumgangatho	-7312
▁esetyenziswa	-7313
▁Lokulinganisa	-7314
▁●	-7315
khefu	-7316
▁Kung	-7317
▁moya	-7318
▁eyodwa	-7319
▁egameni	-7320
phazamise	-7321
▁Building	-7322
▁neendlela	-7323
▁emazulwini	-7324
26	-7325
ltra	-7326
▁Hoo	-7327
▁aza	-7328
▁kol	-7329
bopha	-7330
qamle	-7331
▁semi	-7332
eringi	-7333
chaneka	-7334
phuhliswa	-7335
▁yokuhlala	-7336
▁Waphendula	-7337
▁isithunywa	-7338
CW	-7339
bhen	-7340
yuan	-7341
yulu	-7342
▁qua	-7343
▁smd	-7344
▁tya	-7345
▁yon	-7346
layisha	-7347
▁ngobun	-7348
▁kunzima	-7349
▁ngokutsha	-7350
:8	-7351
IA	-7352
▁6.	-7353
▁GB	-7354
bodi	-7355
gnet	-7356
▁RGB	-7357
▁bun	-7358
▁eze	-7359
▁uhl	-7360
▁elus	-7361
lolonga	-7362
▁UThixo	-7363
khuselwa	-7364
lunganga	-7365
▁kuluhlu	-7366
▁Ububanzi	-7367
▁ngamaxesha	-7368
DO	-7369
ZA	-7370
mka	-7371
▁80	-7372
bhedi	-7373
hambi	-7374
ondlo	-7375
▁Wall	-7376
foyile	-7377
khondo	-7378
bhinethi	-7379
zekeliso	-7380
▁inkunzi	-7381
▁okwakhiwa	-7382
▁amanyathelo	-7383
HO	-7384
mic	-7385
dies	-7386
door	-7387
bhulo	-7388
▁Ying	-7389
frayim	-7390
▁umdla	-7391
arhente	-7392
khulisa	-7393
▁Pallet	-7394
▁Interior	-7395
▁Shanghai	-7396
▁iikawusi	-7397
LK	-7398
▁·	-7399
bes	-7400
Fran	-7401
Roma	-7402
ziwo	-7403
▁Khu	-7404
qakra	-7405
yulwa	-7406
▁feed	-7407
▁ekwen	-7408
▁ukuli	-7409
qondweni	-7410
▁yakutya	-7411
khadibodi	-7412
▁Kufuneka	-7413
▁imidlalo	-7414
▁intlawulo	-7415
▁ngumfanekiswana	-7416
:6	-7417
MKD	-7418
ffe	-7419
▁iB	-7420
▁iS	-7421
gosa	-7422
jamin	-7423
▁abana	-7424
▁tyaba	-7425
▁filter	-7426
setyenziselwa	-7427
▁ezibonakalayo	-7428
35	-7429
CX	-7430
HW	-7431
Vi	-7432
Hxh	-7433
tru	-7434
vie	-7435
▁YS	-7436
▁iho	-7437
▁ima	-7438
bakho	-7439
▁Nase	-7440
▁yiyo	-7441
qhubela	-7442
▁Ningbo	-7443
thintelo	-7444
▁eqinileyo	-7445
▁isiqinisekiso	-7446
17	-7447
Al	-7448
HQ	-7449
Um	-7450
VU	-7451
PGK	-7452
lana	-7453
phun	-7454
▁air	-7455
▁jet	-7456
konga	-7457
▁Cofa	-7458
▁Inga	-7459
elwimi	-7460
yameni	-7461
▁kwint	-7462
jongene	-7463
▁States	-7464
▁Ukutya	-7465
▁zebanga	-7466
▁Ukusebenzisa	-7467
XAG	-7468
▁uK	-7469
▁Art	-7470
linda	-7471
volta	-7472
▁kuli	-7473
yiloni	-7474
▁ireal	-7475
▁kamva	-7476
▁Stones	-7477
lwenziwo	-7478
▁Bitcoin	-7479
▁naliphi	-7480
▁kwendawo	-7481
▁wakwaYuda	-7482
PYG	-7483
ohm	-7484
▁48	-7485
qulo	-7486
soft	-7487
yiyo	-7488
yolo	-7489
▁size	-7490
bulawa	-7491
woofer	-7492
▁ukuku	-7493
▁inceba	-7494
▁kakubi	-7495
qinisekise	-7496
▁noMthengisi	-7497
qhagamshelana	-7498
EC	-7499
LF	-7500
ju	-7501
▁Mil	-7502
hlisa	-7503
sungu	-7504
▁bang	-7505
▁ngam	-7506
▁othe	-7507
thandi	-7508
tyhini	-7509
bhokhwe	-7510
iseleyo	-7511
▁kusasa	-7512
▁igalelo	-7513
▁optical	-7514
▁yovavanyo	-7515
▁kuyimfuneko	-7516
▁ngentsontelo	-7517
bri	-7518
▁DB	-7519
chan	-7520
rome	-7521
▁220	-7522
▁Sex	-7523
▁Micro	-7524
▁Plate	-7525
▁Sheet	-7526
sindisa	-7527
▁ubuhle	-7528
Bhenjamin	-7529
▁Ubukhulu	-7530
▁abakhonzi	-7531
▁zokuhamba	-7532
▁ezitshisayo	-7533
▁kufanelekile	-7534
▁wakwaSirayeli	-7535
▁esemgangathweni	-7536
14	-7537
EK	-7538
JQ	-7539
xil	-7540
-199	-7541
▁Kina	-7542
▁Stor	-7543
▁ndlu	-7544
banika	-7545
cebisa	-7546
▁kwase	-7547
▁lingu	-7548
lelweyo	-7549
▁Marine	-7550
gubungela	-7551
▁yemisonto	-7552
▁nokusetyenziswa	-7553
:7	-7554
JU	-7555
onia	-7556
ores	-7557
teni	-7558
eters	-7559
▁line	-7560
gqityi	-7561
▁Iqela	-7562
▁Uninzi	-7563
Panasonic	-7564
tombazana	-7565
▁inqanaba	-7566
▁Ukususela	-7567
▁eziphilayo	-7568
▁ezisixhenxe	-7569
3)	-7570
des	-7571
qalo	-7572
▁Lwe	-7573
vimba	-7574
▁Self	-7575
▁bawo	-7576
▁zalo	-7577
witter	-7578
▁nonke	-7579
▁emibini	-7580
▁imodeli	-7581
▁ngokoku	-7582
mbonakalo	-7583
▁eYurophu	-7584
▁yeplastiki	-7585
kube	-7586
ring	-7587
▁afe	-7588
▁manu	-7589
United	-7590
kazana	-7591
▁ubone	-7592
▁ayikho	-7593
▁noyilo	-7594
▁electro	-7595
▁Iinkonzo	-7596
▁ilungele	-7597
▁Abantwana	-7598
▁iibheringi	-7599
LM	-7600
ste	-7601
bume	-7602
heel	-7603
▁Pri	-7604
▁cro	-7605
▁iva	-7606
graph	-7607
khuba	-7608
mbisa	-7609
▁Lowo	-7610
licone	-7611
▁bafuna	-7612
▁lokung	-7613
▁nobomi	-7614
national	-7615
▁Ekubeni	-7616
▁umnatha	-7617
▁wokudla	-7618
▁zenziwe	-7619
▁kwigumbi	-7620
▁kwilizwe	-7621
▁ukuthatha	-7622
▁umzalwana	-7623
DQ	-7624
JW	-7625
Po	-7626
▁Jin	-7627
anase	-7628
mbeko	-7629
▁mane	-7630
siseko	-7631
tshona	-7632
sindiso	-7633
▁nendlu	-7634
▁zihlala	-7635
▁yangaphakathi	-7636
bin	-7637
godi	-7638
▁Tri	-7639
inter	-7640
mfuno	-7641
round	-7642
amuweli	-7643
▁babantu	-7644
▁olutsha	-7645
▁kwathiwa	-7646
▁izithuthi	-7647
ambu	-7648
limo	-7649
▁ile	-7650
▁min	-7651
▁out	-7652
▁oza	-7653
ciphe	-7654
khawu	-7655
lobal	-7656
stile	-7657
bility	-7658
zelela	-7659
▁obung	-7660
cwadana	-7661
rentshi	-7662
tyelela	-7663
▁nemilo	-7664
khokelwa	-7665
▁Knitting	-7666
65	-7667
SRG	-7668
▁7.	-7669
keka	-7670
▁Col	-7671
▁ihe	-7672
▁loM	-7673
Isaya	-7674
layer	-7675
thung	-7676
vulwa	-7677
▁Fast	-7678
gqirha	-7679
▁crimp	-7680
entlobo	-7681
thelayo	-7682
▁Garden	-7683
Frentshi	-7684
guqukayo	-7685
▁umdlalo	-7686
▁Iinkqubo	-7687
▁uqeqesho	-7688
▁yasimahla	-7689
▁yesekethe	-7690
▁ikhadibhodi	-7691
▁ngokusekelwe	-7692
▁ezongezelelweyo	-7693
DS	-7694
HT	-7695
JK	-7696
diza	-7697
tulo	-7698
▁kus	-7699
chani	-7700
ppers	-7701
▁neem	-7702
bakala	-7703
▁zokun	-7704
▁Ngubani	-7705
▁Quality	-7706
▁kunceda	-7707
▁ngemini	-7708
kangeleko	-7709
fenitshala	-7710
▁ezincinci	-7711
▁kungabikho	-7712
rigin	-7713
venia	-7714
▁chain	-7715
▁ilaphu	-7716
▁nakuba	-7717
▁nomoya	-7718
▁Russian	-7719
zonwabisa	-7720
▁iinjongo	-7721
tshabalalisa	-7722
Slo	-7723
set	-7724
wari	-7725
▁UPS	-7726
▁Open	-7727
▁Unit	-7728
▁iipa	-7729
▁ngon	-7730
gnetic	-7731
kqubela	-7732
▁Okanye	-7733
▁yoyilo	-7734
▁Ukusuka	-7735
▁abakhulu	-7736
▁amagwebu	-7737
▁eluswini	-7738
▁ezilahlwayo	-7739
▁yokugqibela	-7740
LU	-7741
qhum	-7742
▁ULQ	-7743
Theng	-7744
▁balo	-7745
▁mesh	-7746
buyele	-7747
tyiswe	-7748
▁uxolo	-7749
ceivers	-7750
isiseko	-7751
▁imigca	-7752
▁iziqhamo	-7753
▁ubuninzi	-7754
▁yamandla	-7755
▁Ingcinezelo	-7756
▁esikhundleni	-7757
90	-7758
DK	-7759
▁2,	-7760
▁38	-7761
tyha	-7762
wing	-7763
▁abu	-7764
▁cut	-7765
kwere	-7766
lahla	-7767
▁Psal	-7768
▁ethi	-7769
▁maba	-7770
sendle	-7771
▁House	-7772
▁nithe	-7773
▁minyaka	-7774
▁omabini	-7775
▁engcwele	-7776
▁unikezelo	-7777
▁ezimashumi	-7778
5%	-7779
Isi	-7780
casa	-7781
gqwe	-7782
lika	-7783
▁Bri	-7784
hlelo	-7785
ustry	-7786
▁Sexy	-7787
▁bako	-7788
▁cream	-7789
▁nithi	-7790
Rashiya	-7791
joliswe	-7792
ngenisa	-7793
▁Psalms	-7794
▁umgaqo	-7795
thathaka	-7796
▁isampuli	-7797
▁uSolomon	-7798
▁yomzimba	-7799
▁IiNdumiso	-7800
bingelelweni	-7801
ny	-7802
chen	-7803
deka	-7804
undu	-7805
▁Oil	-7806
mncwa	-7807
mibala	-7808
qulethe	-7809
thileyo	-7810
▁Rubber	-7811
▁zezulu	-7812
zekileyo	-7813
▁uthotho	-7814
▁Machinery	-7815
▁yengqondo	-7816
▁Ngokomzekelo	-7817
:10	-7818
-24)	-7819
Japan	-7820
bhekis	-7821
enesis	-7822
▁wahlala	-7823
▁ukugcinwa	-7824
▁ukulungisa	-7825
DT	-7826
EF	-7827
RO	-7828
VO	-7829
uka	-7830
▁Iya	-7831
-100%	-7832
zibulo	-7833
▁bathe	-7834
angzhou	-7835
chumiso	-7836
▁insimbi	-7837
▁kaSipho	-7838
▁uhlanga	-7839
▁Ngokutsho	-7840
▁Okwangoku	-7841
▁kangangoko	-7842
▁ubudlelwane	-7843
▁unxibelelwano	-7844
bei	-7845
ngu	-7846
balo	-7847
tyhu	-7848
zuza	-7849
▁Umn	-7850
▁igu	-7851
▁kuM	-7852
tsiba	-7853
ylene	-7854
▁bobu	-7855
planga	-7856
▁amane	-7857
▁kudla	-7858
▁kwada	-7859
▁produ	-7860
▁uMoya	-7861
▁ukuni	-7862
▁yathi	-7863
Asiriya	-7864
ekawusi	-7865
▁Square	-7866
▁ibekwe	-7867
▁nendawo	-7868
▁elwandle	-7869
bs	-7870
kri	-7871
▁ee	-7872
▁ia	-7873
▁ol	-7874
hefu	-7875
tory	-7876
▁120	-7877
▁Nan	-7878
▁ike	-7879
phina	-7880
▁ekum	-7881
▁impi	-7882
cakaza	-7883
daptha	-7884
phakheji	-7885
▁nawuphi	-7886
▁iplastiki	-7887
▁Protection	-7888
JT	-7889
requ	-7890
▁off	-7891
betho	-7892
khutsh	-7893
mozulu	-7894
▁engen	-7895
▁kwesa	-7896
fayibha	-7897
tyhubhu	-7898
▁nokuzi	-7899
▁ongena	-7900
gonyamelo	-7901
▁kusebenza	-7902
▁ukuyisebenzisa	-7903
SG	-7904
kq	-7905
dam	-7906
▁ve	-7907
bhek	-7908
lash	-7909
suke	-7910
▁hle	-7911
▁mga	-7912
▁oli	-7913
fuman	-7914
▁Waba	-7915
▁Yaye	-7916
▁hleze	-7917
▁Camera	-7918
▁uhlala	-7919
chanical	-7920
▁Fitness	-7921
▁ivenkile	-7922
▁ngomnyaka	-7923
▁nobushushu	-7924
▁izisombululo	-7925
AC	-7926
BB	-7927
▁<	-7928
bhal	-7929
qine	-7930
▁ega	-7931
▁iyi	-7932
▁phi	-7933
bindi	-7934
▁engum	-7935
jongana	-7936
khokela	-7937
▁andiyi	-7938
hlanjulu	-7939
▁lisithi	-7940
▁bobabini	-7941
▁Aluminium	-7942
▁engaphezu	-7943
▁iinxalenye	-7944
RM	-7945
tol	-7946
uzo	-7947
▁up	-7948
puma	-7949
▁ime	-7950
▁ino	-7951
▁mar	-7952
elise	-7953
▁elun	-7954
▁flow	-7955
▁kumn	-7956
▁work	-7957
andula	-7958
panish	-7959
▁abase	-7960
▁style	-7961
▁othile	-7962
fezekisa	-7963
▁Display	-7964
PM	-7965
SX	-7966
fung	-7967
lusi	-7968
sine	-7969
▁150	-7970
endly	-7971
mbona	-7972
▁Xing	-7973
engahl	-7974
▁ngawe	-7975
▁ubani	-7976
▁Double	-7977
▁mobile	-7978
▁nangoko	-7979
▁Keychain	-7980
▁likaThixo	-7981
▁kweekawusi	-7982
▁ukuthembeka	-7983
▁uy	-7984
undo	-7985
esile	-7986
enzuzo	-7987
▁anoku	-7988
▁emkho	-7989
▁ngent	-7990
gqitywa	-7991
ribhoni	-7992
▁Manual	-7993
▁Mobile	-7994
▁Ngaloo	-7995
qinelana	-7996
▁Ukugqiba	-7997
▁ikuvumela	-7998
▁ngegolide	-7999
▁nokhuseleko	-8000
▁yanamhlanje	-8001
▁id	-8002
lare	-8003
layi	-8004
thon	-8005
unya	-8006
▁Web	-8007
cence	-8008
habhi	-8009
pholi	-8010
thana	-8011
▁IsiK	-8012
▁blue	-8013
▁nomn	-8014
bophel	-8015
guquka	-8016
endeleko	-8017
▁imizuzu	-8018
▁lokusila	-8019
▁ukuphumeza	-8020
lungiselelweyo	-8021
▁lisetyenziswa	-8022
DG	-8023
SW	-8024
Tu	-8025
-60	-8026
▁uH	-8027
alta	-8028
▁ikho	-8029
▁yile	-8030
bheham	-8031
enteni	-8032
ishing	-8033
mation	-8034
mbatho	-8035
phephe	-8036
▁lween	-8037
▁smart	-8038
▁ezimbi	-8039
oksijini	-8040
▁Medical	-8041
▁ukujonga	-8042
▁yekhasino	-8043
▁nomsebenzi	-8044
CF	-8045
HX	-8046
cor	-8047
beng	-8048
xuba	-8049
yala	-8050
xabise	-8051
▁Stadium	-8052
▁waphosa	-8053
khandlela	-8054
khuthazwa	-8055
▁amathuba	-8056
▁iividiyo	-8057
▁kancinci	-8058
▁ngohlobo	-8059
▁Equipment	-8060
▁koomatshini	-8061
▁yokhuseleko	-8062
PO	-8063
vumi	-8064
▁uwa	-8065
elene	-8066
▁akuna	-8067
▁ukuse	-8068
rhamncwa	-8069
▁amanani	-8070
▁mfuneko	-8071
▁zelanga	-8072
▁ilingana	-8073
▁ukuqhuba	-8074
Ke	-8075
RU	-8076
lim	-8077
tsu	-8078
▁or	-8079
many	-8080
ompa	-8081
▁Fin	-8082
▁Edge	-8083
▁Certifi	-8084
▁Phantsi	-8085
phakadeni	-8086
▁amalaphu	-8087
▁ukucinga	-8088
thendeleko	-8089
▁ukuthanda	-8090
crystalline	-8091
▁kuxhomekeke	-8092
▁karhulumente	-8093
VM	-8094
YYS	-8095
coo	-8096
▁Oo	-8097
rose	-8098
yuke	-8099
hliso	-8100
rical	-8101
manani	-8102
rubber	-8103
▁cross	-8104
qamlezo	-8105
website	-8106
▁nakuma	-8107
requency	-8108
▁eTshayina	-8109
khululekileyo	-8110
SF	-8111
Te	-8112
ws	-8113
Ama	-8114
Phu	-8115
len	-8116
▁UV	-8117
inise	-8118
kwand	-8119
▁ulwa	-8120
▁yini	-8121
hezulu	-8122
hlutha	-8123
qabane	-8124
▁nakwa	-8125
khawulo	-8126
▁ezelwe	-8127
▁ndithe	-8128
sombulula	-8129
▁Ngexesha	-8130
▁professional	-8131
▁isetyenziselwa	-8132
QYS	-8133
gadi	-8134
▁Che	-8135
Ziyon	-8136
bhiya	-8137
ileni	-8138
▁ndaba	-8139
▁abadala	-8140
▁amaqela	-8141
▁ngomthi	-8142
mbingeleli	-8143
▁ngefoyile	-8144
▁ukuthenga	-8145
▁intshukumo	-8146
▁neemveliso	-8147
▁oluthambileyo	-8148
▁Elungiselelweyo	-8149
CK	-8150
lid	-8151
form	-8152
pusi	-8153
vile	-8154
▁Pcb	-8155
▁War	-8156
▁sini	-8157
xamnye	-8158
▁sakwa	-8159
Surinam	-8160
tsalela	-8161
zixhobo	-8162
▁ashushu	-8163
hulumente	-8164
khuselekile	-8165
qaqambileyo	-8166
▁NaseSurinam	-8167
▁elektroniki	-8168
DW	-8169
tla	-8170
UMUY	-8171
kiwe	-8172
vani	-8173
▁Asi	-8174
▁kuY	-8175
▁woM	-8176
xhoba	-8177
▁umsi	-8178
▁YYZUY	-8179
▁ezino	-8180
▁kubha	-8181
cwadini	-8182
▁akubon	-8183
▁ikrele	-8184
▁amaziko	-8185
▁quality	-8186
▁uthando	-8187
▁kwiimeko	-8188
▁nangenxa	-8189
▁Isikhumba	-8190
▁ukukhetha	-8191
▁zokugcina	-8192
HM	-8193
XYS	-8194
kre	-8195
▁Mc	-8196
▁iC	-8197
miso	-8198
gqabi	-8199
xhala	-8200
▁Blog	-8201
▁aben	-8202
▁awun	-8203
▁kuwa	-8204
cacisa	-8205
phanga	-8206
gumbini	-8207
▁isitya	-8208
▁yobomi	-8209
khanyayo	-8210
limation	-8211
tsebenzo	-8212
▁iinyawo	-8213
▁yezinto	-8214
qwalasela	-8215
selwandle	-8216
suntswana	-8217
▁imibhobho	-8218
Qu	-8219
moti	-8220
▁ipro	-8221
chweph	-8222
domain	-8223
khwama	-8224
unyiwe	-8225
▁Piece	-8226
▁abemi	-8227
▁Abanye	-8228
▁Izipho	-8229
▁Lights	-8230
▁ebanzi	-8231
▁indima	-8232
▁kwinto	-8233
▁uluntu	-8234
▁mahlanu	-8235
▁uYakobi	-8236
▁ezintlanu	-8237
▁obushushu	-8238
▁sikaYehova	-8239
▁nabazalwana	-8240
qhagamshelwano	-8241
▁eziphakamileyo	-8242
▁ezikhethekileyo	-8243
AA	-8244
HF	-8245
RW	-8246
zani	-8247
▁enu	-8248
cwane	-8249
dware	-8250
ports	-8251
yelwa	-8252
▁yesa	-8253
hokisi	-8254
velise	-8255
xhaswa	-8256
Windows	-8257
yaniseka	-8258
▁zooyise	-8259
thandwayo	-8260
▁ukongeza	-8261
▁hydraulic	-8262
▁yesinyithi	-8263
▁isetyenziswe	-8264
HK	-8265
VT	-8266
ick	-8267
Ziko	-8268
quma	-8269
shor	-8270
▁nezo	-8271
▁super	-8272
▁wandi	-8273
hlulayo	-8274
voltaic	-8275
tempileni	-8276
▁imiyalelo	-8277
RF	-8278
RQ	-8279
ans	-8280
blo	-8281
kin	-8282
▁Zo	-8283
elung	-8284
kukho	-8285
tions	-8286
ululo	-8287
▁Hand	-8288
▁UYIB	-8289
▁komn	-8290
▁woba	-8291
▁ziyi	-8292
kudala	-8293
▁Inene	-8294
▁nakwe	-8295
▁ufake	-8296
▁ezinge	-8297
▁lomntu	-8298
▁idilesi	-8299
▁Lighting	-8300
▁Ngaphezu	-8301
▁iintloko	-8302
jikelezayo	-8303
▁isilawuli	-8304
▁ababoneleli	-8305
▁waseBhabheli	-8306
22	-8307
HG	-8308
▁vi	-8309
▁UYo	-8310
-1000	-8311
Isake	-8312
phiko	-8313
trogen	-8314
wotshi	-8315
▁Tshin	-8316
▁Ubude	-8317
▁ababa	-8318
elivery	-8319
hlukana	-8320
▁kufuna	-8321
▁uhleli	-8322
funyenwe	-8323
▁kuphuma	-8324
londoloza	-8325
▁Shenzhen	-8326
▁isebenze	-8327
▁kwangoko	-8328
chwephesha	-8329
JM	-8330
VK	-8331
nea	-8332
Khus	-8333
shan	-8334
wisa	-8335
xela	-8336
yuse	-8337
Nyana	-8338
pheni	-8339
▁lube	-8340
andathu	-8341
▁ilahle	-8342
▁elitsha	-8343
▁liphela	-8344
kuhlaleni	-8345
▁iBhayibhile	-8346
JX	-8347
SK	-8348
▁75	-8349
▁iti	-8350
bheka	-8351
khule	-8352
kundla	-8353
▁eziza	-8354
▁iseli	-8355
Hosting	-8356
qaphele	-8357
tshiphu	-8358
▁indebe	-8359
▁Isicelo	-8360
▁Rolling	-8361
▁kwiziko	-8362
▁ekusebenz	-8363
▁emithathu	-8364
▁Icwangcisa	-8365
▁abazalwana	-8366
▁ephothiweyo	-8367
3.	-8368
AI	-8369
Ng	-8370
VG	-8371
vy	-8372
ury	-8373
▁39	-8374
▁if	-8375
fini	-8376
ning	-8377
khasi	-8378
kiswe	-8379
lenga	-8380
▁Feed	-8381
▁Hook	-8382
▁Tile	-8383
▁basi	-8384
▁bume	-8385
▁mayi	-8386
dilesi	-8387
ongoma	-8388
bhaliso	-8389
▁iphela	-8390
▁ucinga	-8391
▁wokuba	-8392
mkhawulo	-8393
shorensi	-8394
▁wamanzi	-8395
▁nokwenza	-8396
▁Ulwenziwo	-8397
▁bazalwana	-8398
▁lemveliso	-8399
linganisela	-8400
▁nokuphucula	-8401
70	-8402
75	-8403
SM	-8404
OYS	-8405
▁iM	-8406
hazi	-8407
▁alo	-8408
▁one	-8409
▁swi	-8410
amond	-8411
qongo	-8412
▁Ming	-8413
▁Part	-8414
cwecwe	-8415
▁Compo	-8416
▁bendi	-8417
▁inene	-8418
▁mazwi	-8419
iselele	-8420
qakraza	-8421
▁manual	-8422
nikezela	-8423
▁uSawule	-8424
▁ukhetha	-8425
▁Yabonani	-8426
hlanganiswa	-8427
▁nokugcinwa	-8428
▁ubulungisa	-8429
▁egqibeleleyo	-8430
24	-8431
hin	-8432
xide	-8433
lapho	-8434
▁siyi	-8435
▁zazi	-8436
enzele	-8437
sukuba	-8438
▁Inani	-8439
▁entsi	-8440
▁ofuna	-8441
▁speed	-8442
dolophu	-8443
sondeza	-8444
▁kwiing	-8445
tshiweyo	-8446
▁imigaqo	-8447
▁ukubamba	-8448
▁ngokwakhe	-8449
▁nobukhulu	-8450
▁yokudlala	-8451
sebenzisana	-8452
▁ehambelana	-8453
▁Abathengisi	-8454
▁yedijithali	-8455
larm	-8456
mple	-8457
▁CAS	-8458
▁Clo	-8459
▁UDW	-8460
lunge	-8461
▁Card	-8462
▁Rese	-8463
▁Star	-8464
▁Yesu	-8465
▁kwana	-8466
▁sethu	-8467
bumbela	-8468
peyinti	-8469
▁ucango	-8470
▁ukuhla	-8471
▁ifowuni	-8472
▁Portable	-8473
▁anamanci	-8474
▁ukukhuthaza	-8475
▁ukulungiswa	-8476
lungelelanisa	-8477
▁ukulungiselela	-8478
Shi	-8479
xan	-8480
qeni	-8481
▁CFP	-8482
ongwa	-8483
qokel	-8484
solar	-8485
▁Maka	-8486
banjwa	-8487
seyile	-8488
▁yokuzi	-8489
ambuzane	-8490
vavanywa	-8491
xhotyiswe	-8492
▁ngokwayo	-8493
▁ngomlilo	-8494
▁uPawulos	-8495
chaphazele	-8496
▁nabathengi	-8497
▁engqondweni	-8498
▁ngaxeshanye	-8499
▁ezimfakamfele	-8500
XAF	-8501
art	-8502
cti	-8503
blog	-8504
elli	-8505
pace	-8506
▁Aka	-8507
▁Dri	-8508
▁chi	-8509
▁kuA	-8510
▁obe	-8511
enkce	-8512
maski	-8513
▁yobun	-8514
qaphela	-8515
yenzayo	-8516
▁Supply	-8517
▁umgama	-8518
SOLASOLV	-8519
▁yasekwa	-8520
▁Ukusonga	-8521
▁iintsimbi	-8522
▁lokuthile	-8523
▁adjustable	-8524
gqithiseleyo	-8525
DN	-8526
VQ	-8527
ibhe	-8528
▁Tha	-8529
▁top	-8530
denge	-8531
▁Yini	-8532
Giliya	-8533
bonayo	-8534
kosini	-8535
▁ndaku	-8536
Efrayim	-8537
▁lesono	-8538
▁output	-8539
Giliyadi	-8540
▁Umshini	-8541
bhsayithi	-8542
▁inyathelo	-8543
▁kukunceda	-8544
▁ngenkonzo	-8545
▁zokudlala	-8546
▁Ukupakisha	-8547
▁imigangatho	-8548
▁ukukhangela	-8549
TUY	-8550
bale	-8551
▁ume	-8552
hlulwa	-8553
rystal	-8554
▁ZXXUY	-8555
▁isiphelo	-8556
▁ukuxhasa	-8557
▁inkcazelo	-8558
▁zobunjineli	-8559
Kr	-8560
orld	-8561
paci	-8562
tson	-8563
▁Men	-8564
▁Sin	-8565
bhegi	-8566
▁oyin	-8567
Hebhere	-8568
▁Magnet	-8569
▁iBhodi	-8570
anduluka	-8571
bhinqise	-8572
▁Windows	-8573
▁singaba	-8574
▁kwengqondo	-8575
▁ngeenkonzo	-8576
▁nokwenziwa	-8577
▁ukuhlawula	-8578
▁itheyibhile	-8579
RK	-8580
SQ	-8581
cele	-8582
▁nin	-8583
bhisa	-8584
▁Qing	-8585
▁Wear	-8586
▁bazo	-8587
enzeke	-8588
sukela	-8589
▁isiko	-8590
Facebook	-8591
▁isinyithi	-8592
phazamiseka	-8593
▁kumphezulu	-8594
▁izilwanyana	-8595
▁Professional	-8596
HN	-8597
IF	-8598
PE	-8599
PYS	-8600
dan	-8601
dao	-8602
xon	-8603
KUYP	-8604
gudu	-8605
kish	-8606
Webhu	-8607
pping	-8608
▁Waza	-8609
qeshwa	-8610
▁Beach	-8611
▁okubi	-8612
▁rated	-8613
▁unayo	-8614
postile	-8615
▁Genera	-8616
▁Global	-8617
bhulorho	-8618
▁ikepusi	-8619
▁kangang	-8620
▁kuthiwa	-8621
▁mgawuli	-8622
▁nolwazi	-8623
▁wenziwe	-8624
▁ngasemva	-8625
▁kwiphepha	-8626
▁kumashishini	-8627
▁ngokweemfuno	-8628
DU	-8629
WYS	-8630
▁PE	-8631
▁Uk	-8632
mina	-8633
tolo	-8634
lwelo	-8635
yinge	-8636
▁Free	-8637
▁beng	-8638
chazwe	-8639
fesane	-8640
funeki	-8641
rhente	-8642
▁eziyi	-8643
sondela	-8644
▁Musani	-8645
▁Khawuwa	-8646
▁yelanga	-8647
▁komzimba	-8648
▁ngesanti	-8649
ongezelela	-8650
▁ojikeleza	-8651
▁kwaSirayeli	-8652
Aram	-8653
foot	-8654
▁Big	-8655
▁met	-8656
enisa	-8657
lodwa	-8658
▁1993	-8659
▁eshi	-8660
▁luka	-8661
▁went	-8662
▁Range	-8663
▁iquka	-8664
▁ukuma	-8665
▁wakha	-8666
welding	-8667
kwenyani	-8668
khokelela	-8669
mkelekile	-8670
onakalisa	-8671
▁encwadini	-8672
▁kwezixhobo	-8673
▁zisetyenziswa	-8674
▁uqhagamshelwano	-8675
.’	-8676
:11	-8677
rus	-8678
mano	-8679
▁khu	-8680
thane	-8681
tural	-8682
yesta	-8683
▁neZi	-8684
hlwayo	-8685
kwenze	-8686
qeqesh	-8687
▁Green	-8688
▁black	-8689
lungise	-8690
qeqeshi	-8691
▁Isantya	-8692
▁uthetha	-8693
▁eyenzelwe	-8694
▁kancinane	-8695
▁angaphandle	-8696
▁ndinguYehova	-8697
▁zokufudumeza	-8698
7,	-8699
:9	-8700
;+	-8701
JB	-8702
-80	-8703
NPR	-8704
eap	-8705
eru	-8706
▁eA	-8707
sese	-8708
▁tex	-8709
gwele	-8710
rashi	-8711
thiya	-8712
valwa	-8713
▁2000	-8714
▁bemi	-8715
andayo	-8716
esolar	-8717
khombe	-8718
▁sokun	-8719
belwana	-8720
khuseli	-8721
mbelela	-8722
philisa	-8723
▁ungayi	-8724
▁woluvo	-8725
ongameli	-8726
qiniseka	-8727
▁emnyama	-8728
▁wenyama	-8729
tshintshe	-8730
▁nempahla	-8731
fanitshala	-8732
khadibhodi	-8733
pholiyesta	-8734
▁njengomfo	-8735
▁yokumkani	-8736
▁Production	-8737
▁wasebusika	-8738
RX	-8739
TYS	-8740
udio	-8741
vayo	-8742
▁ODM	-8743
laser	-8744
frared	-8745
vanced	-8746
▁akana	-8747
anyange	-8748
eration	-8749
isoloko	-8750
thernet	-8751
zinikela	-8752
▁inyanga	-8753
▁ukususa	-8754
▁efunekayo	-8755
▁inikezela	-8756
▁okupholisa	-8757
▁wesithathu	-8758
▁ukufudumeza	-8759
VF	-8760
yn	-8761
Pha	-8762
KUYH	-8763
angu	-8764
bert	-8765
fihlo	-8766
inian	-8767
iseki	-8768
thing	-8769
tsare	-8770
▁Good	-8771
elizwi	-8772
misele	-8773
qhinga	-8774
▁isono	-8775
▁nyana	-8776
aniyeli	-8777
fakelwa	-8778
▁imithi	-8779
▁ityeya	-8780
▁amadolo	-8781
▁ngokuzi	-8782
▁olukiweyo	-8783
▁ubugwenxa	-8784
▁Khawuwabhinqise	-8785
JN	-8786
ece	-8787
tini	-8788
▁600	-8789
▁uwu	-8790
▁Zoku	-8791
▁akwi	-8792
▁need	-8793
khonze	-8794
rganic	-8795
thenge	-8796
▁Super	-8797
▁oyint	-8798
▁yedwa	-8799
gxalaba	-8800
▁Okunye	-8801
▁Powder	-8802
▁ibheji	-8803
▁izipho	-8804
▁umvuzo	-8805
vakalisa	-8806
▁banxibe	-8807
▁intonga	-8808
xhomekeka	-8809
▁imashumi	-8810
▁umngxuma	-8811
dluliselwa	-8812
▁Namhlanje	-8813
▁ezifanayo	-8814
▁Ukhuseleko	-8815
▁olungileyo	-8816
▁yehlabathi	-8817
▁replacement	-8818
▁Ukuzilolonga	-8819
▁ukhululekile	-8820
rma	-8821
KUYG	-8822
sile	-8823
watt	-8824
▁Die	-8825
enelo	-8826
merce	-8827
ssemb	-8828
▁Beam	-8829
▁Yada	-8830
▁nasi	-8831
alanga	-8832
elikey	-8833
kisayo	-8834
▁Erose	-8835
▁Hebei	-8836
▁Ideas	-8837
hambayo	-8838
mission	-8839
ongweni	-8840
▁Slovak	-8841
▁ifakwe	-8842
▁indlebe	-8843
▁nexabiso	-8844
▁wathetha	-8845
▁elifanayo	-8846
▁umqondiso	-8847
hlanjululwa	-8848
lungiselele	-8849
tshonalanga	-8850
IE	-8851
Far	-8852
kam	-8853
lug	-8854
▁oM	-8855
▁uSi	-8856
iness	-8857
▁Basic	-8858
▁Paper	-8859
▁Indoda	-8860
▁umnini	-8861
ingelelo	-8862
krainian	-8863
▁Battery	-8864
▁bakwazi	-8865
▁Matshini	-8866
▁transfer	-8867
▁ukuhlala	-8868
▁neenkqubo	-8869
▁nabasebenzi	-8870
De	-8871
xwa	-8872
▁-1	-8873
free	-8874
hadi	-8875
vanyo	-8876
▁Loop	-8877
cedisa	-8878
kezeli	-8879
luleka	-8880
zalisa	-8881
▁Umthi	-8882
▁icebo	-8883
▁izulu	-8884
cipheko	-8885
thathwa	-8886
▁Cotton	-8887
▁ebomvu	-8888
▁iimilo	-8889
linganiso	-8890
▁Umthambo	-8891
mthethweni	-8892
▁baseMalta	-8893
▁ookumkani	-8894
▁owomileyo	-8895
▁ukulahlwa	-8896
▁yesiqhelo	-8897
▁anamakhulu	-8898
:15	-8899
Pol	-8900
Sha	-8901
pto	-8902
uko	-8903
vet	-8904
Sama	-8905
XUYA	-8906
holo	-8907
inte	-8908
mmer	-8909
pala	-8910
▁ice	-8911
ingqi	-8912
ongwe	-8913
▁coil	-8914
▁abaya	-8915
▁imiba	-8916
tempile	-8917
▁nkonzo	-8918
▁nomntu	-8919
bonakale	-8920
vumelana	-8921
▁Polymer	-8922
▁wewebhu	-8923
▁iincwadi	-8924
▁yokuhamba	-8925
bhekiselele	-8926
▁uqhagamshelane	-8927
DX	-8928
PL	-8929
▁ou	-8930
qoko	-8931
qwel	-8932
yanz	-8933
zuze	-8934
▁sub	-8935
ssage	-8936
▁Yadav	-8937
▁lokun	-8938
▁ukuwa	-8939
baninzi	-8940
qhumiso	-8941
▁lilixa	-8942
entlanzi	-8943
▁embalwa	-8944
▁esitsha	-8945
▁waphuma	-8946
▁isizathu	-8947
▁nitrogen	-8948
tshintshwa	-8949
▁nemisebenzi	-8950
▁esibingelelweni	-8951
Ku	-8952
▁¢	-8953
ley	-8954
ull	-8955
▁vo	-8956
Kale	-8957
yosi	-8958
shiye	-8959
tyiwa	-8960
▁2020	-8961
▁Hayi	-8962
▁Pack	-8963
▁roll	-8964
▁iipro	-8965
▁Imfono	-8966
▁isandi	-8967
▁Inkxaso	-8968
▁kwelase	-8969
▁umyalezo	-8970
▁Ukusebenza	-8971
▁etempileni	-8972
▁iindwendwe	-8973
▁International	-8974
olt	-8975
kiya	-8976
▁0.5	-8977
▁Kus	-8978
gcino	-8979
▁Siza	-8980
▁nale	-8981
▁zinc	-8982
bhalwa	-8983
tyelwa	-8984
▁Ngelo	-8985
▁nyaka	-8986
engcali	-8987
▁ibhulu	-8988
▁sixhobo	-8989
▁Iintlobo	-8990
▁Mingyuan	-8991
▁izahlulo	-8992
▁esangweni	-8993
▁parameter	-8994
▁zasekhaya	-8995
▁impumelelo	-8996
27	-8997
HB	-8998
IL	-8999
VB	-9000
aba	-9001
▁1)	-9002
▁Pe	-9003
hold	-9004
ongi	-9005
seni	-9006
▁Man	-9007
annel	-9008
endor	-9009
friji	-9010
mpela	-9011
▁head	-9012
▁seen	-9013
▁wani	-9014
screen	-9015
▁LWUUY	-9016
▁Wonke	-9017
Solomon	-9018
▁igunya	-9019
▁kuhamba	-9020
▁ngeveki	-9021
▁iingqayi	-9022
▁kwamanye	-9023
▁iingcinga	-9024
▁abaprofeti	-9025
▁eziikoruna	-9026
▁lomgangatho	-9027
▁Intsingiselo	-9028
:16	-9029
Lin	-9030
day	-9031
ola	-9032
xila	-9033
yano	-9034
▁Jiu	-9035
▁azo	-9036
▁per	-9037
jenje	-9038
oyile	-9039
▁Asia	-9040
▁Vula	-9041
▁liye	-9042
alable	-9043
▁yakwa	-9044
▁Basket	-9045
kwenzayo	-9046
▁ifayile	-9047
▁khangela	-9048
▁iibhokisi	-9049
▁nokugcina	-9050
▁kungekhona	-9051
▁yobungcali	-9052
It	-9053
gr	-9054
zy	-9055
CYS	-9056
EYS	-9057
lli	-9058
tec	-9059
jing	-9060
qhel	-9061
yena	-9062
▁Pul	-9063
phuka	-9064
zenzo	-9065
▁2008	-9066
▁buya	-9067
komoya	-9068
tshixa	-9069
▁Union	-9070
▁Wenza	-9071
▁entan	-9072
gundoqo	-9073
▁Panels	-9074
yisikile	-9075
▁ingqayi	-9076
▁izithuba	-9077
▁ngokwezi	-9078
▁ekwenzeni	-9079
▁esebenzisa	-9080
▁yenkampani	-9081
khathaliseki	-9082
▁abathetheli	-9083
▁eliphakathi	-9084
hlukahlukeneyo	-9085
RN	-9086
mhla	-9087
rosi	-9088
wili	-9089
▁Del	-9090
▁flo	-9091
demon	-9092
pheng	-9093
poswa	-9094
rhasi	-9095
thuka	-9096
▁Dual	-9097
▁Yena	-9098
crylic	-9099
▁Ngeli	-9100
▁cheap	-9101
▁ingqi	-9102
boniswa	-9103
▁uPetros	-9104
▁eyahlulayo	-9105
▁nabantwana	-9106
▁ukuthumela	-9107
▁ipholiyesta	-9108
▁ngogonyamelo	-9109
200	-9110
CAD	-9111
OLA	-9112
bow	-9113
pea	-9114
king	-9115
ront	-9116
▁26,	-9117
▁Day	-9118
khuku	-9119
thiso	-9120
▁weng	-9121
zimela	-9122
▁anesi	-9123
angothi	-9124
▁izizwe	-9125
▁kunika	-9126
▁Kitchen	-9127
▁lixesha	-9128
▁ezaposwa	-9129
thabathele	-9130
▁imithombo	-9131
▁kwiintsuku	-9132
▁ezifunekayo	-9133
▁ngentliziyo	-9134
endo	-9135
mana	-9136
well	-9137
zare	-9138
▁Fil	-9139
▁ida	-9140
▁www	-9141
-2020	-9142
ption	-9143
rhafu	-9144
▁Body	-9145
▁Soft	-9146
olwazi	-9147
▁iqatha	-9148
bhengezo	-9149
▁Storage	-9150
▁American	-9151
▁amashumi	-9152
▁iinqanawa	-9153
▁Resealable	-9154
▁neZilinganisi	-9155
4)	-9156
AH	-9157
IYS	-9158
ked	-9159
▁Kh	-9160
dare	-9161
toni	-9162
meter	-9163
mkeli	-9164
ulung	-9165
zipho	-9166
▁Blue	-9167
▁babu	-9168
▁cofa	-9169
▁wesa	-9170
babalo	-9171
cetyiswa	-9172
▁Kwabase	-9173
▁Outdoor	-9174
▁ikhonkco	-9175
▁kwifektri	-9176
▁industrial	-9177
▁ubuchwepheshe	-9178
AL	-9179
PT	-9180
GYS	-9181
▁Bus	-9182
▁IPQ	-9183
▁SMT	-9184
▁has	-9185
funwa	-9186
▁Faka	-9187
▁Food	-9188
phunye	-9189
sasaza	-9190
tshaja	-9191
zekile	-9192
▁idini	-9193
▁kanti	-9194
▁musani	-9195
▁ungene	-9196
▁abafuna	-9197
▁kaloliwe	-9198
▁zomhlaba	-9199
dityaniswa	-9200
▁yobugcisa	-9201
▁zemveliso	-9202
▁kufutshane	-9203
▁kwicandelo	-9204
▁sokukhetha	-9205
▁kubandakanywa	-9206
ST	-9207
SYS	-9208
ast	-9209
guga	-9210
mazi	-9211
sayo	-9212
▁Ana	-9213
▁Far	-9214
▁koo	-9215
▁see	-9216
elect	-9217
tuthu	-9218
▁Noku	-9219
▁Plan	-9220
▁ingc	-9221
▁sizi	-9222
▁wema	-9223
salela	-9224
tiweyo	-9225
▁yokuH	-9226
▁nokunga	-9227
▁Industry	-9228
▁isayithi	-9229
▁edlulileyo	-9230
▁ezinzileyo	-9231
KYS	-9232
gic	-9233
▁oz	-9234
KUYR	-9235
phen	-9236
zheng	-9237
▁elim	-9238
bhinqa	-9239
▁lunga	-9240
Quality	-9241
▁isando	-9242
▁isimbo	-9243
▁uhlale	-9244
▁inikeza	-9245
▁omzimba	-9246
▁uAbraham	-9247
▁kulungile	-9248
thungelwano	-9249
▁kunciphisa	-9250
▁yokuvelisa	-9251
▁ezingundoqo	-9252
▁obungunaphakade	-9253
Wi	-9254
PCB	-9255
lusu	-9256
▁Min	-9257
▁zeN	-9258
iston	-9259
qhele	-9260
▁ngoJ	-9261
andong	-9262
chithe	-9263
cision	-9264
enzela	-9265
kontra	-9266
▁intle	-9267
sindisi	-9268
▁iblogi	-9269
hlangula	-9270
▁Qingdao	-9271
▁yendawo	-9272
therlands	-9273
Diphozithi	-9274
▁entsimini	-9275
▁eziliqela	-9276
▁ezinjenge	-9277
Gb	-9278
ao	-9279
SEO	-9280
yula	-9281
▁Abo	-9282
▁Ear	-9283
▁Sul	-9284
▁UKU	-9285
▁noo	-9286
sulwa	-9287
▁Waye	-9288
▁sasi	-9289
▁unit	-9290
loride	-9291
server	-9292
▁Techni	-9293
hlawulwa	-9294
▁Massage	-9295
▁intsimi	-9296
▁inxenye	-9297
vakalelwa	-9298
▁elishumi	-9299
▁iadaptha	-9300
▁isihlalo	-9301
▁kwabanye	-9302
▁usebenza	-9303
▁zovavanyo	-9304
bonakaliswa	-9305
semthethweni	-9306
▁kangakanani	-9307
VW	-9308
Xa	-9309
im	-9310
sp	-9311
:18	-9312
MUY	-9313
teyu	-9314
veli	-9315
dlelo	-9316
temba	-9317
▁Yesi	-9318
▁olwa	-9319
dition	-9320
elelwe	-9321
velela	-9322
▁Smart	-9323
▁intla	-9324
▁unama	-9325
▁Boiler	-9326
▁Origin	-9327
▁isenzo	-9328
khumbule	-9329
▁zezindlu	-9330
▁Lightfoot	-9331
▁kuqhubeka	-9332
▁yabathengi	-9333
DE	-9334
RG	-9335
ub	-9336
ING	-9337
jet	-9338
lot	-9339
▁90	-9340
KUYN	-9341
ight	-9342
xury	-9343
yike	-9344
zono	-9345
▁Cnc	-9346
▁UDQ	-9347
▁noE	-9348
dlele	-9349
lingi	-9350
▁Athi	-9351
▁ZUOY	-9352
▁been	-9353
Rosari	-9354
▁Conne	-9355
▁Thenga	-9356
▁Wallet	-9357
▁lwanga	-9358
▁neqela	-9359
▁ubhedu	-9360
ikubhite	-9361
phelweni	-9362
▁Amadoda	-9363
▁yindawo	-9364
▁bafumane	-9365
▁izakhono	-9366
▁ngamatye	-9367
lungelelan	-9368
▁Subwoofer	-9369
New	-9370
ded	-9371
-400	-9372
9001	-9373
Amon	-9374
misi	-9375
ppli	-9376
tyum	-9377
wani	-9378
zeke	-9379
▁Ice	-9380
▁bel	-9381
bhuka	-9382
isani	-9383
▁sisa	-9384
ngundo	-9385
tshise	-9386
▁Salon	-9387
▁nguwe	-9388
▁ogama	-9389
▁ebizwa	-9390
reatment	-9391
zululwazi	-9392
▁ngokwakho	-9393
landelelana	-9394
▁abalandeli	-9395
ELA	-9396
umn	-9397
▁BS	-9398
lebe	-9399
phic	-9400
voti	-9401
▁Har	-9402
▁Pad	-9403
▁Una	-9404
eless	-9405
mbulo	-9406
▁Lire	-9407
Hezeki	-9408
khwela	-9409
▁ezipe	-9410
Khasino	-9411
bhulogi	-9412
hagamsh	-9413
▁ezinje	-9414
▁roller	-9415
Hezekiya	-9416
▁nefuthe	-9417
▁iiphaneli	-9418
camathelayo	-9419
▁wathabatha	-9420
lungiselelwe	-9421
▁zilandelayo	-9422
▁ziyafumaneka	-9423
▁ezipetshiweyo	-9424
,"	-9425
DF	-9426
Ye	-9427
py	-9428
▁±	-9429
:13	-9430
KUYB	-9431
mbile	-9432
▁ukho	-9433
bhapti	-9434
▁Cover	-9435
▁Gcina	-9436
▁izono	-9437
▁kweng	-9438
▁sithi	-9439
kwaziyo	-9440
▁umqadi	-9441
▁zokuba	-9442
Slovenia	-9443
khumbuzo	-9444
▁elinesi	-9445
▁uYoshuwa	-9446
▁iiyunithi	-9447
▁wemveliso	-9448
▁ecocekileyo	-9449
▁elithengisa	-9450
▁ingasetyenziswa	-9451
tin	-9452
▁Ty	-9453
▁hot	-9454
▁City	-9455
▁Spot	-9456
▁UYIT	-9457
▁ebun	-9458
▁nini	-9459
xabisa	-9460
▁Fluid	-9461
▁olubi	-9462
▁kubona	-9463
▁semali	-9464
meleleyo	-9465
▁nxamnye	-9466
▁abahlobo	-9467
▁ubulumko	-9468
▁umnikelo	-9469
▁umnqweno	-9470
angalisayo	-9471
▁Iikhasino	-9472
▁okwangoku	-9473
▁umkhiqizo	-9474
▁esemnyango	-9475
▁nezibonelelo	-9476
Ash	-9477
ets	-9478
bion	-9479
gula	-9480
yezo	-9481
▁Iza	-9482
▁pin	-9483
dliwa	-9484
isane	-9485
tyela	-9486
ustra	-9487
▁2016	-9488
▁bana	-9489
▁inje	-9490
▁noMa	-9491
▁owen	-9492
▁zaso	-9493
Khanya	-9494
waneni	-9495
▁Fuhai	-9496
▁Tolar	-9497
▁esine	-9498
▁ilula	-9499
▁ivili	-9500
▁ukubu	-9501
▁Vendor	-9502
▁ehleli	-9503
▁esihle	-9504
▁Resistan	-9505
▁Wathetha	-9506
▁ukubhala	-9507
▁yevidiyo	-9508
▁yokubeka	-9509
phindaphin	-9510
yibilikisa	-9511
▁neendleko	-9512
▁Enyanisweni	-9513
▁aseSlovenia	-9514
▁kubasebenzisi	-9515
PU	-9516
hila	-9517
trip	-9518
zame	-9519
▁Sum	-9520
▁Wil	-9521
gqubu	-9522
minal	-9523
qondi	-9524
▁Foam	-9525
▁Ithe	-9526
▁kuwu	-9527
fumani	-9528
▁grade	-9529
inezela	-9530
▁Luxury	-9531
▁kwanga	-9532
lungiswe	-9533
▁Kuyinto	-9534
▁ivumela	-9535
bingelela	-9536
▁Delivery	-9537
▁Producer	-9538
▁Uvavanyo	-9539
▁esekelwe	-9540
▁neempawu	-9541
▁engenazin	-9542
▁ezintandathu	-9543
Op	-9544
RE	-9545
:12	-9546
VEF	-9547
▁gu	-9548
Moto	-9549
Site	-9550
ania	-9551
bizi	-9552
hagu	-9553
cholo	-9554
hlalu	-9555
thula	-9556
▁Kwin	-9557
▁comp	-9558
▁nena	-9559
▁wezi	-9560
Ground	-9561
bhanki	-9562
owabhi	-9563
Bhahali	-9564
mbuyeke	-9565
▁komntu	-9566
khululwa	-9567
▁uthethe	-9568
▁Backless	-9569
▁amalahle	-9570
▁iintambo	-9571
▁iinyanga	-9572
▁isilivere	-9573
▁nokunciphisa	-9574
%,	-9575
ICP	-9576
ITI	-9577
KYD	-9578
tyu	-9579
▁pe	-9580
esti	-9581
shwe	-9582
▁Ili	-9583
▁nim	-9584
kakhe	-9585
phene	-9586
▁Char	-9587
▁soft	-9588
bonile	-9589
senoku	-9590
▁ayiyi	-9591
▁zenza	-9592
labathi	-9593
tsalane	-9594
▁Ekhaya	-9595
▁Sulzer	-9596
▁intamo	-9597
▁ndathi	-9598
dibanise	-9599
gcwalisa	-9600
▁ifilimu	-9601
▁yerabha	-9602
▁amahlanu	-9603
▁zorhwebo	-9604
▁zokuhlala	-9605
▁zokuhombisa	-9606
▁nabathetheli	-9607
SSL	-9608
Sel	-9609
har	-9610
XUYP	-9611
ance	-9612
▁Gir	-9613
▁zim	-9614
South	-9615
press	-9616
unter	-9617
▁Ikho	-9618
▁Sets	-9619
▁ekha	-9620
▁impe	-9621
▁niye	-9622
▁sezi	-9623
dubula	-9624
▁awaye	-9625
thobela	-9626
▁Ilaphu	-9627
▁iyonke	-9628
▁yemveli	-9629
▁Grippers	-9630
▁Iribhoni	-9631
▁ukunitha	-9632
lahlekelwa	-9633
▁Precision	-9634
▁zomsebenzi	-9635
▁ngesinyithi	-9636
pc	-9637
bar	-9638
uty	-9639
1810	-9640
isho	-9641
▁tur	-9642
bhlog	-9643
frika	-9644
▁Sika	-9645
▁azin	-9646
▁wafa	-9647
▁ween	-9648
▁yeSi	-9649
thunga	-9650
tsonko	-9651
▁Table	-9652
▁enobu	-9653
▁ndoda	-9654
stagram	-9655
▁iifoto	-9656
▁ilothe	-9657
▁ngaman	-9658
▁wabona	-9659
▁yabona	-9660
▁isivalo	-9661
▁zeemoto	-9662
▁igxalaba	-9663
▁sokubala	-9664
enzekelayo	-9665
▁Automatic	-9666
▁enesiciko	-9667
▁inkunkuma	-9668
▁Amakhasino	-9669
▁Electrical	-9670
▁eyahlukeneyo	-9671
MYS	-9672
Ooo	-9673
UMX	-9674
You	-9675
gco	-9676
▁3,	-9677
▁42	-9678
▁8.	-9679
▁Qi	-9680
baxa	-9681
labo	-9682
▁(1)	-9683
▁Chu	-9684
▁Jer	-9685
docum	-9686
yanda	-9687
▁Apha	-9688
▁Link	-9689
▁yale	-9690
▁izifo	-9691
▁akwazi	-9692
▁madoda	-9693
▁rotary	-9694
setyhini	-9695
phathwayo	-9696
tsikelelo	-9697
▁Ndaphila	-9698
▁neendawo	-9699
▁Finishing	-9700
▁kwisithuba	-9701
▁yinkampani	-9702
▁kangangokuba	-9703
don	-9704
par	-9705
qhi	-9706
-500	-9707
KUYJ	-9708
coma	-9709
pack	-9710
tovu	-9711
hluza	-9712
sapho	-9713
▁beli	-9714
Fransi	-9715
engama	-9716
tshilo	-9717
▁eyayi	-9718
▁ezibu	-9719
▁lwayo	-9720
malunga	-9721
qwenele	-9722
▁intetho	-9723
▁iplanga	-9724
▁zewebhu	-9725
mazulwini	-9726
▁Ukumkani	-9727
▁iimpompo	-9728
▁Household	-9729
▁Ukuhlamba	-9730
▁amaxwebhu	-9731
▁esisigxina	-9732
▁nesingxobo	-9733
▁iyafumaneka	-9734
cwangcisiweyo	-9735
NP	-9736
▁粤	-9737
HSR	-9738
SLL	-9739
▁fo	-9740
▁粤备	-9741
8880	-9742
difi	-9743
fiso	-9744
komi	-9745
▁Deu	-9746
▁ewe	-9747
▁iSa	-9748
lithi	-9749
wheel	-9750
▁host	-9751
▁iile	-9752
Twitter	-9753
pheliyo	-9754
shukuma	-9755
▁ephuma	-9756
18108880	-9757
khnoloji	-9758
▁baninzi	-9759
▁kwisiza	-9760
▁luncedo	-9761
▁abandayo	-9762
▁obukhulu	-9763
Ikhadibodi	-9764
▁lwetshiphu	-9765
▁ulondolozo	-9766
▁ngokulinganayo	-9767
%.	-9768
68	-9769
SN	-9770
Wa	-9771
:17	-9772
Com	-9773
Per	-9774
▁gi	-9775
fefe	-9776
neon	-9777
tock	-9778
▁kaN	-9779
krazu	-9780
lingo	-9781
rance	-9782
yensi	-9783
▁Babu	-9784
▁Siye	-9785
▁ibin	-9786
buyisa	-9787
fikile	-9788
ratory	-9789
▁nanko	-9790
luhlaza	-9791
mbisana	-9792
phawula	-9793
zaliswa	-9794
▁ityuwa	-9795
▁Fashion	-9796
▁ibhanti	-9797
▁kunyaka	-9798
▁ukucoca	-9799
documents	-9800
thanjiswa	-9801
anyangekiyo	-9802
chaphazelekayo	-9803
row	-9804
tle	-9805
▁1/	-9806
wala	-9807
▁Ste	-9808
▁evu	-9809
bambe	-9810
▁Yiyo	-9811
▁ingu	-9812
▁yoba	-9813
eiling	-9814
weleni	-9815
ssembly	-9816
▁enjalo	-9817
▁ihempe	-9818
▁khetha	-9819
▁kuvela	-9820
▁ingqiqo	-9821
▁namanzi	-9822
▁kwenziwe	-9823
▁ulwandle	-9824
mbandezelo	-9825
▁ukuguqula	-9826
▁Sublimation	-9827
▁Hy	-9828
Cawa	-9829
Gadi	-9830
fomu	-9831
mpil	-9832
redi	-9833
rint	-9834
▁nde	-9835
Grike	-9836
kunga	-9837
linde	-9838
pheka	-9839
sinya	-9840
tshat	-9841
▁kwes	-9842
▁zezo	-9843
Manase	-9844
lelayo	-9845
▁Guide	-9846
▁Omnye	-9847
▁amanye	-9848
▁iiseli	-9849
▁imfuno	-9850
▁kwathi	-9851
▁ngenye	-9852
▁Network	-9853
▁iinkalo	-9854
hayibhile	-9855
mbuyekezo	-9856
▁bafumana	-9857
▁ukunyuka	-9858
ikhadibhodi	-9859
qinisekiswa	-9860
▁koxinzelelo	-9861
▁yedipozithi	-9862
▁nobuchwepheshe	-9863
▁eyongezelelweyo	-9864
.—	-9865
yel	-9866
▁As	-9867
▁CM	-9868
▁YH	-9869
bule	-9870
fati	-9871
tena	-9872
wona	-9873
Lwesi	-9874
shiso	-9875
▁King	-9876
▁ibun	-9877
maleko	-9878
talini	-9879
▁Elbow	-9880
▁cwaka	-9881
▁isebe	-9882
▁kuman	-9883
mbulelo	-9884
tyabeka	-9885
▁OooOoo	-9886
▁Woofer	-9887
▁ngeeng	-9888
▁ngxaki	-9889
▁Ceiling	-9890
▁ukoyika	-9891
angempela	-9892
tifikethi	-9893
▁Khangela	-9894
▁kuDavide	-9895
▁esezantsi	-9896
▁ilungileyo	-9897
▁isikhokelo	-9898
▁kwemveliso	-9899
▁nokuvelisa	-9900
▁ogqibeleleyo	-9901
CC	-9902
RB	-9903
▁@	-9904
FYS	-9905
Nor	-9906
UOI	-9907
VYS	-9908
ZYS	-9909
fih	-9910
▁du	-9911
BHEY	-9912
beth	-9913
biwo	-9914
rhox	-9915
▁Ndo	-9916
▁Won	-9917
▁sla	-9918
ation	-9919
gwebi	-9920
▁kuno	-9921
▁sela	-9922
sabela	-9923
▁NBHEY	-9924
▁Ngama	-9925
▁amber	-9926
intloko	-9927
ontshwa	-9928
thinjwa	-9929
▁Kulula	-9930
▁iqonga	-9931
bonakali	-9932
▁ababini	-9933
▁entloko	-9934
▁zemveli	-9935
▁zizinto	-9936
angendawo	-9937
thelekisa	-9938
▁Ukubheja	-9939
▁abadlali	-9940
▁aphantsi	-9941
▁nabafazi	-9942
▁Imitshini	-9943
▁neentombi	-9944
▁ngokwenza	-9945
lungiseleli	-9946
▁izihlandlo	-9947
▁ibhayisekile	-9948
ZWD	-9949
cqu	-9950
IRUY	-9951
vuna	-9952
▁kaE	-9953
▁sim	-9954
katha	-9955
semva	-9956
wonke	-9957
▁ngce	-9958
▁nguM	-9959
kanini	-9960
khungu	-9961
orinte	-9962
▁Nyana	-9963
▁futhi	-9964
▁kuyin	-9965
▁naphi	-9966
▁indalo	-9967
▁ncwadi	-9968
software	-9969
▁kangaka	-9970
▁ukuvuza	-9971
▁umqhubi	-9972
Bluetooth	-9973
formation	-9974
shicileli	-9975
▁Iindlela	-9976
▁ezinzima	-9977
▁kwedatha	-9978
▁phesheya	-9979
balaseleyo	-9980
jikelezisa	-9981
printiweyo	-9982
▁ethambileyo	-9983
▁ngokungqinelana	-9984
.”+	-9985
HYS	-9986
rum	-9987
ten	-9988
gush	-9989
inen	-9990
ters	-9991
toon	-9992
▁Sea	-9993
▁olo	-9994
▁yeP	-9995
kwaye	-9996
qhina	-9997
wethu	-9998
▁ekhu	-9999
▁kolu	-10000
▁meni	-10001
Farisi	-10002
misayo	-10003
▁efuna	-10004
▁ezibe	-10005
▁ibali	-10006
lumkiso	-10007
thethwa	-10008
▁linoku	-10009
▁ndandi	-10010
▁powder	-10011
ululwazi	-10012
▁Natural	-10013
▁ekunene	-10014
▁IsiNgesi	-10015
▁ngqongqo	-10016
▁yokugquma	-10017
▁empontshwa	-10018
unt	-10019
buze	-10020
cean	-10021
ckel	-10022
mail	-10023
▁Dry	-10024
▁Pla	-10025
Andro	-10026
mveni	-10027
▁Kids	-10028
▁Tian	-10029
▁lomn	-10030
▁onge	-10031
▁wazo	-10032
kokuba	-10033
thumbu	-10034
▁Kunga	-10035
▁UYesu	-10036
▁hydro	-10037
kululeko	-10038
▁kukunika	-10039
▁njengama	-10040
▁zokuqala	-10041
▁zokwenza	-10042
qamlezweni	-10043
▁Iibhonasi	-10044
▁yokuphuma	-10045
dityanisiweyo	-10046
▁kumaSirayeli	-10047
hlanganisiweyo	-10048
gal	-10049
lla	-10050
pin	-10051
vin	-10052
Gali	-10053
pile	-10054
raca	-10055
simi	-10056
▁ebi	-10057
CUYUY	-10058
bhale	-10059
elase	-10060
khole	-10061
mvume	-10062
▁Niya	-10063
▁sina	-10064
kulung	-10065
phakan	-10066
wisele	-10067
▁Phone	-10068
▁esuka	-10069
▁ezama	-10070
▁eziko	-10071
▁ezini	-10072
▁senze	-10073
▁uyaku	-10074
qokobhe	-10075
▁ezenza	-10076
▁piston	-10077
iselweyo	-10078
kontraka	-10079
▁ezinike	-10080
▁ngcembe	-10081
▁injector	-10082
▁Okokuqala	-10083
▁Spotlight	-10084
▁nokwadala	-10085
▁ukubonakala	-10086
▁ukukhanyisa	-10087
▁yabasebenzi	-10088
.)	-10089
23	-10090
Ty	-10091
enu	-10092
mir	-10093
rey	-10094
rush	-10095
▁1.5	-10096
▁25,	-10097
▁Din	-10098
▁Red	-10099
ulayi	-10100
▁Impa	-10101
mayeli	-10102
▁esiya	-10103
▁uqale	-10104
Android	-10105
bunzima	-10106
▁Wooden	-10107
▁engile	-10108
▁namava	-10109
▁ujonge	-10110
▁Kutheni	-10111
▁digital	-10112
Selfowuni	-10113
▁awukwazi	-10114
▁egumbini	-10115
▁ngabanye	-10116
▁abaphulaphuli	-10117
eji	-10118
ria	-10119
▁eK	-10120
KUYZ	-10121
XUYH	-10122
▁Xin	-10123
▁tin	-10124
Inter	-10125
bhiyo	-10126
canda	-10127
gasti	-10128
leleyo	-10129
rikeni	-10130
▁ezona	-10131
▁shirt	-10132
▁ingena	-10133
▁ngento	-10134
jikelezo	-10135
▁Systems	-10136
▁imifuno	-10137
▁sikwazi	-10138
▁ungenza	-10139
▁yexesha	-10140
▁negolide	-10141
▁ngasinye	-10142
▁Machining	-10143
▁kummandla	-10144
khawulezisa	-10145
▁zesinyithi	-10146
▁urhulumente	-10147
▁Interchangeable	-10148
xed	-10149
▁Ise	-10150
▁eva	-10151
▁ide	-10152
▁lis	-10153
shoni	-10154
linder	-10155
▁kwelo	-10156
lingani	-10157
▁Inqaku	-10158
▁elanga	-10159
▁system	-10160
▁uhambe	-10161
▁belizwe	-10162
▁inokuba	-10163
gqibelele	-10164
▁ngokwabo	-10165
▁Tshintsha	-10166
▁emlilweni	-10167
xibelelanisi	-10168
▁IBhayibhile	-10169
▁elidlulileyo	-10170
▁lokuhlambela	-10171
▁yeDiphozithi	-10172
AM	-10173
Clo	-10174
xis	-10175
▁OS	-10176
▁eT	-10177
bemi	-10178
elay	-10179
hodi	-10180
xing	-10181
▁net	-10182
▁uSa	-10183
andar	-10184
konwa	-10185
▁Temp	-10186
▁ikwa	-10187
▁nizi	-10188
enzile	-10189
qalise	-10190
▁Itsho	-10191
▁abani	-10192
▁eland	-10193
▁obude	-10194
▁ongum	-10195
Midlalo	-10196
lahleka	-10197
lathiso	-10198
qulatho	-10199
▁Emveni	-10200
▁ladies	-10201
▁yendlu	-10202
dibaniso	-10203
▁neminye	-10204
▁nokunye	-10205
▁umbhali	-10206
▁Ukubetha	-10207
▁ahlabayo	-10208
▁zomzimba	-10209
qinisekile	-10210
thandekayo	-10211
▁iprojekthi	-10212
▁kubaluleke	-10213
▁nenayiloni	-10214
▁engaphezulu	-10215
▁iimvakalelo	-10216
▁isibingelelo	-10217
SO	-10218
▁2)	-10219
▁44	-10220
▁ge	-10221
yizi	-10222
▁(2)	-10223
▁000	-10224
▁Fol	-10225
▁USA	-10226
▁Vol	-10227
▁Wel	-10228
dlayo	-10229
inaku	-10230
isure	-10231
kembe	-10232
rhulu	-10233
▁Baye	-10234
▁Lamp	-10235
▁flat	-10236
▁iyin	-10237
Samari	-10238
angcwa	-10239
mental	-10240
qubuda	-10241
▁Party	-10242
▁kundi	-10243
▁zokwa	-10244
▁inqaku	-10245
▁kufika	-10246
▁itafile	-10247
▁kumkani	-10248
▁kuyinto	-10249
▁umfundi	-10250
kumkanini	-10251
▁kufanele	-10252
vumelekile	-10253
▁emarikeni	-10254
▁akwaSirayeli	-10255
▁zangaphakathi	-10256
dth	-10257
▁uJ	-10258
ffic	-10259
jana	-10260
mbin	-10261
rees	-10262
sure	-10263
vity	-10264
▁One	-10265
▁Pel	-10266
▁qha	-10267
dumbu	-10268
khodi	-10269
xokel	-10270
▁lise	-10271
▁yent	-10272
kanuko	-10273
▁alarm	-10274
▁lobomi	-10275
elungelo	-10276
▁ndiyazi	-10277
▁ngentla	-10278
▁Phakathi	-10279
▁elizweni	-10280
▁uSihlalo	-10281
▁amaphepha	-10282
▁imiphefumlo	-10283
▁yaseYurophu	-10284
▁eyiSelfowuni	-10285
dal	-10286
rag	-10287
▁Wi	-10288
hlas	-10289
kozo	-10290
▁Deal	-10291
▁imba	-10292
▁kaMa	-10293
▁lazo	-10294
lwanga	-10295
ngekho	-10296
tsheni	-10297
xhamla	-10298
▁Cargo	-10299
▁kwiib	-10300
▁ngoxa	-10301
▁ubeke	-10302
▁valve	-10303
lokweni	-10304
lungiso	-10305
qeqesha	-10306
▁kwemin	-10307
▁leposi	-10308
▁womoya	-10309
endlwini	-10310
mpilweni	-10311
▁Uyabona	-10312
▁iziseko	-10313
▁kwiqela	-10314
▁Kubalule	-10315
▁ilahleko	-10316
▁ukudlala	-10317
▁yinkqubo	-10318
▁ibonelela	-10319
▁yasekhaya	-10320
enethiwekhi	-10321
▁abathengisi	-10322
led	-10323
uno	-10324
KUYW	-10325
angi	-10326
mato	-10327
tage	-10328
▁30,	-10329
▁Emi	-10330
▁Hol	-10331
▁Lab	-10332
▁Wen	-10333
▁bem	-10334
▁eny	-10335
▁pol	-10336
ngeni	-10337
tamin	-10338
welda	-10339
▁Gree	-10340
▁Tool	-10341
▁niyi	-10342
Motion	-10343
dodana	-10344
neader	-10345
onitor	-10346
thatya	-10347
▁Brush	-10348
▁Sport	-10349
▁kwise	-10350
▁nzulu	-10351
▁yenze	-10352
▁becala	-10353
▁kubomi	-10354
▁kudala	-10355
▁ubhaka	-10356
mvavanyo	-10357
titshala	-10358
▁Injongo	-10359
▁eseleyo	-10360
▁kukwazi	-10361
▁lukhuni	-10362
▁okokuba	-10363
▁ukuvula	-10364
▁ukuyila	-10365
▁wangena	-10366
▁zokutya	-10367
qwalaselo	-10368
▁ententeni	-10369
▁inkululeko	-10370
▁ukwabelana	-10371
▁ukuxhathisa	-10372
.6	-10373
Ho	-10374
olu	-10375
tlu	-10376
▁Jar	-10377
▁col	-10378
▁ste	-10379
▁uco	-10380
bonda	-10381
funga	-10382
niche	-10383
▁Yang	-10384
sinika	-10385
▁uboya	-10386
▁uzuko	-10387
hlukile	-10388
trusion	-10389
▁Amazon	-10390
▁Iphone	-10391
▁ababen	-10392
▁endiyi	-10393
▁zendlu	-10394
function	-10395
▁Belgian	-10396
▁abaLevi	-10397
▁emizini	-10398
▁ezilula	-10399
▁mhlophe	-10400
▁ngemali	-10401
▁ukwanda	-10402
tshatyala	-10403
▁isikwere	-10404
khuphisana	-10405
▁Ukugcinwa	-10406
▁ezandleni	-10407
▁Fiberglass	-10408
▁abangcwele	-10409
▁iingcebiso	-10410
▁ingcamango	-10411
cikizekileyo	-10412
yanisekileyo	-10413
▁nangaphandle	-10414
▁lwangaphakathi	-10415
LYS	-10416
orn	-10417
▁ED	-10418
celi	-10419
enkc	-10420
erry	-10421
kuva	-10422
sawu	-10423
shwa	-10424
▁pad	-10425
cheba	-10426
phule	-10427
ungqu	-10428
width	-10429
▁eben	-10430
dering	-10431
ometer	-10432
roneni	-10433
▁abaku	-10434
▁isifo	-10435
▁isisu	-10436
▁neoli	-10437
vesithi	-10438
▁metres	-10439
▁woMntu	-10440
bhedlele	-10441
bumnyama	-10442
gqunyiwe	-10443
▁ibunjwe	-10444
lindeleke	-10445
▁iyunithi	-10446
▁ioksijini	-10447
▁ngezandla	-10448
▁ukuvumela	-10449
▁zentengiso	-10450
▁zobungcali	-10451
▁ngasekunene	-10452
▁Isetyenziswa	-10453
▁Isicwangciso	-10454
.1	-10455
IMI	-10456
RUB	-10457
rch	-10458
▁''	-10459
WHSR	-10460
dene	-10461
hlin	-10462
keru	-10463
tala	-10464
▁pla	-10465
aneli	-10466
ontsi	-10467
theka	-10468
wenze	-10469
▁Fuji	-10470
▁Full	-10471
▁Yong	-10472
▁neze	-10473
▁yeze	-10474
sondlo	-10475
tyelwe	-10476
▁kuhle	-10477
▁uBawo	-10478
▁unalo	-10479
▁uzive	-10480
khenkce	-10481
▁Pieces	-10482
▁imaski	-10483
Samuweli	-10484
mehlweni	-10485
▁arhente	-10486
aluminium	-10487
dlulisela	-10488
▁Qhagamsh	-10489
▁nomhlaba	-10490
▁samandla	-10491
▁ukufakwa	-10492
▁zexabiso	-10493
balulekile	-10494
▁lesizinda	-10495
▁inshorensi	-10496
▁olupheleleyo	-10497
▁Ngokukhokelwa	-10498
Ok	-10499
kc	-10500
Ndi	-10501
XOI	-10502
kade	-10503
kini	-10504
▁Ize	-10505
fiber	-10506
vamvo	-10507
▁Lead	-10508
▁Port	-10509
▁Work	-10510
▁abam	-10511
▁kwiN	-10512
▁ziqu	-10513
mbethe	-10514
meleki	-10515
phatho	-10516
polisa	-10517
▁esele	-10518
▁fiber	-10519
▁unina	-10520
Genesis	-10521
Kumkani	-10522
bhalela	-10523
▁Summer	-10524
▁ezinde	-10525
▁zemali	-10526
robheham	-10527
▁imizobo	-10528
▁luhlobo	-10529
▁yokutya	-10530
cilelweyo	-10531
▁Iingxelo	-10532
▁zeCasino	-10533
▁Treatment	-10534
▁Wholesale	-10535
▁iibhonasi	-10536
▁iintshaba	-10537
▁imithwalo	-10538
▁yomsebenzi	-10539
▁impembelelo	-10540
▁ukuphuhlisa	-10541
▁ekumgangatho	-10542
▁oluzinzileyo	-10543
ros	-10544
vis	-10545
▁43	-10546
▁Yu	-10547
-300	-10548
ista	-10549
kane	-10550
lolo	-10551
wend	-10552
▁AWG	-10553
▁IMY	-10554
▁nis	-10555
isuka	-10556
▁Kalo	-10557
▁ephe	-10558
▁zisi	-10559
belane	-10560
ressor	-10561
wekile	-10562
▁ikama	-10563
▁ivela	-10564
phulelo	-10565
▁Xinglu	-10566
▁emzini	-10567
▁inguqu	-10568
▁isamba	-10569
▁slavia	-10570
tshetshe	-10571
ustralia	-10572
▁hosting	-10573
▁ibhrashi	-10574
▁shishino	-10575
▁ukunyusa	-10576
▁yezigidi	-10577
ungquthela	-10578
▁abamnyama	-10579
▁engqongqo	-10580
▁kwendlela	-10581
▁kwenkqubo	-10582
▁ezintabeni	-10583
▁ngobuchule	-10584
▁ezincamathelayo	-10585
VX	-10586
:14	-10587
:20	-10588
esk	-10589
▁55	-10590
arch	-10591
dumo	-10592
ella	-10593
taur	-10594
wise	-10595
▁Hui	-10596
▁won	-10597
lindi	-10598
phate	-10599
▁Film	-10600
▁IsiA	-10601
▁kade	-10602
▁lezi	-10603
▁wand	-10604
paneli	-10605
▁Color	-10606
▁avela	-10607
andarin	-10608
mbulala	-10609
▁Tester	-10610
▁umbuzo	-10611
enzileyo	-10612
hlotyeni	-10613
▁acrylic	-10614
▁izipaji	-10615
▁uthathe	-10616
▁zininzi	-10617
hlolokazi	-10618
qwalasele	-10619
▁ummandla	-10620
▁zentlalo	-10621
semzimbeni	-10622
thembekile	-10623
▁emsebenzi	-10624
▁ezingcwele	-10625
▁ngombhobho	-10626
engahlengiso	-10627
▁olongezelelweyo	-10628
my	-10629
XZX	-10630
ern	-10631
zza	-10632
edra	-10633
▁mpa	-10634
ctive	-10635
hloni	-10636
tyeda	-10637
▁down	-10638
▁umba	-10639
▁zeng	-10640
▁Chang	-10641
▁china	-10642
▁komzi	-10643
▁kweza	-10644
▁ngani	-10645
▁nqaku	-10646
hambeni	-10647
lukhuni	-10648
▁Common	-10649
▁komoya	-10650
dijithali	-10651
▁eminyaka	-10652
▁akuthethi	-10653
▁wathumela	-10654
▁iiprojekthi	-10655
gg	-10656
FKP	-10657
iny	-10658
▁AS	-10659
▁cy	-10660
banj	-10661
biya	-10662
omso	-10663
qhen	-10664
rane	-10665
ttom	-10666
uice	-10667
▁Spa	-10668
▁Zin	-10669
▁die	-10670
▁ini	-10671
▁nye	-10672
▁vei	-10673
eller	-10674
hluke	-10675
▁beze	-10676
▁kaYo	-10677
Phondo	-10678
bulale	-10679
elwayo	-10680
▁eziya	-10681
▁optic	-10682
▁uAron	-10683
bungozi	-10684
eleleni	-10685
kangala	-10686
▁Ibhedi	-10687
▁kungen	-10688
endelezo	-10689
▁ithatha	-10690
▁kwindlu	-10691
bhukadene	-10692
khokelayo	-10693
sisigxina	-10694
▁abathile	-10695
▁ngomlomo	-10696
▁oluninzi	-10697
▁yabucala	-10698
hlangeneyo	-10699
▁iingenelo	-10700
fihlakeleyo	-10701
▁atshintsha	-10702
▁eziluncedo	-10703
▁imifuziselo	-10704
bhukadenetsare	-10705
ITL	-10706
JYS	-10707
MAN	-10708
TFE	-10709
fil	-10710
goba	-10711
sive	-10712
▁MBE	-10713
▁Stu	-10714
▁res	-10715
dyuli	-10716
lasma	-10717
▁Bona	-10718
▁Muti	-10719
▁akun	-10720
bulali	-10721
mpunge	-10722
qolowa	-10723
tolika	-10724
▁Greek	-10725
▁Imilo	-10726
▁Nding	-10727
▁esiza	-10728
dlulayo	-10729
onakala	-10730
▁Kaloku	-10731
▁kwibho	-10732
qanjiswa	-10733
bulungisa	-10734
chanileyo	-10735
onikezelo	-10736
▁inombolo	-10737
▁ipeyinti	-10738
▁izikrini	-10739
▁sokuqala	-10740
▁ukuwelda	-10741
▁Converter	-10742
▁iinjineli	-10743
▁ngokutsho	-10744
bhayisekile	-10745
▁iYerusalem	-10746
▁ukuhambisa	-10747
▁yokulawula	-10748
▁Netherlands	-10749
▁lweshishini	-10750
▁nokupakisha	-10751
▁kuqinisekisa	-10752
▁bokushicilela	-10753
▁yokulinganisa	-10754
01	-10755
Hz	-10756
yk	-10757
XTI	-10758
ves	-10759
zom	-10760
▁41	-10761
Edom	-10762
XUYD	-10763
xoxa	-10764
▁Cra	-10765
▁cal	-10766
▁oco	-10767
▁ses	-10768
▁usu	-10769
kubon	-10770
lweyo	-10771
▁2012	-10772
▁Isai	-10773
▁Nico	-10774
▁Tags	-10775
▁kulu	-10776
▁liza	-10777
▁nize	-10778
qubeni	-10779
selula	-10780
sipala	-10781
▁balan	-10782
▁cable	-10783
▁endle	-10784
Somlomo	-10785
boniswe	-10786
cavator	-10787
galelwe	-10788
rhabaxa	-10789
▁nemali	-10790
▁uhamba	-10791
ngcakaza	-10792
▁Inaliti	-10793
▁amatsha	-10794
▁ubusuku	-10795
▁zixhobo	-10796
▁Iimpahla	-10797
▁KaYehova	-10798
▁ukususwa	-10799
▁zophahla	-10800
▁liphezulu	-10801
▁imiqondiso	-10802
transceivers	-10803
▁ngokuqinileyo	-10804
,,	-10805
XUA	-10806
fti	-10807
comp	-10808
limi	-10809
lish	-10810
▁EVA	-10811
▁ufe	-10812
kheli	-10813
▁Camp	-10814
▁bawu	-10815
▁inye	-10816
▁nkxu	-10817
▁esina	-10818
▁lizwi	-10819
fihlelo	-10820
yingozi	-10821
▁Centre	-10822
▁Delany	-10823
▁Jersey	-10824
▁unyaka	-10825
xantathu	-10826
▁uphinde	-10827
▁isilingi	-10828
▁ngolwazi	-10829
▁umphunga	-10830
▁Intlawulo	-10831
▁iimpazamo	-10832
▁iziqwenga	-10833
▁njengento	-10834
▁Equipments	-10835
▁Iingcebiso	-10836
▁Waterproof	-10837
▁kwibhoyila	-10838
▁ngoomatshini	-10839
▁olusebenzayo	-10840
▁uqhagamshelo	-10841
▁ecikizekileyo	-10842
sk	-10843
ubu	-10844
▁Ig	-10845
▁wu	-10846
XUYJ	-10847
bano	-10848
▁LIB	-10849
Bhete	-10850
tobha	-10851
tshay	-10852
tyeba	-10853
▁Warp	-10854
alkali	-10855
tyhefu	-10856
▁Flash	-10857
▁eziku	-10858
▁nanye	-10859
optical	-10860
▁Ingoma	-10861
▁Isaiah	-10862
▁izenzo	-10863
zimisele	-10864
▁uYosefu	-10865
▁utywala	-10866
▁Ikhoyili	-10867
▁abaxhasi	-10868
tyhidiweyo	-10869
▁ikhompyutha	-10870
▁uqinisekise	-10871
▁wePanasonic	-10872
▁amathandathu	-10873
▁lwangaphandle	-10874
▁ngokusesikweni	-10875
▁iintsholongwane	-10876
AN	-10877
Bi	-10878
Fu	-10879
▁Vu	-10880
cent	-10881
lale	-10882
shop	-10883
tili	-10884
▁Bin	-10885
▁Ima	-10886
▁asa	-10887
▁tor	-10888
▁uvu	-10889
khela	-10890
▁1080	-10891
▁Umzi	-10892
▁ongu	-10893
cquard	-10894
okotho	-10895
▁Ocean	-10896
▁ayisi	-10897
▁ndili	-10898
▁ngumn	-10899
▁umthi	-10900
luphala	-10901
phelele	-10902
taurant	-10903
▁iiseti	-10904
▁ilungu	-10905
▁ivumba	-10906
▁yayise	-10907
▁yokufa	-10908
komkhulu	-10909
qiniseni	-10910
▁bephela	-10911
▁eyaziwa	-10912
▁ezingen	-10913
▁inokusi	-10914
▁Business	-10915
▁computer	-10916
▁ingeniso	-10917
▁isampula	-10918
▁iwelding	-10919
thululwayo	-10920
▁Guangzhou	-10921
▁isithuthi	-10922
▁ngomatshini	-10923
▁kokuthengisa	-10924
▁nangaphezulu	-10925
▁ngokuchasene	-10926
//	-10927
bot	-10928
unu	-10929
xhu	-10930
▁ic	-10931
Best	-10932
XUYN	-10933
XUYY	-10934
rhma	-10935
▁Fun	-10936
▁toe	-10937
▁2015	-10938
▁Cute	-10939
▁ITUY	-10940
▁ekwi	-10941
chazwa	-10942
forman	-10943
▁Yedra	-10944
▁lwemi	-10945
▁uYise	-10946
angqina	-10947
kerubhi	-10948
mangalo	-10949
▁degree	-10950
▁kubuya	-10951
khanyiso	-10952
▁candelo	-10953
▁ekufeni	-10954
kwandiswa	-10955
tuthuzelo	-10956
▁Ethernet	-10957
▁anyukayo	-10958
▁ibhonasi	-10959
▁nothango	-10960
▁Yedrarhma	-10961
▁isikhwama	-10962
▁komsebenzi	-10963
▁nokukhanya	-10964
▁nangokukrola	-10965
▁zakwaSirayeli	-10966
▁zikhululekile	-10967
900	-10968
XOS	-10969
▁cm	-10970
▁uD	-10971
anzi	-10972
ford	-10973
pact	-10974
▁Vyk	-10975
lethi	-10976
llion	-10977
stiki	-10978
viron	-10979
▁Hole	-10980
▁ndis	-10981
▁siba	-10982
hlambe	-10983
riyeli	-10984
sikizi	-10985
thambe	-10986
▁Kanye	-10987
▁Kothi	-10988
▁akuba	-10989
▁ndize	-10990
▁yodwa	-10991
tengiso	-10992
thengwa	-10993
▁Church	-10994
▁kwaoko	-10995
▁ndenze	-10996
▁obunga	-10997
▁single	-10998
▁siyazi	-10999
▁veikla	-11000
thengise	-11001
▁Vykdoma	-11002
▁abazali	-11003
▁naphezu	-11004
▁nasezin	-11005
▁zoluntu	-11006
▁Isakhelo	-11007
▁kwabakho	-11008
▁angaphezu	-11009
▁iintlanzi	-11010
▁sokufunxa	-11011
▁yokufumana	-11012
▁IsiTshayina	-11013
▁iqaqanjiswa	-11014
,”	-11015
:30	-11016
DYS	-11017
bit	-11018
KUYK	-11019
anco	-11020
bumn	-11021
nama	-11022
▁2.0	-11023
▁SFP	-11024
▁TUY	-11025
▁lon	-11026
khube	-11027
swele	-11028
zonke	-11029
▁olom	-11030
Kaledi	-11031
Mateyu	-11032
andulo	-11033
elweni	-11034
krakra	-11035
onatan	-11036
▁amaso	-11037
▁ezayo	-11038
▁ezind	-11039
▁kwane	-11040
erature	-11041
gqwetha	-11042
hlawule	-11043
semzini	-11044
zenzayo	-11045
ziseben	-11046
▁emihle	-11047
▁ngapha	-11048
cinezela	-11049
coliseko	-11050
▁UDavide	-11051
▁ayitshi	-11052
▁uMariya	-11053
▁Ngamanye	-11054
▁Mhlawumbi	-11055
▁Rendering	-11056
▁Ukukhusela	-11057
▁okuchasene	-11058
khawulezileyo	-11059
▁ezisebenzayo	-11060
▁nemigangatho	-11061
Nebhukadenetsare	-11062
▁ngokwemizalwane	-11063
:21	-11064
SHA	-11065
ULI	-11066
KUYY	-11067
goko	-11068
leke	-11069
velo	-11070
▁6.5	-11071
▁Med	-11072
▁ade	-11073
ngcwa	-11074
sinda	-11075
tishi	-11076
▁eBha	-11077
▁ebho	-11078
▁free	-11079
▁lini	-11080
▁masi	-11081
▁neyo	-11082
Galili	-11083
gxotha	-11084
hlukan	-11085
isemba	-11086
thongo	-11087
lonwabo	-11088
welonke	-11089
▁Analog	-11090
▁ingozi	-11091
▁nomnye	-11092
formance	-11093
▁ayinaku	-11094
▁isitulo	-11095
▁itywina	-11096
▁ukubala	-11097
▁wahamba	-11098
▁Umthombo	-11099
▁yokomisa	-11100
▁yoonyana	-11101
kulungwane	-11102
▁lilangeni	-11103
▁projekthi	-11104
▁ukungcola	-11105
▁yokuHlala	-11106
▁amanqanaba	-11107
▁noshishino	-11108
▁okugqibela	-11109
▁kwinkampani	-11110
▁olomeleleyo	-11111
▁Qhagamshelana	-11112
]]	-11113
API	-11114
ory	-11115
pal	-11116
rit	-11117
▁at	-11118
Tube	-11119
WUYP	-11120
XUYB	-11121
body	-11122
poly	-11123
xhum	-11124
phico	-11125
tsole	-11126
▁Wine	-11127
▁bane	-11128
▁cell	-11129
▁kina	-11130
▁nese	-11131
▁sise	-11132
Rubhen	-11133
zisela	-11134
▁lwenu	-11135
▁ngaso	-11136
inaliti	-11137
thuthwa	-11138
▁genera	-11139
▁imfuyo	-11140
▁impilo	-11141
▁izinyo	-11142
▁onzima	-11143
hlalutyo	-11144
▁abanama	-11145
▁zamanzi	-11146
▁Assembly	-11147
▁Chemical	-11148
▁ezinjalo	-11149
▁isahlulo	-11150
▁oluthile	-11151
▁yegolide	-11152
▁Mutilayer	-11153
▁Phakamisa	-11154
▁yinxalenye	-11155
▁lwekontraka	-11156
IKA	-11157
QOI	-11158
▁Fe	-11159
Stop	-11160
bola	-11161
bono	-11162
guan	-11163
poli	-11164
▁Fra	-11165
▁Mat	-11166
▁pcb	-11167
Sipro	-11168
ement	-11169
▁Coal	-11170
▁gran	-11171
▁tile	-11172
ensile	-11173
faniyo	-11174
ishiya	-11175
▁block	-11176
▁ngokw	-11177
▁relay	-11178
kelelwe	-11179
makhulu	-11180
▁kwanza	-11181
thandana	-11182
▁Imibala	-11183
▁Ulawulo	-11184
▁ithemba	-11185
▁ukuzama	-11186
▁yomgama	-11187
buyiselwa	-11188
▁Safewell	-11189
▁ingcinga	-11190
▁seRosari	-11191
phengululo	-11192
▁Ngaphambi	-11193
▁kubafundi	-11194
▁okokuqala	-11195
▁yakwaYuda	-11196
▁Restaurant	-11197
▁ngamashumi	-11198
▁isiqingatha	-11199
▁Kubalulekile	-11200
▁inokusityeda	-11201
ux	-11202
▁❤	-11203
-14	-11204
XUYG	-11205
anqa	-11206
niki	-11207
▁Koo	-11208
dumba	-11209
jiang	-11210
xiang	-11211
▁lemi	-11212
▁womn	-11213
▁yaso	-11214
cacile	-11215
fubeni	-11216
luores	-11217
peaker	-11218
xinano	-11219
▁Block	-11220
▁Crimp	-11221
▁omntu	-11222
▁radia	-11223
▁Beauty	-11224
▁Safety	-11225
▁kumgca	-11226
▁lidini	-11227
▁wabeka	-11228
▁zinika	-11229
▁Cartoon	-11230
▁Melikey	-11231
▁iwotshi	-11232
inisekisa	-11233
▁etroneni	-11234
▁ihryvnia	-11235
▁iwhiskey	-11236
▁ndicinga	-11237
phononongo	-11238
▁oyifunayo	-11239
▁yangasese	-11240
bhayisikile	-11241
▁eziqinileyo	-11242
▁noxinzelelo	-11243
▁waseAsiriya	-11244
▁yokumakisha	-11245
▁ekhawulezayo	-11246
▁isizukulwana	-11247
▁nababoneleli	-11248
▁ezingaphezulu	-11249
▁eliqhelekileyo	-11250
phindaphindiweyo	-11251
TRA	-11252
UUA	-11253
ful	-11254
Mnga	-11255
alon	-11256
data	-11257
zere	-11258
▁Lea	-11259
hetha	-11260
thani	-11261
hlulwe	-11262
hotele	-11263
licate	-11264
politi	-11265
thombe	-11266
yisela	-11267
▁Drive	-11268
▁Earth	-11269
▁bambi	-11270
▁esizi	-11271
▁eyiyo	-11272
phaluka	-11273
▁kumntu	-11274
▁yezona	-11275
Khuseleko	-11276
sebenzela	-11277
▁umkhondo	-11278
▁inkqubela	-11279
▁ngenjongo	-11280
▁selastiki	-11281
▁kuphuhliso	-11282
▁umthetheli	-11283
▁ngokufanayo	-11284
▁wawutyabeka	-11285
▁Ukongezelela	-11286
▁isikhongozeli	-11287
▁okhethekileyo	-11288
Ex	-11289
▁HD	-11290
▁fe	-11291
▁uB	-11292
luki	-11293
sala	-11294
▁PLC	-11295
▁Pay	-11296
▁fin	-11297
▁nas	-11298
▁par	-11299
▁yef	-11300
omnye	-11301
qweni	-11302
zonka	-11303
▁Bolt	-11304
empawu	-11305
▁Style	-11306
▁kulwa	-11307
▁usana	-11308
Abraham	-11309
Mzantsi	-11310
▁esenza	-11311
▁kwikha	-11312
▁nalowo	-11313
▁Incwadi	-11314
▁engange	-11315
▁Amanqaku	-11316
▁IngomaLi	-11317
▁ekuthiwa	-11318
▁ilungile	-11319
▁kubonisa	-11320
▁nomzimba	-11321
▁zokucoca	-11322
semandleni	-11323
▁Inkcazelo	-11324
▁Ukrainian	-11325
▁ummelwane	-11326
▁Imisebenzi	-11327
▁behlabathi	-11328
▁iintliziyo	-11329
▁isalathisi	-11330
▁yakutshanje	-11331
▁ukusombulula	-11332
QZX	-11333
UZX	-11334
aye	-11335
box	-11336
cre	-11337
ple	-11338
Lung	-11339
Star	-11340
dayi	-11341
elds	-11342
rene	-11343
yoka	-11344
▁neN	-11345
▁yun	-11346
Amori	-11347
aniya	-11348
benze	-11349
cindi	-11350
kishe	-11351
lasti	-11352
menyu	-11353
▁Spli	-11354
▁WHSR	-11355
▁kuze	-11356
▁nent	-11357
▁othi	-11358
cooter	-11359
fomati	-11360
seleyo	-11361
uhlobo	-11362
zinike	-11363
▁Yathi	-11364
▁email	-11365
▁ifuna	-11366
▁ngesa	-11367
▁ngolu	-11368
▁Gabion	-11369
camagush	-11370
▁kufakwa	-11371
▁umdlali	-11372
▁yamkela	-11373
phakamise	-11374
▁Ibhotile	-11375
▁isiqhamo	-11376
▁womnatha	-11377
khonzazana	-11378
phambukeli	-11379
▁iziganeko	-11380
▁kwibhokisi	-11381
▁ushicilelo	-11382
xabisekileyo	-11383
▁Uphengululo	-11384
▁engaphandle	-11385
▁izikhonkwane	-11386
▁ibalulekileyo	-11387
EP	-11388
Pi	-11389
KOI	-11390
QTI	-11391
ufa	-11392
ysi	-11393
XUYF	-11394
emin	-11395
krex	-11396
▁yeS	-11397
bular	-11398
chaze	-11399
tywin	-11400
yelwe	-11401
▁Sase	-11402
▁Uthi	-11403
▁idla	-11404
▁post	-11405
bhamba	-11406
▁kahle	-11407
▁ultra	-11408
▁zakwa	-11409
anamhla	-11410
jengoko	-11411
mthetho	-11412
▁Sunset	-11413
▁Yisure	-11414
▁ikwazi	-11415
▁wobomi	-11416
computer	-11417
friendly	-11418
▁Ukuvuza	-11419
▁ezindle	-11420
▁kwemali	-11421
▁sombane	-11422
▁Compound	-11423
▁iingcali	-11424
▁lwamanzi	-11425
▁ubutyebi	-11426
▁ukuphuma	-11427
▁uthumele	-11428
phulaphule	-11429
▁Ulwakhiwo	-11430
▁ngentambo	-11431
▁Kwiminyaka	-11432
▁Ngokubanzi	-11433
▁yokuthutha	-11434
▁Ukunyathela	-11435
▁elisezantsi	-11436
▁ngokwendlela	-11437
sentshonalanga	-11438
HP	-11439
OTI	-11440
wei	-11441
cofa	-11442
siya	-11443
tata	-11444
time	-11445
veza	-11446
▁Bun	-11447
▁Cap	-11448
▁Eti	-11449
▁yeH	-11450
heets	-11451
kheni	-11452
kroti	-11453
phulu	-11454
▁Mccb	-11455
▁boba	-11456
▁turn	-11457
Rubber	-11458
panese	-11459
pillar	-11460
▁arani	-11461
▁lwazo	-11462
▁ndiwa	-11463
▁ngaku	-11464
antlanu	-11465
screens	-11466
tliziyo	-11467
▁Jacket	-11468
▁ungena	-11469
▁wabuya	-11470
▁wendlu	-11471
▁kwendlu	-11472
▁nasiphi	-11473
▁textile	-11474
▁umxhasi	-11475
▁yonyaka	-11476
▁enombala	-11477
▁ncwadana	-11478
▁isitshixo	-11479
▁ocoliweyo	-11480
▁uthabathe	-11481
▁mechanical	-11482
▁Ukuthengisa	-11483
85	-11484
qw	-11485
ELI	-11486
pol	-11487
▁uk	-11488
KUYD	-11489
KUYI	-11490
ball	-11491
plex	-11492
▁zwe	-11493
Ukuba	-11494
ehoya	-11495
house	-11496
lapha	-11497
minbi	-11498
plagi	-11499
teron	-11500
wulwa	-11501
xygen	-11502
▁besa	-11503
▁sona	-11504
hlwaya	-11505
keleni	-11506
nikeza	-11507
▁Japan	-11508
▁Kwaku	-11509
▁Price	-11510
▁Quick	-11511
▁bodwa	-11512
▁floor	-11513
▁senza	-11514
▁unika	-11515
▁usuku	-11516
profeta	-11517
▁ubuntu	-11518
▁yobuso	-11519
bhisalom	-11520
buhlungu	-11521
buyisele	-11522
▁nobhedu	-11523
▁scooter	-11524
▁zenziwa	-11525
entrifuge	-11526
▁Shandong	-11527
▁isihloko	-11528
▁ngekrele	-11529
fudumeleyo	-11530
bungakanani	-11531
▁kwiinkqubo	-11532
▁ubuqaqawuli	-11533
▁zibandakanya	-11534
▁amantombazana	-11535
▁esetyenziselwa	-11536
32	-11537
:19	-11538
aku	-11539
bia	-11540
clo	-11541
▁NO	-11542
▁Nu	-11543
▁ig	-11544
XUYC	-11545
dali	-11546
ulwe	-11547
▁27,	-11548
khazi	-11549
mbezi	-11550
shuma	-11551
sonto	-11552
▁2013	-11553
▁Sini	-11554
▁iphe	-11555
▁nkqi	-11556
lawule	-11557
mbamba	-11558
▁Grand	-11559
▁Spins	-11560
▁World	-11561
▁kwent	-11562
▁sithe	-11563
▁yemvu	-11564
mbilini	-11565
▁amdaka	-11566
▁kagesi	-11567
▁EtiMnga	-11568
▁Headend	-11569
▁Ukondla	-11570
▁ethetha	-11571
▁uYohane	-11572
▁umbutho	-11573
citshiswa	-11574
khawulela	-11575
▁Iimpompo	-11576
▁cinezela	-11577
▁esatsiba	-11578
▁esinqeni	-11579
▁ezihamba	-11580
▁uqaphele	-11581
tolongweni	-11582
▁lukaThixo	-11583
▁nguYehova	-11584
▁elandelayo	-11585
▁eziphantsi	-11586
▁elipheleleyo	-11587
▁ukhuphiswano	-11588
▁yezilwanyana	-11589
▁yokuthambisa	-11590
▁lokulinganisa	-11591
▁nasekuqiniseni	-11592
7.	-11593
BP	-11594
SKK	-11595
tus	-11596
XUYZ	-11597
▁yan	-11598
bimbi	-11599
dingo	-11600
isuke	-11601
komfa	-11602
thume	-11603
▁EDFA	-11604
▁hand	-11605
▁poly	-11606
Yakobi	-11607
▁enhle	-11608
▁ibing	-11609
▁oxide	-11610
qekembe	-11611
▁amkele	-11612
▁iimoto	-11613
▁itanki	-11614
sindiswa	-11615
▁bhokisi	-11616
▁ibhatyi	-11617
▁kanjalo	-11618
▁yemihla	-11619
▁crimping	-11620
▁iinketho	-11621
▁ephakathi	-11622
▁iingcingo	-11623
▁iityhubhu	-11624
▁kwabafileyo	-11625
▁afanelekileyo	-11626
No	-11627
://	-11628
iin	-11629
▁ik	-11630
lazi	-11631
vusa	-11632
xuwa	-11633
zazi	-11634
▁gal	-11635
▁uty	-11636
benge	-11637
dayim	-11638
henry	-11639
kreqo	-11640
sekwa	-11641
shmir	-11642
tsale	-11643
yinga	-11644
▁Wawa	-11645
▁pool	-11646
▁ziku	-11647
litini	-11648
mbhalo	-11649
mkelwa	-11650
velufa	-11651
▁Hamba	-11652
▁igubu	-11653
▁makhe	-11654
▁ukwan	-11655
gqibile	-11656
▁Antico	-11657
▁Barber	-11658
▁Bianco	-11659
▁Impala	-11660
▁unyawo	-11661
mhlabeni	-11662
▁Intelli	-11663
▁Kashmir	-11664
umsebenzi	-11665
▁kukwenza	-11666
▁akufuneki	-11667
▁imimiselo	-11668
▁intsebenzo	-11669
▁microhenry	-11670
▁nangakumbi	-11671
▁nehlabathi	-11672
OOI	-11673
QOS	-11674
WTI	-11675
wai	-11676
▁46	-11677
▁hd	-11678
▁kg	-11679
sana	-11680
▁28,	-11681
▁ono	-11682
▁ulo	-11683
LIBUY	-11684
▁Kuma	-11685
▁ipla	-11686
▁nakw	-11687
▁wada	-11688
haneli	-11689
khumbi	-11690
khweli	-11691
kolelo	-11692
lisiwe	-11693
yobisi	-11694
▁Angle	-11695
▁isimo	-11696
▁ubona	-11697
ongezwa	-11698
tshiswe	-11699
▁Carbon	-11700
▁Ngapha	-11701
▁endiya	-11702
▁ungazi	-11703
enziweyo	-11704
gqityiwe	-11705
kholwayo	-11706
yamezela	-11707
▁Umbutho	-11708
▁esinoku	-11709
▁headend	-11710
▁outsole	-11711
▁sizathu	-11712
▁yomqala	-11713
▁ukunqanda	-11714
▁umhombiso	-11715
fanelekanga	-11716
▁ebukumkanini	-11717
▁isivumelwano	-11718
▁transmission	-11719
PVC	-11720
rou	-11721
www	-11722
▁4,	-11723
eshu	-11724
ingo	-11725
khen	-11726
yuko	-11727
▁Eco	-11728
▁Iso	-11729
▁Tag	-11730
trato	-11731
xonxa	-11732
▁2014	-11733
▁ukhu	-11734
lisela	-11735
sangqa	-11736
▁ngeso	-11737
▁ubume	-11738
dliwano	-11739
sekelwe	-11740
▁Ndathi	-11741
▁imbiza	-11742
▁imvula	-11743
▁umzobo	-11744
calators	-11745
gcwalise	-11746
politiko	-11747
▁ezinezi	-11748
▁ayikwazi	-11749
▁emashumi	-11750
▁kaYakobi	-11751
tshayelelo	-11752
▁ukhangele	-11753
luorescence	-11754
webhsayithi	-11755
▁ukuchaneka	-11756
▁eshicilelweyo	-11757
eq	-11758
wl	-11759
GRD	-11760
MOI	-11761
Mar	-11762
WZX	-11763
cra	-11764
ffo	-11765
▁Ju	-11766
▁NG	-11767
▁YJ	-11768
KUYE	-11769
KUYS	-11770
XUYV	-11771
cane	-11772
ylon	-11773
▁max	-11774
ature	-11775
engqi	-11776
jwili	-11777
ququz	-11778
▁Kuye	-11779
▁Main	-11780
▁Yezi	-11781
▁bube	-11782
▁nolu	-11783
▁zize	-11784
lisile	-11785
meleza	-11786
▁Boffo	-11787
▁owaye	-11788
fomathi	-11789
phuphuma	-11790
sasazeka	-11791
▁Linlang	-11792
▁website	-11793
phelileyo	-11794
▁elininzi	-11795
▁isityalo	-11796
▁izigqibo	-11797
▁nempompo	-11798
▁nqakraza	-11799
▁zolawulo	-11800
▁Enalitini	-11801
▁baseChina	-11802
▁ezamahala	-11803
▁iphambili	-11804
bandezeleka	-11805
▁Njengokuba	-11806
▁parameters	-11807
▁Ukukhanyisa	-11808
▁kwehlabathi	-11809
▁sesimangalo	-11810
▁isithuthuthu	-11811
tshatyalaliswa	-11812
▁bakwaSirayeli	-11813
▁yokusebenzisa	-11814
Es	-11815
Ish	-11816
KOS	-11817
fly	-11818
lek	-11819
▁iK	-11820
bble	-11821
city	-11822
male	-11823
▁Ben	-11824
▁ude	-11825
erson	-11826
fudus	-11827
iller	-11828
qheke	-11829
▁Phos	-11830
▁uyin	-11831
lazare	-11832
mibini	-11833
ongoza	-11834
▁emini	-11835
▁iifom	-11836
▁okwen	-11837
thylene	-11838
▁njongo	-11839
▁zifuna	-11840
▁zobomi	-11841
tratweni	-11842
wangcisa	-11843
▁Nicolas	-11844
▁ekuphum	-11845
▁iibhola	-11846
Ubungqina	-11847
mangaliso	-11848
tyebileyo	-11849
▁sesitovu	-11850
▁asezantsi	-11851
▁engenanto	-11852
▁entanyeni	-11853
▁elinamanci	-11854
▁iimpendulo	-11855
▁icentrifuge	-11856
▁ifanitshala	-11857
▁ukuhanjiswa	-11858
▁ezahlukileyo	-11859
▁yokukhangela	-11860
Va	-11861
ds	-11862
.””	-11863
ASE	-11864
ERN	-11865
INI	-11866
KTI	-11867
OZX	-11868
RUY	-11869
Tha	-11870
UOS	-11871
cos	-11872
eku	-11873
hli	-11874
▁70	-11875
▁eB	-11876
▁eG	-11877
SAFE	-11878
bize	-11879
cibi	-11880
enim	-11881
galo	-11882
loku	-11883
rate	-11884
word	-11885
▁Yom	-11886
▁dro	-11887
▁kho	-11888
chibi	-11889
glare	-11890
mbwai	-11891
▁IWUY	-11892
▁Nina	-11893
▁lock	-11894
▁wawo	-11895
▁linye	-11896
▁ubisi	-11897
ictures	-11898
zenzela	-11899
mbwaiter	-11900
sikelela	-11901
▁Changyu	-11902
▁amasebe	-11903
▁likhulu	-11904
▁Lixabiso	-11905
▁akazange	-11906
▁buhlungu	-11907
▁ilungelo	-11908
▁izifundo	-11909
▁yefowuni	-11910
gqubuthelo	-11911
▁emkhosini	-11912
▁kwiimfuno	-11913
▁lwamandla	-11914
▁namalungu	-11915
▁ungakwazi	-11916
▁Dumbwaiter	-11917
▁Escalators	-11918
qinisekisiwe	-11919
▁nampumelelo	-11920
▁ukufezekisa	-11921
▁ukuphendula	-11922
tsonkothileyo	-11923
Cha	-11924
ibh	-11925
nap	-11926
▁96	-11927
Anti	-11928
ming	-11929
rank	-11930
tere	-11931
zalo	-11932
▁Est	-11933
▁Sep	-11934
odolo	-11935
phini	-11936
▁Kwii	-11937
▁fast	-11938
▁lung	-11939
▁niba	-11940
bhloko	-11941
busuku	-11942
▁mbini	-11943
Lwandle	-11944
onakali	-11945
thenjwa	-11946
thobele	-11947
zelweyo	-11948
▁Robert	-11949
▁ikhona	-11950
▁ngenya	-11951
ditioner	-11952
hlangule	-11953
▁Ductile	-11954
▁Special	-11955
▁iinkomo	-11956
▁iqabane	-11957
phunyezwa	-11958
vunyiweyo	-11959
▁PlayBest	-11960
▁iPhaneli	-11961
▁iqulathe	-11962
▁lomzimba	-11963
▁ukuyenza	-11964
▁eyakhelwe	-11965
▁kukaThixo	-11966
▁zokufunda	-11967
▁Ukubumbela	-11968
▁amancinane	-11969
▁umthandazo	-11970
bandakanyeka	-11971
▁eliphambili	-11972
▁iingcamango	-11973
▁nokuveliswa	-11974
▁oqingqiweyo	-11975
▁ezinqabileyo	-11976
▁emnqamlezweni	-11977
▁yobuchwepheshe	-11978
?”	-11979
nd	-11980
-13	-11981
NYS	-11982
USB	-11983
▁UK	-11984
aner	-11985
neli	-11986
olda	-11987
▁cli	-11988
▁fri	-11989
▁mat	-11990
▁zes	-11991
Phaka	-11992
jinga	-11993
▁1997	-11994
▁Road	-11995
▁ndam	-11996
▁neya	-11997
Afrika	-11998
Yohane	-11999
fundwa	-12000
gcwala	-12001
lamano	-12002
tshizi	-12003
weleyo	-12004
▁Speed	-12005
▁adsor	-12006
▁asiyi	-12007
▁ngowa	-12008
▁ucofe	-12009
OLASAFE	-12010
yanzele	-12011
▁Shower	-12012
▁kaYesu	-12013
▁nangom	-12014
▁ngezwi	-12015
▁sinako	-12016
eminyaka	-12017
tifiketi	-12018
▁degrees	-12019
▁imfazwe	-12020
▁ndifuna	-12021
▁Koowheel	-12022
▁abangena	-12023
▁ukugqiba	-12024
fumanekayo	-12025
phathelele	-12026
▁bakwaYuda	-12027
▁ibhulorho	-12028
▁iifestile	-12029
▁iintlungu	-12030
▁kwiPhondo	-12031
tshintshela	-12032
▁Generation	-12033
▁Ifenitshala	-12034
▁amasuntswana	-12035
▁ezintlangeni	-12036
▁lokuthengisa	-12037
qinisekisiweyo	-12038
Pay	-12039
TML	-12040
bre	-12041
▁eH	-12042
-202	-12043
XUYE	-12044
deli	-12045
ffee	-12046
fier	-12047
lola	-12048
ushi	-12049
yiko	-12050
▁2.5	-12051
▁Ung	-12052
▁fea	-12053
▁str	-12054
▁yel	-12055
lette	-12056
liphu	-12057
qumla	-12058
thobe	-12059
zimvu	-12060
hlolis	-12061
melela	-12062
▁Revie	-12063
▁ndand	-12064
▁ndine	-12065
ciphise	-12066
iswanga	-12067
▁pallet	-12068
▁sifuna	-12069
Flexible	-12070
verboard	-12071
▁diamond	-12072
▁ikheshi	-12073
▁kuninzi	-12074
▁kuyenza	-12075
▁yeyiphi	-12076
▁Renminbi	-12077
▁Transpor	-12078
▁chloride	-12079
▁iintombi	-12080
entrifugal	-12081
hlanganisi	-12082
▁aphesheya	-12083
▁kukuvumela	-12084
▁lomsebenzi	-12085
▁Izibonelelo	-12086
▁ofanelekileyo	-12087
▁olufanelekileyo	-12088
.”—	-12089
Lat	-12090
ONG	-12091
▁SJ	-12092
▁kh	-12093
KUYA	-12094
caca	-12095
lade	-12096
meme	-12097
mine	-12098
▁800	-12099
▁CAT	-12100
▁VGA	-12101
▁coo	-12102
Metal	-12103
gxile	-12104
hlole	-12105
kukhu	-12106
lamba	-12107
ranti	-12108
▁exha	-12109
▁ikhe	-12110
▁uBha	-12111
▁ziba	-12112
bunjwa	-12113
cokola	-12114
ernsey	-12115
▁ozala	-12116
Coaxial	-12117
eptemba	-12118
lingane	-12119
▁Umgaqo	-12120
▁wafika	-12121
▁wesuka	-12122
▁zokuzi	-12123
Mandarin	-12124
yifumana	-12125
▁Trading	-12126
▁amadini	-12127
▁isabelo	-12128
▁ngumdla	-12129
▁wenyuka	-12130
▁yedatha	-12131
zobugcisa	-12132
▁Umvelisi	-12133
▁ekwakheni	-12134
qwenelekayo	-12135
▁eyomeleleyo	-12136
▁ezinamacala	-12137
▁ezisisiseko	-12138
▁echanekileyo	-12139
▁kwakhokelela	-12140
▁kwezemidlalo	-12141
▁iiwebhusayithi	-12142
▁zisetyenziselwa	-12143
QP	-12144
:23	-12145
KZX	-12146
QQS	-12147
UTI	-12148
gwa	-12149
uda	-12150
XUYR	-12151
diac	-12152
fuya	-12153
wenu	-12154
zine	-12155
▁Ayi	-12156
▁CUY	-12157
▁Kum	-12158
▁Vil	-12159
▁cnc	-12160
caphu	-12161
metic	-12162
zinzo	-12163
▁Down	-12164
▁Page	-12165
▁umfo	-12166
fuduka	-12167
phetha	-12168
tector	-12169
thwale	-12170
▁ababu	-12171
▁kwaso	-12172
▁sathi	-12173
kumbulo	-12174
okuqala	-12175
phindwe	-12176
▁Ulwazi	-12177
▁ingalo	-12178
engcinga	-12179
onophelo	-12180
phuculwe	-12181
▁Kwimeko	-12182
▁Tianjin	-12183
▁abaxumi	-12184
▁bangena	-12185
▁esithile	-12186
▁iinkunzi	-12187
▁iqulethe	-12188
ongeziweyo	-12189
▁kubhaliwe	-12190
▁nengqondo	-12191
▁onamandla	-12192
▁ubuncwane	-12193
▁ephilileyo	-12194
▁kubavelisi	-12195
▁lwemveliso	-12196
▁abangaphezu	-12197
▁neenkcukacha	-12198
▁yomsebenzisi	-12199
LP	-12200
-26	-12201
cbo	-12202
cul	-12203
▁eP	-12204
▁uT	-12205
Blue	-12206
KUYF	-12207
cker	-12208
hola	-12209
paka	-12210
teli	-12211
yeng	-12212
▁350	-12213
▁htt	-12214
▁leN	-12215
aming	-12216
cheng	-12217
cipha	-12218
fumba	-12219
shaja	-12220
▁ooma	-12221
indawo	-12222
msanqa	-12223
▁Touch	-12224
▁Umtya	-12225
anuwari	-12226
fundise	-12227
khuluwa	-12228
mikhono	-12229
tshanga	-12230
▁IsiSlo	-12231
▁Khetha	-12232
▁ubambe	-12233
▁ubhale	-12234
▁uqhuba	-12235
▁utyalo	-12236
cocekile	-12237
▁Welding	-12238
▁kungaba	-12239
▁unokuba	-12240
▁weshumi	-12241
khankanya	-12242
qhumisela	-12243
▁lwezinto	-12244
▁umjikelo	-12245
▁zokubeka	-12246
gqityiweyo	-12247
▁esifubeni	-12248
▁kumbhobho	-12249
▁nomnikelo	-12250
▁ukunikela	-12251
Khabhinethi	-12252
elektroniki	-12253
▁ezemidlalo	-12254
▁multimeter	-12255
▁ongunaphakade	-12256
▁ukunxibelelana	-12257
ELL	-12258
pili	-12259
▁(20	-12260
▁Rail	-12261
▁sawo	-12262
andiso	-12263
astral	-12264
banjwe	-12265
bonate	-12266
carbon	-12267
lelana	-12268
▁Kuthe	-12269
▁Solid	-12270
▁awuyi	-12271
▁imela	-12272
▁uzama	-12273
▁Melika	-12274
▁iwebhu	-12275
▁macala	-12276
▁okuhle	-12277
▁oluhle	-12278
▁zodidi	-12279
fudumala	-12280
zonyango	-12281
▁inqambi	-12282
▁neemeko	-12283
sesikweni	-12284
yingcwele	-12285
▁Guernsey	-12286
▁Magnetic	-12287
▁amakhadi	-12288
▁kangange	-12289
▁kukhethwa	-12290
▁neminyaka	-12291
▁bukaYehova	-12292
▁enxulumene	-12293
▁singakwazi	-12294
▁ukuphelisa	-12295
▁ukuvavanya	-12296
AV	-12297
Ad	-12298
Kho	-12299
XQS	-12300
bru	-12301
kem	-12302
twa	-12303
▁Hu	-12304
▁TI	-12305
▁Us	-12306
▁mp	-12307
High	-12308
XUYK	-12309
hasi	-12310
qele	-12311
qiqa	-12312
vota	-12313
vulo	-12314
yayo	-12315
▁iSi	-12316
▁obo	-12317
▁pat	-12318
emini	-12319
mende	-12320
rithi	-12321
shana	-12322
umela	-12323
ziswe	-12324
▁Core	-12325
▁Rcbo	-12326
▁Sand	-12327
▁Site	-12328
▁neye	-12329
▁yazi	-12330
graphy	-12331
lution	-12332
oprene	-12333
qukuva	-12334
tshang	-12335
zibuko	-12336
▁Chris	-12337
▁Konke	-12338
▁kusen	-12339
▁kwimo	-12340
buyiswa	-12341
mbelele	-12342
sasazwa	-12343
shafati	-12344
▁ahlala	-12345
▁endiku	-12346
▁iiveki	-12347
▁isidlo	-12348
▁nabemi	-12349
▁thermo	-12350
▁ukonga	-12351
thutyana	-12352
vakalisi	-12353
▁INtloko	-12354
▁abavela	-12355
▁imbande	-12356
▁zezinto	-12357
hlangothi	-12358
omeleleyo	-12359
▁KweSipro	-12360
▁eyenziwa	-12361
▁kwiblogi	-12362
▁olunzulu	-12363
▁womelele	-12364
bonakaliso	-12365
▁Miniature	-12366
▁engatyiwa	-12367
▁kweentsuku	-12368
▁Ukujikeleza	-12369
▁abakhethiweyo	-12370
▁kukhuphiswano	-12371
▁yayisemehlweni	-12372
:"	-12373
Ek	-12374
pl	-12375
-70	-12376
ams	-12377
asi	-12378
mes	-12379
▁Fr	-12380
▁Mu	-12381
Fili	-12382
Lizwi	-12383
Simon	-12384
brand	-12385
inawa	-12386
▁Fire	-12387
▁Yiya	-12388
▁faka	-12389
▁inge	-12390
biyeli	-12391
cebisi	-12392
cilela	-12393
limela	-12394
▁Cater	-12395
▁Imeko	-12396
▁Indlu	-12397
▁Layer	-12398
▁Ukwen	-12399
▁badla	-12400
▁bakwa	-12401
▁langa	-12402
▁lwaso	-12403
ference	-12404
khitshi	-12405
ngeneni	-12406
▁igcina	-12407
▁imvume	-12408
▁nemini	-12409
▁ukulwa	-12410
khanyeni	-12411
khutshwe	-12412
thwathwa	-12413
▁abanoku	-12414
▁nohlobo	-12415
▁yesizwe	-12416
tyisiweyo	-12417
▁Ngultrum	-12418
▁hlabathi	-12419
▁kusoloko	-12420
▁wafumana	-12421
▁yomhlaba	-12422
▁umbandela	-12423
bhambathiso	-12424
transceiver	-12425
▁iqinisekisa	-12426
▁Photovoltaic	-12427
▁ngokuhambelana	-12428
56	-12429
Bo	-12430
jv	-12431
▁”	-12432
-00	-12433
KQS	-12434
MOS	-12435
ayo	-12436
ism	-12437
KUYC	-12438
UNYE	-12439
siwe	-12440
zoku	-12441
▁(3)	-12442
▁Max	-12443
▁UYM	-12444
▁osi	-12445
Khala	-12446
kuhle	-12447
▁1994	-12448
▁IsiE	-12449
▁lisi	-12450
▁tape	-12451
▁weva	-12452
Petros	-12453
hlelwa	-12454
hluthe	-12455
kanqin	-12456
qhotyo	-12457
▁Jiujv	-12458
▁abaye	-12459
▁nakho	-12460
▁plate	-12461
▁ukuch	-12462
chithwa	-12463
dlelane	-12464
graphic	-12465
khulayo	-12466
▁isondo	-12467
Septemba	-12468
guqulela	-12469
▁Ifilimu	-12470
▁kufuphi	-12471
▁kwegazi	-12472
▁nqanaba	-12473
▁uphahla	-12474
sondeleyo	-12475
▁Clothing	-12476
▁Isakhiwo	-12477
▁Waterjet	-12478
▁eshukuma	-12479
▁iingxelo	-12480
▁kolawulo	-12481
▁neenkomo	-12482
▁ngoLwesi	-12483
kanqinishe	-12484
mbingelelo	-12485
▁afikelela	-12486
▁kubangela	-12487
▁kwizicelo	-12488
▁ephakadeni	-12489
▁ibhulukhwe	-12490
▁ukuveliswa	-12491
▁isilwanyana	-12492
▁unokufumana	-12493
▁SaseMandarin	-12494
▁zonxibelelwano	-12495
Cu	-12496
ELO	-12497
IMO	-12498
ITE	-12499
als	-12500
dri	-12501
kim	-12502
pon	-12503
▁3)	-12504
▁9.	-12505
▁Sm	-12506
▁iT	-12507
-150	-12508
UYYZ	-12509
dama	-12510
feza	-12511
inde	-12512
nesi	-12513
roll	-12514
▁Ali	-12515
▁Str	-12516
▁fla	-12517
▁iis	-12518
▁kaM	-12519
▁lel	-12520
▁ter	-12521
steur	-12522
yilwa	-12523
zinza	-12524
▁Inch	-12525
▁Khan	-12526
▁Mill	-12527
▁Pres	-12528
▁sobu	-12529
khange	-12530
mpompa	-12531
vakala	-12532
▁afana	-12533
▁kukha	-12534
Phezulu	-12535
▁France	-12536
▁angena	-12537
▁borosi	-12538
▁ifuthe	-12539
▁Kneader	-12540
▁Ngelixa	-12541
▁bakubon	-12542
▁ingxoxo	-12543
▁isiciko	-12544
▁koThixo	-12545
▁noThixo	-12546
▁nomgubo	-12547
▁uthanda	-12548
▁iqokobhe	-12549
▁kwiiyure	-12550
▁generator	-12551
▁ngomshini	-12552
▁wamwisela	-12553
▁wokumkani	-12554
▁zeMveliso	-12555
▁Amacandelo	-12556
▁Ekhuthazwa	-12557
▁Ngaphantsi	-12558
▁ngeentlobo	-12559
▁ngumngundo	-12560
▁yentengiso	-12561
guquguqukayo	-12562
▁noomatshini	-12563
hlambulukileyo	-12564
▁ngokungqongqo	-12565
▁ngokwemfuneko	-12566
Du	-12567
Fin	-12568
PZX	-12569
UAR	-12570
ULU	-12571
ark	-12572
gia	-12573
ror	-12574
▁47	-12575
▁Va	-12576
WUYR	-12577
gung	-12578
phor	-12579
roon	-12580
▁Gal	-12581
▁Nom	-12582
▁can	-12583
▁fer	-12584
▁gir	-12585
hluzi	-12586
piece	-12587
thayo	-12588
xhaka	-12589
▁Miss	-12590
▁Wazi	-12591
▁leho	-12592
▁nano	-12593
qhoqho	-12594
tayile	-12595
▁Icebo	-12596
▁denim	-12597
▁emlan	-12598
▁eying	-12599
▁ibhlo	-12600
▁ndazi	-12601
▁udidi	-12602
ekariya	-12603
kokheli	-12604
mbadada	-12605
▁Master	-12606
▁nasesi	-12607
▁yemali	-12608
fundiswa	-12609
mbindini	-12610
▁Spanish	-12611
▁yobhedu	-12612
mboneleli	-12613
▁ikhamera	-12614
▁ilawulwa	-12615
▁uxanduva	-12616
khonkrithi	-12617
▁ezintweni	-12618
▁neziphumo	-12619
▁olubiyele	-12620
▁sisixhobo	-12621
▁ngenyameko	-12622
▁ukuguqulwa	-12623
▁eqingqiweyo	-12624
▁engaphambili	-12625
▁yokunyibilikisa	-12626
Ban	-12627
Bay	-12628
OOS	-12629
get	-12630
Meyi	-12631
UHAI	-12632
WUYJ	-12633
cell	-12634
fula	-12635
host	-12636
lati	-12637
load	-12638
rasi	-12639
vale	-12640
▁Roo	-12641
▁koM	-12642
▁lan	-12643
▁woo	-12644
lisha	-12645
phuli	-12646
xhuma	-12647
▁Masi	-12648
▁anda	-12649
▁lady	-12650
▁site	-12651
▁zaku	-12652
chunge	-12653
erubha	-12654
mbombo	-12655
qumrhu	-12656
▁Deuts	-12657
▁FUHAI	-12658
▁IsiMa	-12659
▁Money	-12660
▁Ukuma	-12661
▁esiko	-12662
▁ndiwu	-12663
▁ubawo	-12664
▁uqala	-12665
yanzela	-12666
▁bayazi	-12667
▁enzulu	-12668
▁uhlolo	-12669
▁uphume	-12670
▁waqala	-12671
▁zivela	-12672
ineering	-12673
qhotyosh	-12674
tyhilelo	-12675
▁compact	-12676
▁oluvela	-12677
bhekisele	-12678
phuhliswe	-12679
▁amatyala	-12680
▁iSahlulo	-12681
▁iinaliti	-12682
▁isigxina	-12683
▁ngokwama	-12684
▁ukuhluza	-12685
▁usebenze	-12686
▁wentente	-12687
▁wesibini	-12688
pplication	-12689
▁Isalathisi	-12690
▁isikhundla	-12691
▁oluhlabayo	-12692
▁Manufacturing	-12693
▁sinemisebenzi	-12694
▁Transportation	-12695
▁interchangeable	-12696
RC	-12697
,””	-12698
Dan	-12699
LOI	-12700
MZX	-12701
OKU	-12702
QUA	-12703
Qeq	-12704
uge	-12705
▁OI	-12706
▁ak	-12707
hibi	-12708
melo	-12709
▁Mid	-12710
▁hla	-12711
▁leM	-12712
▁pid	-12713
inton	-12714
kampu	-12715
mbele	-12716
stone	-12717
xweme	-12718
▁Lady	-12719
▁Ngen	-12720
▁nele	-12721
▁ngel	-12722
Yosefu	-12723
eramic	-12724
printa	-12725
▁izaku	-12726
▁petro	-12727
▁Kulung	-12728
▁kwento	-12729
▁uEliya	-12730
▁ubukho	-12731
Katolika	-12732
▁Malunga	-12733
▁wamnika	-12734
khululeka	-12735
▁Inverter	-12736
▁amaqondo	-12737
▁electric	-12738
▁elilodwa	-12739
▁irekhodi	-12740
▁kwakukho	-12741
▁ukukwazi	-12742
▁umqhaphu	-12743
▁zenzelwe	-12744
▁crossbody	-12745
▁kwealkali	-12746
▁nokumkani	-12747
▁eqhubekayo	-12748
▁kwizixhobo	-12749
▁Intelligent	-12750
▁Temperature	-12751
▁elinababini	-12752
▁ibandakanya	-12753
zisebenzelayo	-12754
-,	-12755
BN	-12756
400	-12757
IOI	-12758
IWI	-12759
MQS	-12760
lor	-12761
pre	-12762
rap	-12763
▁0,	-12764
▁Zu	-12765
WUYY	-12766
cken	-12767
hogo	-12768
mayo	-12769
rent	-12770
xake	-12771
yane	-12772
▁Gas	-12773
ating	-12774
ength	-12775
istim	-12776
tampu	-12777
▁PTFE	-12778
▁ngun	-12779
▁unge	-12780
Lawulo	-12781
bhizin	-12782
encasa	-12783
qabile	-12784
qalayo	-12785
yikima	-12786
▁Irish	-12787
▁Kroon	-12788
▁iints	-12789
▁ndayi	-12790
▁ukuva	-12791
entlaka	-12792
kratshi	-12793
pholile	-12794
sondezo	-12795
xilongo	-12796
▁Rosari	-12797
▁ezikwi	-12798
▁owenza	-12799
▁uphela	-12800
▁uphose	-12801
gqithisa	-12802
▁Silicon	-12803
▁ifanele	-12804
▁kuphele	-12805
▁nelanga	-12806
▁ngokwam	-12807
▁yokunga	-12808
▁Estonian	-12809
▁ababethe	-12810
▁imodyuli	-12811
▁kumadoda	-12812
▁kungenxa	-12813
▁ngolunye	-12814
▁shishini	-12815
▁akhawunti	-12816
▁esixhenxe	-12817
▁frequency	-12818
▁ziikubhite	-12819
khompyutheni	-12820
▁Caterpillar	-12821
▁deformation	-12822
▁yokulungisa	-12823
▁borosilicate	-12824
▁emangalisayo	-12825
▁edityanisiweyo	-12826
▁singabakhiqizi	-12827
hy	-12828
bag	-12829
▁5,	-12830
▁>>	-12831
▁QC	-12832
▁UR	-12833
XUYW	-12834
bact	-12835
bron	-12836
dale	-12837
inya	-12838
kota	-12839
mbus	-12840
rown	-12841
selu	-12842
tofu	-12843
lagen	-12844
senza	-12845
▁engc	-12846
▁mhla	-12847
▁salo	-12848
▁temp	-12849
elelan	-12850
tyholi	-12851
tywini	-12852
▁Makhe	-12853
▁Phase	-12854
▁asesi	-12855
▁juice	-12856
▁magic	-12857
▁naban	-12858
▁ngoba	-12859
▁servo	-12860
▁Phambi	-12861
▁Wesuka	-12862
▁ezinom	-12863
▁usapho	-12864
Zekariya	-12865
▁Camping	-12866
▁chiller	-12867
▁yewebhu	-12868
phazamisa	-12869
profayili	-12870
▁Japanese	-12871
▁iNdumiso	-12872
▁iphezulu	-12873
▁izihlunu	-12874
▁kuKristu	-12875
▁okuninzi	-12876
▁wenkonzo	-12877
▁yokusika	-12878
▁zibonisa	-12879
tekhnoloji	-12880
▁Connector	-12881
▁Imibhobho	-12882
▁amaqhosha	-12883
▁kuphucula	-12884
▁nesakhiwo	-12885
▁radiation	-12886
qinisekiswe	-12887
▁zokulawula	-12888
tshabalalise	-12889
▁kwiimveliso	-12890
▁kwiinkampani	-12891
▁nokuthembeka	-12892
Su	-12893
hm	-12894
-90	-12895
CTI	-12896
ETI	-12897
IZX	-12898
hem	-12899
san	-12900
▁65	-12901
▁Ab	-12902
kezi	-12903
sema	-12904
xibo	-12905
▁Toy	-12906
▁Wam	-12907
▁kuy	-12908
Aruba	-12909
exham	-12910
isayi	-12911
lizer	-12912
lling	-12913
thath	-12914
tyuwa	-12915
xhulu	-12916
▁Acry	-12917
▁Ding	-12918
▁Jack	-12919
▁Kulo	-12920
▁inom	-12921
▁yeli	-12922
banced	-12923
estern	-12924
libala	-12925
▁Yinto	-12926
▁ozone	-12927
dlulisa	-12928
rekhodi	-12929
▁IsiSer	-12930
▁ekuvel	-12931
▁Chronic	-12932
▁Njengom	-12933
▁Shields	-12934
▁Siphose	-12935
▁Unyango	-12936
▁lishumi	-12937
▁lokutya	-12938
yanzelisa	-12939
▁Deutsche	-12940
▁emntwini	-12941
▁eyindoda	-12942
▁magnetic	-12943
▁olwandle	-12944
bhakabhaka	-12945
▁Ukufumana	-12946
▁abangelwe	-12947
▁engamanzi	-12948
▁ethengisa	-12949
▁ibonakala	-12950
endelezweni	-12951
ngaphakathi	-12952
▁entlokweni	-12953
▁ezindaweni	-12954
▁iimagnethi	-12955
▁iimvavanyo	-12956
▁lakwaKanan	-12957
▁ukulandela	-12958
▁ukulayisha	-12959
▁yophuhliso	-12960
hlanganisana	-12961
▁ezindlebeni	-12962
▁nokuhombisa	-12963
▁yokuthumela	-12964
▁eziphilileyo	-12965
▁namashishini	-12966
▁Oluthambileyo	-12967
OQS	-12968
UQS	-12969
bic	-12970
tio	-12971
KUYQ	-12972
cled	-12973
fese	-12974
isco	-12975
leum	-12976
mane	-12977
xele	-12978
xine	-12979
▁08,	-12980
▁App	-12981
▁MUY	-12982
▁Nje	-12983
▁Pig	-12984
▁ibu	-12985
▁kaH	-12986
gical	-12987
inobu	-12988
▁UMUY	-12989
▁ebhe	-12990
▁lalo	-12991
▁nkqu	-12992
-2021,	-12993
Norway	-12994
dified	-12995
kraine	-12996
langan	-12997
xabela	-12998
zeleyo	-12999
▁2009.	-13000
▁Chaud	-13001
▁Rocks	-13002
▁ikopi	-13003
▁imida	-13004
▁iyaku	-13005
▁umama	-13006
banceda	-13007
gxamesi	-13008
imeyili	-13009
rekhoda	-13010
talente	-13011
▁UIsaya	-13012
▁efakwe	-13013
▁ithole	-13014
▁mnyama	-13015
▁nantsi	-13016
▁torque	-13017
▁ungabi	-13018
▁yamava	-13019
▁yomoya	-13020
fudumezi	-13021
lawulayo	-13022
politiki	-13023
▁Acrylic	-13024
▁bhonasi	-13025
▁kungabi	-13026
▁ngokuco	-13027
▁usoloko	-13028
singisele	-13029
▁eMzantsi	-13030
▁eNkosini	-13031
▁ingcwele	-13032
▁isampulu	-13033
▁isibetho	-13034
▁njengako	-13035
▁Isilimela	-13036
▁eBhabheli	-13037
▁operation	-13038
▁zisebenza	-13039
▁lweKhasino	-13040
▁wehlabathi	-13041
▁transceiver	-13042
▁ukubuyisela	-13043
▁ukukhutshwa	-13044
▁Ekugqibeleni	-13045
▁elilandelayo	-13046
au	-13047
-17	-13048
MCC	-13049
Pal	-13050
USA	-13051
WUA	-13052
-120	-13053
WUYA	-13054
dume	-13055
▁AMA	-13056
▁Pop	-13057
▁dri	-13058
▁iga	-13059
▁tri	-13060
▁wes	-13061
hlazo	-13062
rypto	-13063
under	-13064
wangu	-13065
▁Apho	-13066
laneli	-13067
phethi	-13068
phithi	-13069
qununu	-13070
veleli	-13071
xhapha	-13072
▁Grade	-13073
▁igadi	-13074
▁shaft	-13075
hejiang	-13076
komityi	-13077
qashiso	-13078
▁Nantsi	-13079
▁bendlu	-13080
▁inqaba	-13081
▁uyihlo	-13082
▁zezona	-13083
Zekeliso	-13084
bafileyo	-13085
▁Impompo	-13086
▁afumane	-13087
▁eendaba	-13088
▁evumela	-13089
▁kuluntu	-13090
khitshini	-13091
▁Inombolo	-13092
ehoshafati	-13093
▁nabaxhasi	-13094
▁kungenziwa	-13095
▁intyatyambo	-13096
▁okwethutyana	-13097
▁ngokuqhubekayo	-13098
YP	-13099
lt	-13100
:22	-13101
GOI	-13102
GQS	-13103
ITR	-13104
UER	-13105
pri	-13106
▁Em	-13107
sium	-13108
▁Cos	-13109
▁Ter	-13110
ibona	-13111
kamva	-13112
thako	-13113
thium	-13114
▁Ipro	-13115
▁Sale	-13116
▁Scho	-13117
▁film	-13118
▁ingo	-13119
▁ngoo	-13120
bhutsi	-13121
bulawe	-13122
enguqu	-13123
qalelo	-13124
zibini	-13125
▁Colle	-13126
▁Frame	-13127
▁ingum	-13128
▁kubon	-13129
▁kuhla	-13130
▁kwazi	-13131
▁ndibu	-13132
▁ndina	-13133
Bheteli	-13134
khiwane	-13135
lekyuli	-13136
thumayo	-13137
tyileyo	-13138
▁Pellet	-13139
▁intaba	-13140
▁uyenze	-13141
lawulelo	-13142
silicone	-13143
thembiso	-13144
yintloko	-13145
▁Impahla	-13146
▁egazini	-13147
▁ekuseni	-13148
▁labantu	-13149
▁omnyama	-13150
▁yolwazi	-13151
danduluka	-13152
▁EyeKhala	-13153
▁Jacquard	-13154
▁asebenza	-13155
▁asibhozo	-13156
▁kweemeko	-13157
▁kwindalo	-13158
▁ephepheni	-13159
▁ifumaneka	-13160
▁ukuhlamba	-13161
▁ukuphepha	-13162
▁elincinane	-13163
▁imizuzwana	-13164
▁ngengqondo	-13165
▁ungcoliseko	-13166
▁okusemandleni	-13167
▁zisetyenziswe	-13168
Ahi	-13169
POS	-13170
RYS	-13171
Rus	-13172
TZX	-13173
UDR	-13174
XLI	-13175
ZZX	-13176
kes	-13177
▁QS	-13178
UUYA	-13179
WUYD	-13180
daya	-13181
ejie	-13182
seny	-13183
▁Mir	-13184
▁Tpo	-13185
▁Uma	-13186
▁Uno	-13187
▁owo	-13188
▁seN	-13189
eneni	-13190
olowa	-13191
▁Boku	-13192
▁Dong	-13193
▁Ther	-13194
▁eman	-13195
▁seku	-13196
Cement	-13197
dumisa	-13198
gulane	-13199
lation	-13200
lingwa	-13201
ongela	-13202
▁Class	-13203
▁Ritec	-13204
▁Jinbin	-13205
▁Window	-13206
▁abathi	-13207
▁bomntu	-13208
▁ndenza	-13209
▁nyanga	-13210
▁photos	-13211
▁umendo	-13212
qiniseke	-13213
thambeka	-13214
tyenziso	-13215
▁Channel	-13216
▁Monitor	-13217
▁isangqa	-13218
▁ngomnye	-13219
▁nokutya	-13220
▁yenkomo	-13221
▁Currency	-13222
▁Ubunzima	-13223
▁alishumi	-13224
▁iindonga	-13225
▁ngokwesi	-13226
▁nobusuku	-13227
khathazeka	-13228
▁Abathengi	-13229
▁abaphathi	-13230
▁amaNgqina	-13231
▁excavator	-13232
▁iisampulu	-13233
▁ingqolowa	-13234
▁odumileyo	-13235
▁ukwamkela	-13236
▁zokubhala	-13237
xokelelwane	-13238
▁lehoseyile	-13239
▁nemimiselo	-13240
▁centrifugal	-13241
▁kulindeleke	-13242
▁ukujikeleza	-13243
▁ukuqokelela	-13244
▁wokugqibela	-13245
▁eziyimfuneko	-13246
▁kwiintengiso	-13247
▁ngokwezifiso	-13248
▁eneenkcukacha	-13249
Ri	-13250
cc	-13251
lb	-13252
nm	-13253
Car	-13254
GZX	-13255
LZX	-13256
UOR	-13257
WOI	-13258
ZTI	-13259
ach	-13260
ase	-13261
thy	-13262
wum	-13263
Blog	-13264
XUYL	-13265
dela	-13266
ffer	-13267
▁1.2	-13268
▁ABS	-13269
▁Ger	-13270
▁hea	-13271
▁isu	-13272
▁kam	-13273
▁tra	-13274
▁yim	-13275
godlo	-13276
qumbo	-13277
▁Kwen	-13278
▁ayin	-13279
▁edge	-13280
▁ngoM	-13281
kamela	-13282
puting	-13283
▁esiyi	-13284
▁eyolu	-13285
▁sizes	-13286
▁uyayi	-13287
Kronike	-13288
YouTube	-13289
frijini	-13290
khusane	-13291
mboleko	-13292
▁Angola	-13293
▁Jiejie	-13294
▁kokufa	-13295
thembisa	-13296
▁ityholo	-13297
▁mboniso	-13298
▁nombala	-13299
▁ubuxoki	-13300
▁umnquba	-13301
▁umrhumo	-13302
▁akunjalo	-13303
▁kwandisa	-13304
▁lenjongo	-13305
▁qiniseka	-13306
▁nabahlobo	-13307
▁neengxaki	-13308
▁ukwahlula	-13309
▁engaphakathi	-13310
▁kwimisebenzi	-13311
▁oqhelekileyo	-13312
▁yokusingatha	-13313
▁imilinganiselo	-13314
Con	-13315
ETW	-13316
WQS	-13317
YYY	-13318
gib	-13319
oot	-13320
▁sc	-13321
▁ul	-13322
gqin	-13323
lusa	-13324
chasa	-13325
enoku	-13326
erver	-13327
jengo	-13328
metal	-13329
qeshi	-13330
▁Hose	-13331
▁nela	-13332
▁noYo	-13333
▁saku	-13334
▁yeza	-13335
romato	-13336
xamise	-13337
▁Jonga	-13338
▁Kwiin	-13339
▁iposi	-13340
▁packa	-13341
▁wehla	-13342
▁ziing	-13343
factory	-13344
oneleli	-13345
▁Motors	-13346
▁inzala	-13347
▁kusini	-13348
▁lilifa	-13349
▁ukundi	-13350
▁unique	-13351
▁woxolo	-13352
InMotion	-13353
hlwayela	-13354
▁Crystal	-13355
▁Lowcled	-13356
▁Optical	-13357
▁Pasteur	-13358
▁UmAruba	-13359
▁ezibini	-13360
▁kwafika	-13361
bancedani	-13362
▁Kwelanga	-13363
▁intlanzi	-13364
▁kususela	-13365
bhityileyo	-13366
emvakalelo	-13367
▁bakaThixo	-13368
▁nomthetho	-13369
▁osezantsi	-13370
▁sikaThixo	-13371
▁yeflaneli	-13372
enzululwazi	-13373
▁esikolweni	-13374
▁YeziKronike	-13375
tshangatshang	-13376
▁ekusebenzeni	-13377
9%	-13378
DP	-13379
mA	-13380
vt	-13381
IMR	-13382
ZOI	-13383
bila	-13384
disa	-13385
fish	-13386
liga	-13387
rity	-13388
romo	-13389
tual	-13390
▁zol	-13391
Bhile	-13392
eming	-13393
gquba	-13394
inike	-13395
▁Mana	-13396
▁Waya	-13397
▁iyan	-13398
lekele	-13399
miweyo	-13400
pylene	-13401
▁condu	-13402
▁ezize	-13403
▁kwiSe	-13404
▁nolwa	-13405
▁phone	-13406
▁ungen	-13407
▁yento	-13408
mboniso	-13409
phumela	-13410
▁Market	-13411
▁School	-13412
▁Umbane	-13413
▁esekwe	-13414
▁ininzi	-13415
▁Kanjalo	-13416
▁Phezulu	-13417
▁bangabi	-13418
▁wamkela	-13419
▁zifakwe	-13420
engonyama	-13421
gubungele	-13422
▁ephilayo	-13423
▁izihloko	-13424
▁kwangoku	-13425
khasimende	-13426
▁abanamava	-13427
▁bokumkani	-13428
phumelelayo	-13429
▁Chronicles	-13430
▁ababetheki	-13431
▁isichumiso	-13432
▁nabakhonzi	-13433
▁ukujongana	-13434
▁waseYiputa	-13435
▁Idiphozithi	-13436
▁obalaseleyo	-13437
▁ukukhuselwa	-13438
▁entolongweni	-13439
▁abangabancedani	-13440
AY	-13441
:26	-13442
EST	-13443
OUA	-13444
WOS	-13445
hao	-13446
▁ZX	-13447
WUYG	-13448
biwa	-13449
liva	-13450
raji	-13451
untu	-13452
urce	-13453
▁LTD	-13454
▁son	-13455
esine	-13456
isene	-13457
shirt	-13458
yiphu	-13459
▁Type	-13460
▁ebha	-13461
▁ehla	-13462
▁eyan	-13463
▁uben	-13464
▁watt	-13465
brashi	-13466
phulwa	-13467
tywayo	-13468
xolela	-13469
▁Hotel	-13470
▁Shirt	-13471
▁bandi	-13472
▁uFaro	-13473
▁wanga	-13474
engxaki	-13475
tterfly	-13476
tywinwa	-13477
▁Distri	-13478
▁ikhefu	-13479
▁ushiye	-13480
▁nomfazi	-13481
bandwidth	-13482
phathiswa	-13483
thamsanqa	-13484
ubungqina	-13485
▁Amazinyo	-13486
▁Kungenxa	-13487
▁elangeni	-13488
▁iinqwelo	-13489
▁iyakwazi	-13490
▁kuvumela	-13491
▁kwendalo	-13492
▁lamawaka	-13493
▁umlawuli	-13494
andisiweyo	-13495
▁nabafundi	-13496
▁kwisixhobo	-13497
▁nenkampani	-13498
tyenzisiweyo	-13499
▁Performance	-13500
▁ethabathela	-13501
▁asetyenziswe	-13502
▁zokuthambisa	-13503
▁ezithambileyo	-13504
03	-13505
94	-13506
▁♦	-13507
:24	-13508
IKE	-13509
IYR	-13510
MKH	-13511
NOI	-13512
POI	-13513
TUA	-13514
bed	-13515
ubo	-13516
yna	-13517
jike	-13518
kubu	-13519
▁Tex	-13520
▁cor	-13521
▁gas	-13522
-2018	-13523
Itali	-13524
bhuku	-13525
nyaka	-13526
thoko	-13527
tocol	-13528
▁Sean	-13529
▁Sine	-13530
▁Wayi	-13531
▁beba	-13532
▁chap	-13533
▁eBay	-13534
▁ilin	-13535
▁ukwe	-13536
dekiya	-13537
ofront	-13538
yaweni	-13539
▁Ngabo	-13540
▁eqine	-13541
▁kwano	-13542
▁okuba	-13543
▁ukuwu	-13544
▁zithi	-13545
bulumko	-13546
papasha	-13547
peyinta	-13548
qhayisa	-13549
xhatsha	-13550
▁Handle	-13551
▁capaci	-13552
▁makube	-13553
▁nanini	-13554
▁nasemi	-13555
▁noxolo	-13556
▁umfana	-13557
Shenzhen	-13558
enzekayo	-13559
pakishwa	-13560
thambile	-13561
▁Company	-13562
▁iphinde	-13563
▁langoku	-13564
▁nesimbo	-13565
▁uboniso	-13566
bhizinisi	-13567
intengiso	-13568
phandleni	-13569
▁Ifayibha	-13570
▁uhlawule	-13571
▁usindiso	-13572
▁zoonyana	-13573
Rhulumente	-13574
tywiniweyo	-13575
▁agudileyo	-13576
▁engakumbi	-13577
▁enyangeni	-13578
▁esincinci	-13579
▁eyomileyo	-13580
▁ukutshiza	-13581
▁zilungele	-13582
mangalisayo	-13583
▁lokuvelisa	-13584
▁ukuqhubeka	-13585
▁Amanyathelo	-13586
▁asesitalini	-13587
▁esiphelweni	-13588
▁ezinamandla	-13589
MDA	-13590
UKR	-13591
UMR	-13592
cat	-13593
ens	-13594
▁(3	-13595
▁iA	-13596
▁ph	-13597
Luka	-13598
Midi	-13599
logo	-13600
mava	-13601
tywi	-13602
▁neA	-13603
Efese	-13604
▁1500	-13605
▁ASTM	-13606
▁Cold	-13607
▁Heat	-13608
▁Roll	-13609
▁basa	-13610
▁coin	-13611
▁iCar	-13612
▁lali	-13613
▁liku	-13614
▁neku	-13615
▁unom	-13616
Melika	-13617
anyano	-13618
hadini	-13619
kwanga	-13620
thathi	-13621
yokhwe	-13622
▁lwalo	-13623
Candelo	-13624
blogger	-13625
kohliso	-13626
sakhiwo	-13627
vuthela	-13628
▁ingama	-13629
▁isizwe	-13630
▁nickel	-13631
phakheja	-13632
▁nezenzo	-13633
▁umnxeba	-13634
▁uvelisa	-13635
shumayela	-13636
▁Driveway	-13637
▁isifundo	-13638
▁ithayile	-13639
▁kwewebhu	-13640
▁oluhlaza	-13641
▁yokufaka	-13642
▁ukukhupha	-13643
▁abasebenza	-13644
▁eminqubeni	-13645
▁nokulawula	-13646
▁leenkcukacha	-13647
▁yangaphambili	-13648
55	-13649
CPU	-13650
GOS	-13651
HOI	-13652
KUA	-13653
OLI	-13654
PTI	-13655
hea	-13656
oxi	-13657
tun	-13658
zan	-13659
▁UN	-13660
Yeri	-13661
fect	-13662
lulo	-13663
trol	-13664
▁app	-13665
▁cur	-13666
▁iwa	-13667
▁kaT	-13668
minye	-13669
onent	-13670
rhola	-13671
xhoma	-13672
▁Grey	-13673
▁Vest	-13674
▁core	-13675
▁imbi	-13676
▁lenu	-13677
Matshi	-13678
phetho	-13679
▁anike	-13680
▁iseva	-13681
▁phaya	-13682
▁wumbi	-13683
thelisa	-13684
▁Europe	-13685
▁bhanya	-13686
▁kobuso	-13687
▁plasma	-13688
▁sezulu	-13689
▁ukubha	-13690
Zedekiya	-13691
sithathu	-13692
▁Electro	-13693
▁ICasino	-13694
▁bezinto	-13695
▁imigodi	-13696
▁indiban	-13697
▁kwimizi	-13698
▁yemvelo	-13699
fihliweyo	-13700
tshatanga	-13701
tshintshi	-13702
▁Iintetho	-13703
▁elingena	-13704
▁iphantsi	-13705
▁kwamehlo	-13706
▁loMhlaba	-13707
▁nesantya	-13708
▁nomxholo	-13709
▁okwenene	-13710
▁ukubetha	-13711
▁yenkqubo	-13712
▁kweYordan	-13713
▁ngenkxaso	-13714
▁turntable	-13715
▁uSirayeli	-13716
▁zemidlalo	-13717
▁Flashlight	-13718
▁amaFilisti	-13719
▁emkhombeni	-13720
▁imvakalelo	-13721
▁kubonelela	-13722
▁lokuphumla	-13723
▁nokwandisa	-13724
▁aluminiyamu	-13725
▁basebenzise	-13726
▁ekukhanyeni	-13727
▁zisebenzisa	-13728
▁isikhonkwane	-13729
▁amalungiselelo	-13730
▁ngezikhonkwane	-13731
▁esifanelekileyo	-13732
CMS	-13733
LOS	-13734
gcu	-13735
▁LC	-13736
▁UL	-13737
NNOS	-13738
hati	-13739
jiya	-13740
tern	-13741
unch	-13742
yoko	-13743
▁Bei	-13744
▁imm	-13745
▁yoo	-13746
TRATE	-13747
hepha	-13748
mbeka	-13749
phako	-13750
phumi	-13751
teshi	-13752
thoza	-13753
tyiki	-13754
▁bala	-13755
▁engo	-13756
▁kufi	-13757
▁naxa	-13758
▁noba	-13759
Yeriko	-13760
bongwe	-13761
holide	-13762
tridge	-13763
zalela	-13764
▁INNOS	-13765
▁Point	-13766
▁funda	-13767
▁jonga	-13768
▁kukun	-13769
▁kweso	-13770
▁wothi	-13771
khukula	-13772
▁kwasem	-13773
▁nakwin	-13774
▁zinike	-13775
okubakho	-13776
▁Uphando	-13777
▁ngeposi	-13778
▁ngomoya	-13779
▁unomdla	-13780
▁kaKristu	-13781
▁kwaphela	-13782
▁loonyana	-13783
▁omncinci	-13784
▁zendlela	-13785
▁Cwangcisa	-13786
▁kwibakala	-13787
▁lesilicon	-13788
▁nobunzima	-13789
▁ukuphatha	-13790
hambelanayo	-13791
▁INNOSTRATE	-13792
▁Certificate	-13793
▁lwabathengi	-13794
▁ukuhlaziywa	-13795
▁Abasebenzisi	-13796
▁izinambuzane	-13797
ek	-13798
:25	-13799
CZX	-13800
HZX	-13801
YTI	-13802
mat	-13803
▁Om	-13804
▁Pu	-13805
...]	-13806
WUYN	-13807
beli	-13808
kese	-13809
lume	-13810
msha	-13811
▁Egy	-13812
▁Pan	-13813
▁Pen	-13814
▁weN	-13815
cking	-13816
venki	-13817
▁KUYG	-13818
▁Ziya	-13819
▁iPad	-13820
▁kweN	-13821
▁lina	-13822
▁port	-13823
esktop	-13824
grated	-13825
kokeli	-13826
lassic	-13827
ondele	-13828
phanya	-13829
sesane	-13830
▁Amaso	-13831
▁Iseti	-13832
▁[...]	-13833
▁ngowe	-13834
▁olwen	-13835
▁ubuze	-13836
lindela	-13837
phelile	-13838
yezweni	-13839
yintoni	-13840
▁oxygen	-13841
▁yobuqu	-13842
sangweni	-13843
sezantsi	-13844
▁Reviews	-13845
▁amabala	-13846
▁bafunde	-13847
▁bahlale	-13848
▁ivelufa	-13849
▁ngenani	-13850
▁oothixo	-13851
yethylene	-13852
▁Neofront	-13853
▁Yongdian	-13854
▁advanced	-13855
▁isivamvo	-13856
▁kuphinda	-13857
▁negalelo	-13858
▁osebenza	-13859
▁sokunene	-13860
▁ulandele	-13861
mashishini	-13862
▁kokukhona	-13863
▁uHezekiya	-13864
▁yokufunda	-13865
▁ekujoliswe	-13866
▁ezingaphezu	-13867
▁kwisingxobo	-13868
▁ngohlangothi	-13869
▁wabathengisi	-13870
▁baseYerusalem	-13871
▁ehlanganisiweyo	-13872
63	-13873
AZ	-13874
Kh	-13875
St	-13876
▁→	-13877
-35	-13878
Izi	-13879
SZX	-13880
TOI	-13881
URL	-13882
UUR	-13883
mit	-13884
ode	-13885
▁FH	-13886
cuku	-13887
fela	-13888
ngca	-13889
▁Bon	-13890
▁DIY	-13891
▁Fpc	-13892
▁Vel	-13893
▁Wir	-13894
▁cle	-13895
Green	-13896
aneno	-13897
fihle	-13898
hlile	-13899
preli	-13900
qatsh	-13901
ssard	-13902
yulwe	-13903
▁Beka	-13904
▁Toys	-13905
▁Wide	-13906
▁enco	-13907
▁niku	-13908
▁yaya	-13909
andise	-13910
bhanon	-13911
hlelwe	-13912
mpondo	-13913
xhamli	-13914
▁akaba	-13915
▁inama	-13916
▁manga	-13917
▁spray	-13918
ctivity	-13919
hlonela	-13920
kelweyo	-13921
kxalabo	-13922
ondweni	-13923
versity	-13924
▁Hammer	-13925
▁Itreyi	-13926
▁Photos	-13927
▁ahlale	-13928
▁inceda	-13929
wokuqala	-13930
▁Ndabona	-13931
▁Ukwakha	-13932
▁bahamba	-13933
▁ethwele	-13934
▁kwebala	-13935
▁ndabona	-13936
▁ngenene	-13937
▁Ingqondo	-13938
▁ebangela	-13939
▁ezizweni	-13940
▁features	-13941
▁kungcono	-13942
▁lwabantu	-13943
▁nabaLevi	-13944
▁nophahla	-13945
▁Ekuqaleni	-13946
▁Mfutshane	-13947
▁eyaziwayo	-13948
▁imiyalezo	-13949
▁kokumkani	-13950
▁kwisayithi	-13951
▁isiFrentshi	-13952
▁kungekudala	-13953
▁kwentliziyo	-13954
▁kwimimandla	-13955
▁replaceable	-13956
▁eqaqambileyo	-13957
▁sokukhuphela	-13958
▁nababingeleli	-13959
AX	-13960
RP	-13961
COI	-13962
FTI	-13963
GTI	-13964
LQS	-13965
UBT	-13966
UWR	-13967
gue	-13968
ody	-13969
rim	-13970
ule	-13971
▁49	-13972
▁63	-13973
hayi	-13974
shta	-13975
tmas	-13976
visi	-13977
zizo	-13978
▁Ell	-13979
▁ace	-13980
▁lib	-13981
▁sli	-13982
gator	-13983
▁Hard	-13984
▁Song	-13985
▁chip	-13986
▁flip	-13987
▁Ndiye	-13988
▁Unako	-13989
▁conta	-13990
▁uzaku	-13991
andipha	-13992
▁Sinako	-13993
▁chrome	-13994
▁endala	-13995
▁izitya	-13996
▁kayise	-13997
▁kulowo	-13998
▁umculo	-13999
▁yegazi	-14000
▁zeNeon	-14001
fication	-14002
kholweni	-14003
pheliswa	-14004
thintele	-14005
▁Testing	-14006
▁Charging	-14007
▁bathetha	-14008
▁iinzipho	-14009
▁kophahla	-14010
▁ngokwawo	-14011
▁ubunzulu	-14012
▁ukubheja	-14013
khankanywe	-14014
▁UYeremiya	-14015
▁esisiseko	-14016
▁kwiCasino	-14017
▁ophakathi	-14018
▁ulwakhiwo	-14019
▁ushishino	-14020
▁workpiece	-14021
▁yokuzalwa	-14022
▁Adjustable	-14023
▁Ngaphezulu	-14024
▁fiberglass	-14025
▁kweenkonzo	-14026
▁kwiinkonzo	-14027
▁kwasemlilweni	-14028
▁engaqhelekanga	-14029
▁esisetyenziswa	-14030
EZX	-14031
IWR	-14032
Kwa	-14033
UIR	-14034
UVR	-14035
kqo	-14036
ndi	-14037
▁II	-14038
▁Or	-14039
WUYH	-14040
tong	-14041
yond	-14042
▁Gel	-14043
▁iiN	-14044
dinwa	-14045
erode	-14046
matsu	-14047
quphe	-14048
tarhu	-14049
vitha	-14050
xinwa	-14051
▁Thin	-14052
Polish	-14053
dawana	-14054
kcenkc	-14055
phones	-14056
qhenqa	-14057
versal	-14058
vunywa	-14059
▁Cross	-14060
▁cover	-14061
▁kraca	-14062
▁lithe	-14063
phuculo	-14064
program	-14065
sondele	-14066
thayile	-14067
zaliswe	-14068
▁Ndinga	-14069
▁imbasa	-14070
▁isango	-14071
▁noAron	-14072
▁yazala	-14073
▁yesiko	-14074
Hezekile	-14075
cedisayo	-14076
qhoshana	-14077
sisiseko	-14078
sungulwa	-14079
▁amavili	-14080
▁iinzame	-14081
▁zizonke	-14082
▁zomlilo	-14083
bhimeleki	-14084
phumeleli	-14085
thiriyeli	-14086
▁Iindleko	-14087
▁Modified	-14088
▁imizimba	-14089
▁umbilini	-14090
▁umnyango	-14091
▁yabonani	-14092
thethileyo	-14093
▁OoSomlomo	-14094
▁ekhanyayo	-14095
▁umncedisi	-14096
mkelekileyo	-14097
▁ekuhambeni	-14098
▁ukulungele	-14099
▁yookumkani	-14100
▁ezifumaneka	-14101
▁mathandathu	-14102
▁ngamaplanga	-14103
▁ukuphakheja	-14104
▁yokuhambisa	-14105
▁Amakhandlela	-14106
▁intsingiselo	-14107
▁oluqhubekayo	-14108
▁ungasebenzisa	-14109
▁;	-14110
CDN	-14111
Eli	-14112
NBR	-14113
QLI	-14114
arl	-14115
rom	-14116
rui	-14117
zoh	-14118
▁Ci	-14119
▁ml	-14120
WUYB	-14121
bulo	-14122
cade	-14123
dwel	-14124
gada	-14125
lama	-14126
stel	-14127
tech	-14128
▁Awu	-14129
▁Psa	-14130
▁SGS	-14131
▁arc	-14132
▁eco	-14133
▁kon	-14134
▁lim	-14135
▁yeB	-14136
Micro	-14137
dleni	-14138
kuthi	-14139
ultra	-14140
▁Isin	-14141
▁Nges	-14142
dodoba	-14143
erator	-14144
esozoh	-14145
fikela	-14146
injini	-14147
jiweyo	-14148
valiwe	-14149
▁ibala	-14150
▁ifomu	-14151
▁ndisi	-14152
▁osisi	-14153
▁table	-14154
Midiyan	-14155
Qeqesho	-14156
cwabeni	-14157
isimesi	-14158
lomitha	-14159
vuthayo	-14160
yimfama	-14161
▁angabi	-14162
▁elingu	-14163
▁immuno	-14164
▁isithi	-14165
▁seMoto	-14166
▁wavuka	-14167
fumanise	-14168
kuqaleni	-14169
▁mthetho	-14170
▁organic	-14171
▁ubabalo	-14172
▁ukondla	-14173
▁uxwebhu	-14174
landelela	-14175
▁Khumbula	-14176
▁abahamba	-14177
▁collagen	-14178
▁izizathu	-14179
ngaphandle	-14180
▁Microsoft	-14181
▁isithsaba	-14182
▁nobuchule	-14183
▁sisebenza	-14184
▁ezimhlophe	-14185
▁iakhawunti	-14186
▁ihambelana	-14187
▁ngokwesiko	-14188
▁zokwenziwa	-14189
▁ukuphuculwa	-14190
▁asetyenziswa	-14191
▁iikhemikhali	-14192
onocrystalline	-14193
▁zangaphambili	-14194
▁ngasempumalanga	-14195
▁oluthembekileyo	-14196
2)	-14197
▁и	-14198
App	-14199
COM	-14200
COS	-14201
HTI	-14202
IOS	-14203
IYY	-14204
VZX	-14205
XJR	-14206
imi	-14207
old	-14208
twe	-14209
ult	-14210
▁At	-14211
▁HS	-14212
▁PS	-14213
▁hy	-14214
Geor	-14215
duli	-14216
pher	-14217
poxy	-14218
ziin	-14219
▁360	-14220
▁750	-14221
▁Ara	-14222
▁clu	-14223
▁uNa	-14224
Khaya	-14225
cocwa	-14226
gxila	-14227
hinqo	-14228
lonke	-14229
stere	-14230
thise	-14231
▁KUYW	-14232
▁Plus	-14233
▁ikhu	-14234
▁wabu	-14235
▁ziko	-14236
Shekem	-14237
baleka	-14238
galela	-14239
milise	-14240
tyhile	-14241
▁Demin	-14242
▁lobun	-14243
▁thixo	-14244
▁wemka	-14245
Disemba	-14246
Oktobha	-14247
jengoku	-14248
kuphela	-14249
phawule	-14250
qaliswa	-14251
reative	-14252
▁Njenge	-14253
▁Sports	-14254
▁angene	-14255
▁aphosa	-14256
▁engayi	-14257
▁ingabi	-14258
funekiyo	-14259
hlukunye	-14260
▁Komatsu	-14261
▁Organic	-14262
▁Waxonxa	-14263
▁bewebhu	-14264
▁isixeko	-14265
endwendwe	-14266
▁Endaweni	-14267
▁eluncedo	-14268
▁isikhulu	-14269
▁nentlaka	-14270
▁ngalunye	-14271
▁ngamazwi	-14272
▁ziqinile	-14273
sunscreens	-14274
▁Umphezulu	-14275
▁abafileyo	-14276
▁iipleyiti	-14277
▁kwentloko	-14278
▁lobugcisa	-14279
▁ngeenyawo	-14280
▁sikhokelo	-14281
▁ukubaleka	-14282
▁Esebenzayo	-14283
▁ezinokuthi	-14284
▁kweenyanga	-14285
▁Electronics	-14286
▁Zenzekelayo	-14287
▁eprintiweyo	-14288
▁nokubonelela	-14289
▁ukulinganisa	-14290
▁qhagamshelana	-14291
500	-14292
IBR	-14293
MTL	-14294
MUA	-14295
NZX	-14296
SMF	-14297
TOS	-14298
TTI	-14299
YZX	-14300
ZOS	-14301
cue	-14302
ils	-14303
off	-14304
▁jo	-14305
Mode	-14306
xhon	-14307
▁Wal	-14308
▁Win	-14309
▁gro	-14310
▁noH	-14311
▁qho	-14312
▁uxo	-14313
eseta	-14314
khuhl	-14315
linga	-14316
yibhi	-14317
▁5000	-14318
▁Hamb	-14319
▁Onke	-14320
▁Pick	-14321
▁Roof	-14322
▁bene	-14323
▁emsi	-14324
▁gear	-14325
▁nawa	-14326
▁supp	-14327
▁zone	-14328
-2020,	-14329
hadala	-14330
▁Audio	-14331
▁Catho	-14332
▁kwale	-14333
▁nylon	-14334
engqiqo	-14335
hlanhla	-14336
krazula	-14337
kunjalo	-14338
odymium	-14339
zenzele	-14340
▁Peseta	-14341
▁abathe	-14342
▁ntathu	-14343
▁sukuba	-14344
▁uqonde	-14345
▁watsho	-14346
khumbuza	-14347
lisiweyo	-14348
qukuqela	-14349
thonjeni	-14350
vulekile	-14351
▁Ukufuya	-14352
▁eUnited	-14353
▁kunikwa	-14354
▁tubular	-14355
fihlakalo	-14356
▁Cosmetic	-14357
▁emhadini	-14358
▁komsindo	-14359
▁uSomlomo	-14360
▁uhombiso	-14361
▁wamandla	-14362
dodobalisa	-14363
khompyuter	-14364
▁ibaluleke	-14365
▁isibiyeli	-14366
▁kominyaka	-14367
▁yokhuselo	-14368
hlukunyezwa	-14369
phumeleleyo	-14370
▁Umphefumlo	-14371
▁yokutshixa	-14372
phangaleleyo	-14373
▁ezizimeleyo	-14374
▁ekhululekile	-14375
▁Certification	-14376
▁nokuqinisekisa	-14377
31	-14378
AB	-14379
Ele	-14380
IKR	-14381
MTI	-14382
NOS	-14383
QYR	-14384
cht	-14385
efo	-14386
gar	-14387
hua	-14388
lie	-14389
▁my	-14390
▁os	-14391
dule	-14392
fuba	-14393
fusa	-14394
gibe	-14395
rger	-14396
rier	-14397
roid	-14398
tafi	-14399
thle	-14400
viwa	-14401
▁ale	-14402
▁ech	-14403
▁uYa	-14404
▁und	-14405
▁yem	-14406
▁West	-14407
▁back	-14408
▁mazi	-14409
▁nayi	-14410
▁nili	-14411
banako	-14412
gement	-14413
hlolwe	-14414
mbhali	-14415
phapha	-14416
tekisi	-14417
velele	-14418
▁Brace	-14419
▁IsiTa	-14420
▁Phila	-14421
▁abali	-14422
▁anobu	-14423
▁iqala	-14424
▁lento	-14425
▁ovela	-14426
kholose	-14427
masango	-14428
▁Ibhodi	-14429
▁eminye	-14430
banikela	-14431
phelelwa	-14432
thandela	-14433
thembele	-14434
umzekelo	-14435
zimisela	-14436
▁Thunder	-14437
▁Yueming	-14438
▁efektri	-14439
▁izigidi	-14440
▁ngobuso	-14441
▁njenges	-14442
▁zeziphi	-14443
▁ababhali	-14444
▁lomhlaba	-14445
▁nokwakha	-14446
▁umtshato	-14447
▁wokucoca	-14448
▁yeendaba	-14449
bhinqileyo	-14450
▁iminikelo	-14451
▁zokubopha	-14452
vironmental	-14453
▁kwiinyanga	-14454
▁ukuthuthwa	-14455
▁uphumelele	-14456
▁uqwalaselo	-14457
lindelekanga	-14458
▁Imiqathango	-14459
▁basebenzisa	-14460
▁eenkcukacha	-14461
▁okubangelwa	-14462
▁umngcipheko	-14463
▁ngokubonelela	-14464
▁ngokuzimeleyo	-14465
▁uhlengahlengiso	-14466
fy	-14467
lk	-14468
▁œ	-14469
-11	-14470
Asa	-14471
GUA	-14472
LTI	-14473
VAC	-14474
YOI	-14475
ngo	-14476
wom	-14477
WUYF	-14478
fiki	-14479
liba	-14480
ping	-14481
qand	-14482
sase	-14483
sten	-14484
xond	-14485
▁Add	-14486
▁MOQ	-14487
▁ava	-14488
▁avu	-14489
▁che	-14490
-2000	-14491
angle	-14492
angxa	-14493
dison	-14494
mbano	-14495
onium	-14496
▁Huan	-14497
▁Ibhe	-14498
▁Labo	-14499
▁kuvu	-14500
▁nelo	-14501
▁senu	-14502
galele	-14503
kisile	-14504
xoweni	-14505
zodiac	-14506
▁Ninga	-14507
▁adola	-14508
▁isisi	-14509
▁uSilo	-14510
▁ukusa	-14511
bukhali	-14512
ongwayo	-14513
pakethi	-14514
yikitya	-14515
zakhono	-14516
▁Bunker	-14517
▁Farrow	-14518
▁Gaming	-14519
▁Makube	-14520
▁iitoni	-14521
▁ikamva	-14522
▁inkomo	-14523
▁isanti	-14524
chromato	-14525
tafileni	-14526
zaliseka	-14527
▁Ingxelo	-14528
▁Lesozoh	-14529
▁Textile	-14530
▁Ukujiya	-14531
▁Waphuma	-14532
▁amasiko	-14533
▁intlaka	-14534
▁kunyuka	-14535
▁likrele	-14536
▁nelizwe	-14537
▁umbhalo	-14538
propylene	-14539
▁esingena	-14540
▁kamnandi	-14541
▁kwenzeke	-14542
▁namaziko	-14543
▁ngoncedo	-14544
▁umaphuli	-14545
▁yendlela	-14546
▁yesondlo	-14547
▁yokuqaba	-14548
cwangciswa	-14549
khilomitha	-14550
▁Australia	-14551
▁amacwecwe	-14552
▁ekhokelwa	-14553
▁iisampuli	-14554
▁interface	-14555
▁kwempahla	-14556
▁kwimpompo	-14557
▁nakumazwe	-14558
▁ukuhlolwa	-14559
▁adsorption	-14560
▁ekungeneni	-14561
▁hoverboard	-14562
▁iCartridge	-14563
▁senkangala	-14564
▁wesixhenxe	-14565
▁acocekileyo	-14566
▁izibhengezo	-14567
▁Bracefactory	-14568
,-	-14569
.9	-14570
EOS	-14571
IJR	-14572
Ind	-14573
XUYU	-14574
cawa	-14575
doki	-14576
gnos	-14577
hafu	-14578
mema	-14579
vini	-14580
▁Bam	-14581
▁ECG	-14582
▁UDX	-14583
▁fun	-14584
▁ina	-14585
▁pul	-14586
▁uHa	-14587
Bhulu	-14588
Damas	-14589
caine	-14590
ibini	-14591
ilisi	-14592
jethi	-14593
khaka	-14594
phola	-14595
qumle	-14596
▁3000	-14597
▁Area	-14598
▁axis	-14599
▁kwez	-14600
▁slim	-14601
▁ukus	-14602
Hebron	-14603
Timoti	-14604
erabha	-14605
vundla	-14606
yinika	-14607
▁Enter	-14608
▁elibi	-14609
▁pores	-14610
Damasko	-14611
qhakuva	-14612
sahlobo	-14613
▁Andiyi	-14614
▁Igumbi	-14615
▁gqitha	-14616
▁kuziwa	-14617
▁nemizi	-14618
▁ngomso	-14619
khuthaze	-14620
phanyazo	-14621
▁UYohane	-14622
▁loluntu	-14623
▁umhlobo	-14624
▁yenyama	-14625
▁Amalungu	-14626
▁amagumbi	-14627
▁kwemihla	-14628
▁material	-14629
qongophala	-14630
▁Kulungile	-14631
▁amanqatha	-14632
▁amathambo	-14633
▁iipropati	-14634
▁nobugcisa	-14635
▁zikaThixo	-14636
▁KaSamuweli	-14637
▁ezisebenza	-14638
▁wenayiloni	-14639
weletshetshe	-14640
▁ifenitshala	-14641
▁kweentlanga	-14642
▁ngomnqamlezo	-14643
▁ekusebenziseni	-14644
▁engabonakaliyo	-14645
Cy	-14646
600	-14647
JZX	-14648
QYY	-14649
XZR	-14650
ZUA	-14651
ddy	-14652
izi	-14653
XUYM	-14654
XUYT	-14655
bram	-14656
cium	-14657
qhwi	-14658
sual	-14659
wood	-14660
▁Sil	-14661
▁spe	-14662
Panel	-14663
dabhi	-14664
mbuza	-14665
ziphi	-14666
▁1999	-14667
▁KUYZ	-14668
▁Prag	-14669
▁Size	-14670
▁bubi	-14671
▁lako	-14672
▁pipe	-14673
▁sazi	-14674
▁walu	-14675
▁yaza	-14676
balala	-14677
banisa	-14678
kisini	-14679
memori	-14680
qondwa	-14681
▁Girls	-14682
▁Sathi	-14683
▁ezazi	-14684
▁ndaya	-14685
▁nguma	-14686
Korinte	-14687
Ukraine	-14688
khalazo	-14689
stelloy	-14690
▁Ngokwa	-14691
vakalayo	-14692
yamekela	-14693
▁isayizi	-14694
▁konyaka	-14695
▁nozinzo	-14696
▁ofanayo	-14697
▁uyabona	-14698
ciphiseni	-14699
▁Isizathu	-14700
▁Kunokuba	-14701
▁iibhutsi	-14702
▁kamsinya	-14703
▁lokulala	-14704
▁njengaba	-14705
hlanganise	-14706
▁Hastelloy	-14707
▁Resistant	-14708
▁Technique	-14709
▁Ukunikeza	-14710
▁basebenze	-14711
▁egudileyo	-14712
▁ezaziwayo	-14713
▁kubaxhasi	-14714
▁neempahla	-14715
▁nokuhamba	-14716
▁ongendawo	-14717
▁unanamhla	-14718
▁yebhonasi	-14719
▁University	-14720
▁iintengiso	-14721
▁kumsebenzi	-14722
buchwepheshe	-14723
▁yomnqophiso	-14724
▁zobuchwepheshe	-14725
▁{	-14726
NTI	-14727
SUA	-14728
XFR	-14729
XOR	-14730
enx	-14731
hog	-14732
ill	-14733
▁--	-14734
Page	-14735
ject	-14736
lali	-14737
rono	-14738
▁230	-14739
▁Dec	-14740
▁OCA	-14741
▁kaK	-14742
fowun	-14743
gridi	-14744
mbana	-14745
sekho	-14746
▁Bowl	-14747
▁Lock	-14748
▁Skin	-14749
▁Slot	-14750
▁baso	-14751
▁indi	-14752
▁laku	-14753
▁nowa	-14754
▁pack	-14755
▁zero	-14756
cedevu	-14757
fthiwe	-14758
klabhu	-14759
tokhwe	-14760
zukisa	-14761
▁Heavy	-14762
▁Stage	-14763
▁bunga	-14764
▁fluid	-14765
▁lwezo	-14766
▁ndisa	-14767
aneleyo	-14768
kelelwa	-14769
phucule	-14770
thathwe	-14771
thulini	-14772
▁Ifakwe	-14773
▁Njenga	-14774
▁Ukunga	-14775
▁Umlilo	-14776
▁ibhlog	-14777
▁izakhi	-14778
wendwela	-14779
yikekayo	-14780
▁Ibhetri	-14781
▁Kucingo	-14782
▁Ukufuma	-14783
▁Xinxing	-14784
▁amacala	-14785
▁ekhwele	-14786
▁kombane	-14787
▁lewebhu	-14788
▁lobhedu	-14789
▁lombane	-14790
▁lomlilo	-14791
▁okulula	-14792
gqibezela	-14793
▁cylinder	-14794
▁indibano	-14795
▁kumaziko	-14796
▁ngethuba	-14797
▁ophantsi	-14798
▁zamandla	-14799
qwalaselwa	-14800
▁iimodyuli	-14801
▁imingxuma	-14802
▁kwiinkalo	-14803
▁kwisiseko	-14804
▁lokwenene	-14805
▁ngokokude	-14806
▁sengqondo	-14807
esentimitha	-14808
qeqeshiweyo	-14809
▁elinambini	-14810
▁laboratory	-14811
▁lokufumana	-14812
▁ngezixhobo	-14813
▁wakwaThixo	-14814
▁Ukufudumeza	-14815
▁ebalaseleyo	-14816
▁ngasekhohlo	-14817
▁kuchaphazela	-14818
▁ngokomthetho	-14819
▁zokuthengisa	-14820
▁nokusebenzisa	-14821
▁kwikhabhinethi	-14822
EA	-14823
BEF	-14824
Ent	-14825
KLI	-14826
NYE	-14827
omy	-14828
KUYX	-14829
kuko	-14830
uble	-14831
yang	-14832
▁oye	-14833
▁rea	-14834
based	-14835
hluli	-14836
hydro	-14837
jelwa	-14838
layis	-14839
linds	-14840
qholo	-14841
qwazi	-14842
utomo	-14843
▁Baza	-14844
▁KUYH	-14845
▁KUYO	-14846
▁News	-14847
▁Plug	-14848
▁Tung	-14849
▁ishi	-14850
▁kona	-14851
▁kwip	-14852
kabini	-14853
sintsi	-14854
▁Umoya	-14855
▁kukwa	-14856
▁serum	-14857
▁usike	-14858
▁yayin	-14859
▁zenze	-14860
bungane	-14861
iseleni	-14862
tyhilwa	-14863
xwemeni	-14864
▁Thetha	-14865
▁busuku	-14866
▁kuYesu	-14867
▁makabe	-14868
Bhileham	-14869
thembela	-14870
▁Ndiyazi	-14871
▁Seanrui	-14872
▁ekhohlo	-14873
▁iziselo	-14874
▁myalelo	-14875
▁nasemva	-14876
▁uthatha	-14877
▁zimbini	-14878
dipozithi	-14879
ertilizer	-14880
▁Yorhwebo	-14881
▁kulawulo	-14882
▁ngamehlo	-14883
▁soonyana	-14884
▁yofakelo	-14885
▁Izithethi	-14886
▁ngengomso	-14887
▁abathunywa	-14888
▁utshintshe	-14889
▁yesilivere	-14890
▁namagxamesi	-14891
▁obhityileyo	-14892
▁intlanganiso	-14893
',	-14894
UP	-14895
:28	-14896
And	-14897
CQS	-14898
JOI	-14899
NQS	-14900
QQR	-14901
UDI	-14902
UEI	-14903
fle	-14904
▁Zr	-14905
▁az	-14906
▁hi	-14907
▁ty	-14908
ener	-14909
mous	-14910
nish	-14911
stat	-14912
▁110	-14913
▁PSA	-14914
▁Tee	-14915
celwa	-14916
dways	-14917
kheka	-14918
mooth	-14919
thili	-14920
vumbo	-14921
▁Manx	-14922
▁cute	-14923
▁elis	-14924
▁iikh	-14925
▁kids	-14926
▁kusa	-14927
▁udla	-14928
▁zesa	-14929
Mandla	-14930
andule	-14931
angeli	-14932
ongolo	-14933
talato	-14934
tyhila	-14935
unting	-14936
▁Emily	-14937
▁Ivoti	-14938
▁QiLin	-14939
▁Tower	-14940
▁brush	-14941
▁iZiko	-14942
▁zeBar	-14943
caciswa	-14944
endweni	-14945
khaziml	-14946
kholeji	-14947
miselwa	-14948
▁Agasti	-14949
▁Marble	-14950
▁Petros	-14951
▁Travel	-14952
▁bafika	-14953
▁incasa	-14954
▁livela	-14955
▁strong	-14956
fumaneke	-14957
ingapore	-14958
▁Ufakelo	-14959
▁Zesolar	-14960
▁ambalwa	-14961
▁bacinga	-14962
▁ihotele	-14963
▁iintaka	-14964
▁ithathe	-14965
▁ivaliwe	-14966
▁khetshi	-14967
▁kwikona	-14968
▁lomenzi	-14969
▁utshaba	-14970
▁yiyiphi	-14971
qwelomoya	-14972
yibhileni	-14973
▁njengezi	-14974
▁Materials	-14975
▁amisiweyo	-14976
▁kwinkonzo	-14977
▁omathathu	-14978
▁wamashumi	-14979
▁Ikhadibodi	-14980
▁lokuthenga	-14981
▁lwehlabathi	-14982
▁fluorescence	-14983
▁ezibalaseleyo	-14984
.3	-14985
ICR	-14986
ZQS	-14987
rna	-14988
xel	-14989
▁ek	-14990
XUYX	-14991
ekho	-14992
ezin	-14993
godo	-14994
hary	-14995
plan	-14996
seya	-14997
viwo	-14998
yine	-14999
▁gra	-15000
agnos	-15001
hlele	-15002
hlisi	-15003
pedia	-15004
qithi	-15005
yiswe	-15006
▁Book	-15007
▁Park	-15008
▁Side	-15009
▁bebe	-15010
▁bush	-15011
▁enqa	-15012
▁enza	-15013
▁kaHa	-15014
▁ungo	-15015
▁veki	-15016
▁weld	-15017
konkxa	-15018
lamine	-15019
maniso	-15020
ongezo	-15021
plasti	-15022
silela	-15023
▁Athle	-15024
▁Ellis	-15025
▁Radio	-15026
▁aluka	-15027
▁ilifu	-15028
▁yaman	-15029
Georgia	-15030
ezifana	-15031
sinceda	-15032
tyantya	-15033
veliswe	-15034
▁Manure	-15035
▁bevela	-15036
▁xabiso	-15037
ROLASOLV	-15038
dayimani	-15039
faneleka	-15040
▁Iindawo	-15041
▁Kakhulu	-15042
▁Kuphela	-15043
▁Project	-15044
▁Umzimba	-15045
▁crystal	-15046
▁endinga	-15047
▁iibhodi	-15048
▁isiselo	-15049
▁ngamava	-15050
▁ukuguga	-15051
Ishmayeli	-15052
ongendawo	-15053
▁Athletic	-15054
▁IGenesis	-15055
▁Iminyaka	-15056
▁Ubuninzi	-15057
▁efrijini	-15058
▁iintonga	-15059
▁ngesondo	-15060
▁ngombono	-15061
▁ukushisa	-15062
lulekileyo	-15063
▁akwabakho	-15064
▁imfundiso	-15065
▁ubuncinci	-15066
▁Fertilizer	-15067
▁Oomatshini	-15068
▁isiqulatho	-15069
▁lesikhumba	-15070
▁naphakathi	-15071
▁ezichanekileyo	-15072
▁ngeesentimitha	-15073
▁ngokunxulumene	-15074
▁njengenxalenye	-15075
▁yokuzenzekelayo	-15076
-2,	-15077
EQS	-15078
FZX	-15079
LCD	-15080
SQL	-15081
lac	-15082
▁Cy	-15083
▁TT	-15084
▁qu	-15085
WUYZ	-15086
alth	-15087
lili	-15088
link	-15089
seli	-15090
ties	-15091
umlo	-15092
wist	-15093
ziba	-15094
▁304	-15095
▁Exp	-15096
▁Rom	-15097
▁Yoo	-15098
IXMAN	-15099
grade	-15100
lindo	-15101
sathi	-15102
soles	-15103
▁abem	-15104
▁adle	-15105
Russia	-15106
bercue	-15107
dekayi	-15108
intshi	-15109
tyhula	-15110
xiweyo	-15111
▁mbono	-15112
bruwari	-15113
sabatha	-15114
▁ezinto	-15115
▁istili	-15116
▁kuFaro	-15117
▁lamina	-15118
▁nonina	-15119
▁okuthe	-15120
dorphina	-15121
electric	-15122
fumanayo	-15123
ordekayi	-15124
▁Huanhao	-15125
▁Ngomhla	-15126
▁igcinwe	-15127
▁sisithi	-15128
▁ufanele	-15129
▁esiswini	-15130
[...]
